<unk>	0
<pad>	0
<s>	0
</s>	0
<bos>	0
<eos>	0
▁t	-0
▁a	-1
he	-2
in	-3
▁s	-4
▁the	-5
re	-6
on	-7
er	-8
▁w	-9
▁c	-10
▁o	-11
ed	-12
en	-13
▁p	-14
▁b	-15
an	-16
at	-17
▁f	-18
or	-19
▁m	-20
it	-21
es	-22
▁in	-23
is	-24
ar	-25
ing	-26
▁h	-27
▁to	-28
al	-29
▁d	-30
▁an	-31
▁of	-32
ou	-33
as	-34
ic	-35
id	-36
▁n	-37
il	-38
▁l	-39
ion	-40
▁and	-41
ro	-42
ent	-43
▁th	-44
▁re	-45
▁g	-46
ay	-47
▁e	-48
le	-49
om	-50
▁be	-51
us	-52
ve	-53
ad	-54
▁on	-55
ut	-56
▁sa	-57
▁st	-58
un	-59
▁he	-60
ter	-61
ur	-62
▁for	-63
ir	-64
ol	-65
ac	-66
▁said	-67
im	-68
▁k	-69
ly	-70
ig	-71
am	-72
ot	-73
st	-74
▁de	-75
▁is	-76
ill	-77
ver	-78
ation	-79
▁r	-80
ow	-81
ct	-82
et	-83
ore	-84
▁we	-85
▁that	-86
▁it	-87
ld	-88
▁"	-89
▁was	-90
▁at	-91
ce	-92
▁y	-93
▁se	-94
ort	-95
▁wh	-96
▁j	-97
▁al	-98
▁as	-99
▁con	-100
ith	-101
▁ch	-102
oun	-103
▁ne	-104
▁with	-105
ers	-106
est	-107
res	-108
ment	-109
se	-110
day	-111
op	-112
ist	-113
▁pro	-114
her	-115
▁v	-116
ate	-117
ak	-118
ch	-119
out	-120
ave	-121
ul	-122
ain	-123
▁com	-124
and	-125
ri	-126
el	-127
▁un	-128
ap	-129
rom	-130
ag	-131
▁le	-132
▁sh	-133
▁has	-134
▁from	-135
igh	-136
ial	-137
▁by	-138
▁u	-139
os	-140
▁are	-141
if	-142
ast	-143
ear	-144
▁af	-145
art	-146
▁have	-147
▁off	-148
▁sp	-149
▁su	-150
▁,	-151
▁ex	-152
red	-153
▁his	-154
▁go	-155
ies	-156
ice	-157
pp	-158
▁ab	-159
ity	-160
▁were	-161
ould	-162
▁year	-163
our	-164
▁pres	-165
oc	-166
ident	-167
▁but	-168
end	-169
▁tr	-170
▁will	-171
th	-172
ant	-173
ack	-174
▁rep	-175
ight	-176
▁not	-177
ab	-178
all	-179
▁pol	-180
um	-181
▁pl	-182
ud	-183
▁ag	-184
em	-185
ive	-186
od	-187
gh	-188
ess	-189
qu	-190
cc	-191
ary	-192
ong	-193
▁ar	-194
▁pe	-195
iv	-196
▁new	-197
ect	-198
▁wor	-199
ia	-200
▁cl	-201
▁after	-202
ian	-203
▁mon	-204
▁or	-205
▁kore	-206
ust	-207
▁they	-208
,"	-209
ry	-210
ie	-211
▁had	-212
▁who	-213
ok	-214
▁whe	-215
ound	-216
▁been	-217
ren	-218
ome	-219
ost	-220
ide	-221
ard	-222
ra	-223
mer	-224
▁president	-225
▁ro	-226
ich	-227
ople	-228
▁offic	-229
▁say	-230
▁min	-231
▁tw	-232
ther	-233
▁people	-234
▁about	-235
ge	-236
▁their	-237
▁more	-238
▁its	-239
▁res	-240
▁per	-241
ount	-242
ber	-243
ated	-244
ord	-245
▁out	-246
▁this	-247
vern	-248
ign	-249
▁two	-250
▁us	-251
▁ad	-252
▁part	-253
ime	-254
▁ir	-255
▁exp	-256
▁pr	-257
▁int	-258
▁me	-259
so	-260
ine	-261
▁govern	-262
▁her	-263
ions	-264
ans	-265
▁acc	-266
▁sec	-267
▁inc	-268
▁comp	-269
ks	-270
▁report	-271
▁up	-272
▁official	-273
▁she	-274
▁one	-275
ree	-276
cent	-277
▁mil	-278
uc	-279
▁man	-280
▁cont	-281
ace	-282
▁also	-283
esday	-284
▁nort	-285
pt	-286
▁att	-287
ous	-288
ough	-289
▁than	-290
ations	-291
ke	-292
▁dis	-293
▁over	-294
ates	-295
▁government	-296
▁would	-297
▁en	-298
iz	-299
ib	-300
▁all	-301
man	-302
▁which	-303
▁gr	-304
▁mar	-305
ip	-306
age	-307
▁sout	-308
▁br	-309
▁te	-310
ub	-311
▁count	-312
ors	-313
▁police	-314
▁inter	-315
int	-316
▁other	-317
▁fir	-318
ters	-319
▁sc	-320
▁state	-321
ass	-322
▁cr	-323
▁last	-324
own	-325
▁do	-326
ational	-327
av	-328
ue	-329
▁im	-330
ite	-331
ff	-332
ail	-333
ure	-334
der	-335
▁comm	-336
ical	-337
▁korea	-338
ake	-339
▁day	-340
▁north	-341
hed	-342
▁can	-343
ll	-344
illion	-345
▁no	-346
we	-347
ang	-348
▁ind	-349
lo	-350
ict	-351
aq	-352
▁first	-353
ile	-354
▁when	-355
ond	-356
nn	-357
▁i	-358
ish	-359
▁app	-360
▁milit	-361
ited	-362
▁iraq	-363
lect	-364
▁cnn	-365
ire	-366
ence	-367
▁wee	-368
▁la	-369
▁bus	-370
ince	-371
ition	-372
act	-373
▁kill	-374
▁inv	-375
▁lead	-376
ild	-377
ied	-378
▁dem	-379
▁qu	-380
▁mo	-381
ase	-382
▁south	-383
▁jo	-384
▁so	-385
▁percent	-386
▁am	-387
▁chin	-388
▁car	-389
iss	-390
▁ob	-391
▁into	-392
▁some	-393
ning	-394
one	-395
ade	-396
▁there	-397
▁bec	-398
▁dec	-399
▁cam	-400
old	-401
▁co	-402
▁fin	-403
ned	-404
▁ev	-405
▁fr	-406
lic	-407
▁bl	-408
oup	-409
ose	-410
▁ser	-411
enc	-412
li	-413
ep	-414
og	-415
▁time	-416
▁years	-417
▁op	-418
ved	-419
aus	-420
▁work	-421
▁war	-422
▁officials	-423
▁tal	-424
ress	-425
▁told	-426
▁elect	-427
▁call	-428
ell	-429
▁fe	-430
ru	-431
▁world	-432
▁li	-433
ama	-434
ance	-435
ally	-436
ult	-437
▁month	-438
▁pre	-439
▁bo	-440
itt	-441
lear	-442
ey	-443
ces	-444
orm	-445
ities	-446
ens	-447
▁could	-448
▁sun	-449
lud	-450
are	-451
ater	-452
▁week	-453
▁says	-454
con	-455
row	-456
▁ear	-457
▁accord	-458
▁them	-459
very	-460
arg	-461
ected	-462
▁according	-463
oll	-464
▁again	-465
▁three	-466
fe	-467
▁air	-468
▁fl	-469
▁act	-470
▁united	-471
▁tu	-472
ec	-473
ese	-474
▁monday	-475
▁under	-476
▁includ	-477
▁rec	-478
▁tuesday	-479
ach	-480
ked	-481
istan	-482
▁country	-483
▁military	-484
ister	-485
ath	-486
▁korean	-487
uring	-488
▁bet	-489
▁spok	-490
▁you	-491
▁sur	-492
▁attack	-493
▁since	-494
urs	-495
▁imp	-496
the	-497
▁par	-498
▁million	-499
▁wed	-500
ital	-501
▁intern	-502
reat	-503
ings	-504
▁aut	-505
fore	-506
▁obama	-507
▁news	-508
▁win	-509
▁ass	-510
▁killed	-511
▁cons	-512
▁cent	-513
▁just	-514
▁lo	-515
▁kn	-516
▁if	-517
ublic	-518
ft	-519
▁him	-520
▁party	-521
▁may	-522
▁supp	-523
▁group	-524
▁old	-525
▁plan	-526
▁states	-527
ause	-528
▁before	-529
▁national	-530
▁wedn	-531
▁wednesday	-532
▁minister	-533
vers	-534
▁sen	-535
▁ter	-536
▁amer	-537
ory	-538
▁americ	-539
▁down	-540
ouse	-541
▁end	-542
▁ban	-543
▁rem	-544
▁fore	-545
leg	-546
▁how	-547
▁reg	-548
ants	-549
▁most	-550
able	-551
▁dep	-552
▁show	-553
▁ann	-554
rat	-555
▁near	-556
apan	-557
ons	-558
▁japan	-559
rent	-560
ased	-561
ents	-562
▁invest	-563
med	-564
▁china	-565
▁sunday	-566
ious	-567
▁spokes	-568
land	-569
▁like	-570
ists	-571
app	-572
▁reported	-573
ket	-574
ah	-575
▁bush	-576
▁ac	-577
▁law	-578
ency	-579
▁against	-580
▁now	-581
conom	-582
rop	-583
hing	-584
▁any	-585
▁econom	-586
▁back	-587
▁cap	-588
▁prot	-589
▁mem	-590
▁ph	-591
▁rel	-592
ix	-593
ced	-594
du	-595
▁add	-596
other	-597
▁po	-598
king	-599
▁em	-600
▁during	-601
▁made	-602
▁prov	-603
way	-604
▁secur	-605
▁med	-606
az	-607
uclear	-608
uss	-609
▁four	-610
▁bar	-611
gan	-612
▁only	-613
ursday	-614
▁thursday	-615
▁ret	-616
▁city	-617
wn	-618
ert	-619
▁bu	-620
aking	-621
▁get	-622
▁where	-623
▁security	-624
▁democ	-625
ton	-626
rest	-627
ered	-628
▁des	-629
▁ap	-630
rough	-631
▁tur	-632
▁nuclear	-633
▁str	-634
▁cour	-635
▁house	-636
▁gen	-637
ame	-638
▁what	-639
vel	-640
▁while	-641
▁sm	-642
▁many	-643
▁found	-644
▁being	-645
ating	-646
led	-647
▁compan	-648
▁bel	-649
▁ins	-650
▁child	-651
orn	-652
omb	-653
ween	-654
▁inf	-655
▁wom	-656
▁z	-657
▁meet	-658
▁between	-659
▁because	-660
▁former	-661
▁ma	-662
▁brit	-663
▁mus	-664
▁miss	-665
▁through	-666
gr	-667
ops	-668
hor	-669
oss	-670
ai	-671
▁high	-672
ood	-673
▁called	-674
▁tri	-675
▁def	-676
ution	-677
▁eu	-678
▁conf	-679
▁won	-680
▁stud	-681
▁set	-682
▁author	-683
▁vis	-684
▁hel	-685
▁camp	-686
▁gu	-687
eral	-688
ral	-689
air	-690
und	-691
ower	-692
▁tro	-693
▁rele	-694
ared	-695
▁did	-696
ug	-697
▁long	-698
anc	-699
xt	-700
les	-701
▁spokesman	-702
▁col	-703
▁fam	-704
rael	-705
▁sy	-706
▁israel	-707
▁vi	-708
ments	-709
ision	-710
ward	-711
ick	-712
▁home	-713
ros	-714
▁run	-715
duct	-716
▁days	-717
▁still	-718
ife	-719
ret	-720
ork	-721
ily	-722
▁including	-723
als	-724
▁least	-725
▁help	-726
▁international	-727
▁democrat	-728
▁play	-729
ange	-730
▁che	-731
▁my	-732
bers	-733
▁opp	-734
▁five	-735
▁six	-736
▁num	-737
▁foreign	-738
ands	-739
▁court	-740
▁press	-741
ee	-742
▁ref	-743
ble	-744
ester	-745
▁death	-746
▁second	-747
▁head	-748
▁announ	-749
▁disc	-750
me	-751
▁pak	-752
ling	-753
▁troops	-754
▁afgh	-755
▁conc	-756
atur	-757
▁sch	-758
▁take	-759
▁pakistan	-760
▁bro	-761
▁polit	-762
ise	-763
▁sl	-764
▁right	-765
▁investig	-766
ized	-767
▁see	-768
▁next	-769
min	-770
▁eff	-771
▁those	-772
▁afghan	-773
ying	-774
▁vot	-775
▁resp	-776
ric	-777
▁public	-778
▁bot	-779
▁sus	-780
▁reports	-781
hern	-782
ful	-783
▁hour	-784
▁prime	-785
olog	-786
▁serv	-787
ady	-788
ms	-789
▁another	-790
▁eng	-791
ind	-792
ross	-793
ns	-794
inton	-795
ives	-796
ool	-797
ures	-798
▁loc	-799
▁start	-800
▁ra	-801
ting	-802
▁iss	-803
▁even	-804
▁bomb	-805
▁susp	-806
▁clinton	-807
sel	-808
▁way	-809
ual	-810
▁around	-811
ven	-812
imes	-813
ung	-814
iday	-815
istry	-816
▁point	-817
▁talks	-818
▁contin	-819
ries	-820
▁died	-821
▁maj	-822
▁dead	-823
ollow	-824
▁sign	-825
ics	-826
▁ministry	-827
osed	-828
▁pal	-829
▁open	-830
▁statement	-831
osp	-832
ages	-833
▁det	-834
▁terr	-835
▁viol	-836
▁sold	-837
iew	-838
▁follow	-839
io	-840
hes	-841
oul	-842
▁make	-843
ather	-844
▁need	-845
▁vict	-846
▁expected	-847
▁recent	-848
istr	-849
▁iran	-850
▁oper	-851
▁fire	-852
ained	-853
att	-854
▁our	-855
▁then	-856
ash	-857
▁retur	-858
▁billion	-859
ody	-860
▁mor	-861
▁put	-862
ices	-863
▁top	-864
▁belie	-865
oot	-866
▁authorities	-867
lier	-868
▁contro	-869
▁pass	-870
▁major	-871
▁visit	-872
▁commun	-873
ger	-874
ink	-875
▁ke	-876
ians	-877
▁market	-878
▁american	-879
ible	-880
▁children	-881
ged	-882
gram	-883
▁cor	-884
▁est	-885
▁russ	-886
▁company	-887
alth	-888
▁support	-889
▁arrest	-890
▁earlier	-891
ought	-892
veral	-893
port	-894
▁office	-895
▁program	-896
au	-897
uch	-898
amp	-899
▁want	-900
▁should	-901
osition	-902
rope	-903
▁europe	-904
erson	-905
ale	-906
ior	-907
▁hum	-908
▁cur	-909
▁look	-910
▁presidential	-911
▁forces	-912
▁secret	-913
aim	-914
▁power	-915
▁trans	-916
oci	-917
▁joh	-918
ivers	-919
▁both	-920
▁members	-921
▁several	-922
▁pa	-923
▁satur	-924
▁cond	-925
ief	-926
used	-927
▁election	-928
▁far	-929
▁leader	-930
ured	-931
▁saturday	-932
▁fil	-933
per	-934
▁early	-935
gin	-936
ird	-937
ism	-938
▁big	-939
▁chinese	-940
aw	-941
ense	-942
▁such	-943
▁leaders	-944
ular	-945
▁mcc	-946
▁york	-947
ute	-948
▁hosp	-949
▁number	-950
▁iraqi	-951
▁friday	-952
▁nation	-953
▁main	-954
▁spec	-955
▁white	-956
▁months	-957
▁school	-958
▁hospital	-959
▁ext	-960
arch	-961
▁don	-962
▁inj	-963
▁deal	-964
▁seoul	-965
ient	-966
▁good	-967
▁every	-968
riv	-969
▁dire	-970
▁agency	-971
ph	-972
te	-973
to	-974
ament	-975
hip	-976
▁washing	-977
aign	-978
ative	-979
ier	-980
line	-981
▁campaign	-982
▁democratic	-983
▁test	-984
▁well	-985
▁later	-986
aster	-987
ene	-988
▁bag	-989
▁bur	-990
▁washington	-991
▁pop	-992
▁sent	-993
▁countries	-994
ty	-995
ark	-996
▁incre	-997
atch	-998
▁cre	-999
▁saying	-1000
gress	-1001
▁direct	-1002
▁british	-1003
▁leg	-1004
▁rest	-1005
▁night	-1006
▁tak	-1007
feren	-1008
▁build	-1009
▁ge	-1010
▁sub	-1011
▁inst	-1012
▁left	-1013
▁took	-1014
ls	-1015
ner	-1016
▁ed	-1017
▁meeting	-1018
▁ent	-1019
ock	-1020
▁women	-1021
▁political	-1022
ific	-1023
▁hal	-1024
▁bank	-1025
▁claim	-1026
ility	-1027
▁came	-1028
▁know	-1029
▁prev	-1030
▁dr	-1031
▁ur	-1032
▁expl	-1033
▁capital	-1034
reed	-1035
▁men	-1036
iness	-1037
▁crit	-1038
▁among	-1039
▁charg	-1040
▁family	-1041
ines	-1042
▁health	-1043
my	-1044
rib	-1045
▁hop	-1046
▁team	-1047
cess	-1048
▁times	-1049
ued	-1050
▁ce	-1051
▁ve	-1052
▁used	-1053
▁rul	-1054
▁sw	-1055
gg	-1056
▁terror	-1057
artment	-1058
orters	-1059
▁aust	-1060
ched	-1061
▁dif	-1062
▁cand	-1063
▁grow	-1064
▁neg	-1065
ij	-1066
ets	-1067
ull	-1068
velop	-1069
▁own	-1070
up	-1071
ys	-1072
▁announced	-1073
ison	-1074
▁cal	-1075
▁sum	-1076
▁much	-1077
▁very	-1078
iers	-1079
▁stre	-1080
orts	-1081
▁civ	-1082
▁tour	-1083
ames	-1084
mber	-1085
▁person	-1086
estin	-1087
▁chief	-1088
ided	-1089
▁aff	-1090
▁ste	-1091
▁host	-1092
▁move	-1093
ised	-1094
loy	-1095
▁held	-1096
▁record	-1097
▁hit	-1098
▁wr	-1099
▁area	-1100
▁tele	-1101
▁den	-1102
▁sim	-1103
▁fed	-1104
son	-1105
ator	-1106
▁alleg	-1107
ired	-1108
▁ago	-1109
▁ger	-1110
▁'	-1111
▁mid	-1112
▁char	-1113
ified	-1114
ues	-1115
ject	-1116
▁john	-1117
ones	-1118
▁life	-1119
▁develop	-1120
▁kim	-1121
▁hours	-1122
gy	-1123
hd	-1124
▁coun	-1125
ax	-1126
▁har	-1127
▁poss	-1128
▁associ	-1129
▁economic	-1130
ains	-1131
uck	-1132
▁fac	-1133
▁spe	-1134
▁threat	-1135
▁organ	-1136
▁hom	-1137
▁result	-1138
▁business	-1139
▁allow	-1140
ened	-1141
▁site	-1142
▁human	-1143
▁candid	-1144
▁general	-1145
▁protest	-1146
side	-1147
iban	-1148
stem	-1149
▁prom	-1150
▁fight	-1151
▁rese	-1152
ever	-1153
ts	-1154
▁pen	-1155
▁peace	-1156
▁secretary	-1157
ck	-1158
▁few	-1159
ending	-1160
▁going	-1161
▁morning	-1162
▁taliban	-1163
ted	-1164
ction	-1165
▁hold	-1166
▁today	-1167
▁bre	-1168
ov	-1169
▁system	-1170
lam	-1171
▁pat	-1172
▁free	-1173
▁past	-1174
cept	-1175
ention	-1176
▁concer	-1177
▁vide	-1178
uel	-1179
ering	-1180
▁same	-1181
▁republic	-1182
▁use	-1183
▁hand	-1184
▁trave	-1185
▁nearly	-1186
▁attacks	-1187
ds	-1188
▁job	-1189
aving	-1190
▁third	-1191
bal	-1192
▁civil	-1193
iate	-1194
ready	-1195
aff	-1196
▁your	-1197
ony	-1198
▁afghanistan	-1199
ves	-1200
▁lee	-1201
▁met	-1202
▁post	-1203
▁const	-1204
▁palestin	-1205
▁adv	-1206
▁close	-1207
▁gre	-1208
▁baghd	-1209
▁quest	-1210
▁ant	-1211
▁stri	-1212
▁baghdad	-1213
▁department	-1214
ness	-1215
▁unt	-1216
riend	-1217
▁invol	-1218
▁already	-1219
▁jan	-1220
▁oil	-1221
▁committ	-1222
▁whether	-1223
ove	-1224
sec	-1225
▁think	-1226
▁others	-1227
▁univers	-1228
▁released	-1229
ived	-1230
▁case	-1231
▁half	-1232
▁austral	-1233
▁san	-1234
▁bill	-1235
▁decl	-1236
▁place	-1237
▁taken	-1238
ference	-1239
▁proble	-1240
ides	-1241
▁glo	-1242
▁jun	-1243
▁local	-1244
▁wound	-1245
▁economy	-1246
ondon	-1247
▁prop	-1248
▁admin	-1249
▁opposition	-1250
▁emer	-1251
aring	-1252
▁requ	-1253
▁began	-1254
▁confir	-1255
▁cut	-1256
▁inform	-1257
▁london	-1258
▁without	-1259
▁tech	-1260
▁space	-1261
omin	-1262
▁hill	-1263
▁money	-1264
▁plans	-1265
▁until	-1266
▁soldiers	-1267
▁late	-1268
▁region	-1269
▁workers	-1270
acy	-1271
aly	-1272
its	-1273
view	-1274
▁indust	-1275
mp	-1276
ijing	-1277
▁sing	-1278
▁islam	-1279
▁center	-1280
▁beijing	-1281
▁media	-1282
▁appe	-1283
▁sour	-1284
pped	-1285
▁star	-1286
▁short	-1287
ators	-1288
ended	-1289
▁fund	-1290
▁negot	-1291
ron	-1292
▁del	-1293
▁q	-1294
head	-1295
▁german	-1296
▁however	-1297
amed	-1298
ually	-1299
▁laun	-1300
▁led	-1301
▁som	-1302
▁mccain	-1303
ats	-1304
iting	-1305
esterday	-1306
▁""	-1307
▁agree	-1308
▁small	-1309
▁water	-1310
by	-1311
▁larg	-1312
▁find	-1313
▁vote	-1314
aining	-1315
▁financ	-1316
▁yesterday	-1317
ky	-1318
ize	-1319
▁japanese	-1320
▁each	-1321
▁stop	-1322
▁weeks	-1323
▁rece	-1324
▁product	-1325
▁service	-1326
▁decision	-1327
self	-1328
▁ang	-1329
▁appro	-1330
ury	-1331
▁kid	-1332
▁defense	-1333
duc	-1334
augh	-1335
▁sit	-1336
▁thous	-1337
▁dam	-1338
▁parli	-1339
▁nations	-1340
▁hy	-1341
ason	-1342
aged	-1343
▁prof	-1344
▁parliament	-1345
▁geor	-1346
▁israeli	-1347
istration	-1348
▁southern	-1349
▁el	-1350
▁il	-1351
▁come	-1352
▁militants	-1353
▁deb	-1354
iving	-1355
ished	-1356
▁woman	-1357
▁current	-1358
▁lat	-1359
▁does	-1360
▁march	-1361
els	-1362
▁based	-1363
▁prosec	-1364
▁youn	-1365
har	-1366
empt	-1367
▁step	-1368
▁chr	-1369
co	-1370
▁ris	-1371
▁fren	-1372
▁trad	-1373
ission	-1374
▁across	-1375
ik	-1376
▁mov	-1377
▁disp	-1378
▁force	-1379
▁arrested	-1380
▁av	-1381
▁es	-1382
▁roh	-1383
▁fail	-1384
▁keep	-1385
ins	-1386
▁food	-1387
▁university	-1388
ims	-1389
▁lar	-1390
gency	-1391
▁barack	-1392
▁sal	-1393
▁sex	-1394
▁miles	-1395
▁negoti	-1396
▁financial	-1397
▁emb	-1398
▁gas	-1399
▁return	-1400
▁province	-1401
▁conv	-1402
▁eight	-1403
▁central	-1404
utes	-1405
▁beh	-1406
▁gun	-1407
▁wal	-1408
▁polic	-1409
▁these	-1410
▁land	-1411
▁french	-1412
▁aid	-1413
▁video	-1414
▁violence	-1415
▁ham	-1416
▁army	-1417
▁real	-1418
▁vo	-1419
▁happ	-1420
▁activ	-1421
▁administration	-1422
▁vir	-1423
▁coup	-1424
▁along	-1425
▁level	-1426
▁comple	-1427
▁ju	-1428
▁strong	-1429
▁town	-1430
▁sn	-1431
lood	-1432
▁env	-1433
▁best	-1434
▁known	-1435
▁stand	-1436
ney	-1437
▁seven	-1438
▁killing	-1439
▁er	-1440
▁bord	-1441
▁weap	-1442
▁organiz	-1443
▁away	-1444
▁demand	-1445
▁information	-1446
raw	-1447
ined	-1448
▁jud	-1449
▁let	-1450
ield	-1451
▁web	-1452
▁release	-1453
▁thousands	-1454
oon	-1455
▁mass	-1456
▁attempt	-1457
▁estim	-1458
▁european	-1459
get	-1460
▁pay	-1461
▁flight	-1462
▁lab	-1463
▁face	-1464
aper	-1465
▁making	-1466
ban	-1467
ety	-1468
▁cas	-1469
▁care	-1470
▁prison	-1471
▁rights	-1472
▁largest	-1473
▁internet	-1474
sh	-1475
ump	-1476
ract	-1477
▁gir	-1478
▁ident	-1479
▁students	-1480
▁reb	-1481
▁added	-1482
▁techn	-1483
▁christ	-1484
erv	-1485
ried	-1486
▁asked	-1487
▁change	-1488
▁hig	-1489
▁hol	-1490
ology	-1491
▁hist	-1492
▁hot	-1493
▁foot	-1494
olution	-1495
▁clear	-1496
▁elections	-1497
uary	-1498
▁mal	-1499
▁become	-1500
▁points	-1501
▁control	-1502
▁cost	-1503
▁appear	-1504
avy	-1505
aker	-1506
▁gaz	-1507
▁prices	-1508
mediate	-1509
▁friend	-1510
be	-1511
go	-1512
oo	-1513
▁di	-1514
ember	-1515
ically	-1516
▁final	-1517
▁palestinian	-1518
ina	-1519
▁body	-1520
▁shar	-1521
▁accused	-1522
▁young	-1523
▁conference	-1524
less	-1525
▁film	-1526
idence	-1527
▁caus	-1528
▁seen	-1529
▁shot	-1530
▁begin	-1531
▁discuss	-1532
▁northern	-1533
cil	-1534
ects	-1535
▁east	-1536
▁targ	-1537
▁might	-1538
▁russia	-1539
▁airport	-1540
▁working	-1541
▁py	-1542
ploy	-1543
▁taking	-1544
▁trying	-1545
▁immediate	-1546
▁january	-1547
ium	-1548
akers	-1549
ank	-1550
▁afric	-1551
▁global	-1552
▁agreement	-1553
▁following	-1554
▁here	-1555
▁emergency	-1556
ards	-1557
▁key	-1558
ession	-1559
▁telev	-1560
▁fur	-1561
▁exec	-1562
▁large	-1563
lymp	-1564
▁batt	-1565
▁issue	-1566
▁olymp	-1567
▁agreed	-1568
▁charges	-1569
mb	-1570
ont	-1571
▁net	-1572
ially	-1573
▁must	-1574
estern	-1575
com	-1576
arth	-1577
▁fall	-1578
▁congress	-1579
rap	-1580
▁ahead	-1581
▁alleged	-1582
ars	-1583
▁park	-1584
▁latest	-1585
▁likely	-1586
▁britain	-1587
ittle	-1588
▁trade	-1589
▁france	-1590
for	-1591
ef	-1592
▁rad	-1593
▁less	-1594
undred	-1595
▁groups	-1596
▁tax	-1597
▁suic	-1598
▁hundred	-1599
▁fact	-1600
▁previous	-1601
▁relations	-1602
▁ri	-1603
most	-1604
ience	-1605
▁suff	-1606
▁black	-1607
▁federal	-1608
▁companies	-1609
raf	-1610
▁cho	-1611
idents	-1612
▁import	-1613
ae	-1614
▁mos	-1615
▁red	-1616
▁tre	-1617
ccess	-1618
▁mean	-1619
▁west	-1620
▁deleg	-1621
▁partic	-1622
▁showed	-1623
▁investigation	-1624
▁got	-1625
▁cust	-1626
▁meas	-1627
▁sept	-1628
▁calif	-1629
▁border	-1630
▁ord	-1631
▁too	-1632
▁hard	-1633
▁scient	-1634
ached	-1635
▁gaza	-1636
▁went	-1637
ressed	-1638
eng	-1639
hic	-1640
mar	-1641
▁los	-1642
▁road	-1643
harraf	-1644
oy	-1645
▁cris	-1646
▁outside	-1647
▁weapons	-1648
ored	-1649
▁form	-1650
▁earth	-1651
▁little	-1652
▁californ	-1653
▁musharraf	-1654
imin	-1655
▁art	-1656
▁desp	-1657
▁jour	-1658
▁never	-1659
▁storm	-1660
▁california	-1661
yang	-1662
▁list	-1663
▁prim	-1664
▁question	-1665
▁commission	-1666
ne	-1667
▁boy	-1668
▁fell	-1669
▁occ	-1670
▁poll	-1671
▁committee	-1672
atic	-1673
▁dri	-1674
▁mod	-1675
▁june	-1676
▁island	-1677
rug	-1678
▁july	-1679
▁resc	-1680
ulation	-1681
▁crisis	-1682
▁tot	-1683
▁give	-1684
▁wounded	-1685
▁interview	-1686
mit	-1687
▁aug	-1688
▁continue	-1689
▁coll	-1690
▁coast	-1691
▁treat	-1692
▁station	-1693
▁suicide	-1694
▁associated	-1695
hers	-1696
▁travel	-1697
▁confirmed	-1698
wh	-1699
ane	-1700
▁port	-1701
▁broad	-1702
▁heart	-1703
▁despite	-1704
''	-1705
ipl	-1706
▁dece	-1707
▁priv	-1708
▁within	-1709
▁feb	-1710
▁shut	-1711
▁medical	-1712
ham	-1713
▁low	-1714
▁lost	-1715
▁round	-1716
▁further	-1717
ze	-1718
onst	-1719
▁amb	-1720
▁fut	-1721
▁inte	-1722
▁comput	-1723
▁critic	-1724
▁toward	-1725
▁september	-1726
ival	-1727
urch	-1728
▁carry	-1729
▁homes	-1730
▁somet	-1731
ongyang	-1732
▁execut	-1733
▁building	-1734
ape	-1735
ighb	-1736
▁neighb	-1737
▁process	-1738
br	-1739
▁side	-1740
▁newsp	-1741
▁sched	-1742
par	-1743
cast	-1744
▁mat	-1745
ggest	-1746
astern	-1747
▁cross	-1748
▁super	-1749
▁success	-1750
▁suggest	-1751
▁pyongyang	-1752
▁television	-1753
raft	-1754
▁hur	-1755
▁mur	-1756
ption	-1757
▁desc	-1758
▁ener	-1759
▁street	-1760
▁council	-1761
▁due	-1762
▁mot	-1763
▁squ	-1764
▁mess	-1765
▁mother	-1766
▁england	-1767
▁minutes	-1768
▁lot	-1769
▁explos	-1770
▁demonst	-1771
uge	-1772
oint	-1773
▁bas	-1774
rem	-1775
▁dav	-1776
epend	-1777
itions	-1778
▁union	-1779
▁victory	-1780
na	-1781
lish	-1782
ming	-1783
▁drug	-1784
▁prosecut	-1785
▁x	-1786
▁sk	-1787
ague	-1788
▁capt	-1789
▁phot	-1790
▁ship	-1791
▁light	-1792
▁research	-1793
▁hus	-1794
▁mag	-1795
iplom	-1796
▁august	-1797
▁energy	-1798
▁senior	-1799
▁believe	-1800
▁december	-1801
rown	-1802
▁game	-1803
▁tell	-1804
▁chang	-1805
▁independ	-1806
▁possible	-1807
▁candidate	-1808
▁reporters	-1809
imb	-1810
▁ran	-1811
apped	-1812
▁dest	-1813
▁stay	-1814
▁great	-1815
▁insur	-1816
▁doll	-1817
▁injured	-1818
pr	-1819
ta	-1820
nal	-1821
ude	-1822
ways	-1823
▁live	-1824
▁name	-1825
▁diplom	-1826
▁policy	-1827
▁target	-1828
▁russian	-1829
ley	-1830
▁oct	-1831
▁race	-1832
▁val	-1833
▁break	-1834
▁consid	-1835
▁ground	-1836
▁fighting	-1837
eda	-1838
iam	-1839
▁pri	-1840
icted	-1841
▁deter	-1842
▁almost	-1843
▁efforts	-1844
▁hundreds	-1845
inc	-1846
ril	-1847
▁surve	-1848
▁employ	-1849
▁special	-1850
ler	-1851
▁doct	-1852
▁search	-1853
▁sources	-1854
▁americans	-1855
ino	-1856
aced	-1857
iven	-1858
▁ill	-1859
▁lawm	-1860
▁nomin	-1861
▁using	-1862
▁command	-1863
▁wa	-1864
oman	-1865
▁div	-1866
▁rev	-1867
▁soon	-1868
▁react	-1869
▁watch	-1870
▁better	-1871
▁father	-1872
▁member	-1873
▁weekend	-1874
▁communist	-1875
ule	-1876
▁quar	-1877
▁term	-1878
ection	-1879
▁april	-1880
▁comes	-1881
▁shoot	-1882
▁started	-1883
▁je	-1884
thing	-1885
▁dist	-1886
▁george	-1887
key	-1888
▁pot	-1889
▁roc	-1890
▁tem	-1891
▁behind	-1892
▁having	-1893
▁respons	-1894
▁believed	-1895
ya	-1896
▁gl	-1897
▁qa	-1898
▁rom	-1899
ruary	-1900
▁fuel	-1901
▁once	-1902
▁event	-1903
▁february	-1904
▁republican	-1905
▁sol	-1906
woman	-1907
▁trip	-1908
▁wife	-1909
▁class	-1910
itution	-1911
▁deaths	-1912
ush	-1913
akes	-1914
▁cit	-1915
▁america	-1916
▁industry	-1917
▁tv	-1918
▁chair	-1919
▁qaeda	-1920
zy	-1921
ees	-1922
ades	-1923
▁yet	-1924
▁corp	-1925
▁kidn	-1926
uation	-1927
▁champ	-1928
▁grand	-1929
▁action	-1930
▁consum	-1931
▁detail	-1932
▁repres	-1933
ex	-1934
ten	-1935
ving	-1936
▁fig	-1937
▁plane	-1938
▁produc	-1939
▁series	-1940
▁incident	-1941
ches	-1942
▁init	-1943
▁line	-1944
▁nine	-1945
▁ruling	-1946
▁describ	-1947
▁addition	-1948
xic	-1949
uled	-1950
▁anti	-1951
▁arri	-1952
▁coal	-1953
▁rice	-1954
▁analy	-1955
▁vehic	-1956
▁inside	-1957
que	-1958
▁nat	-1959
▁able	-1960
▁book	-1961
▁view	-1962
▁angel	-1963
▁victims	-1964
▁interest	-1965
ili	-1966
▁arg	-1967
▁amid	-1968
▁accept	-1969
▁journal	-1970
▁western	-1971
bo	-1972
ada	-1973
ern	-1974
ring	-1975
▁soc	-1976
asing	-1977
▁crew	-1978
▁dise	-1979
▁full	-1980
▁mount	-1981
▁order	-1982
▁total	-1983
▁project	-1984
▁australia	-1985
yal	-1986
▁equ	-1987
overed	-1988
itted	-1989
oring	-1990
▁anim	-1991
▁enough	-1992
cl	-1993
ances	-1994
▁ever	-1995
▁areas	-1996
▁director	-1997
tle	-1998
▁front	-1999
▁involved	-2000
pre	-2001
▁ca	-2002
▁dou	-2003
ibility	-2004
▁future	-2005
▁season	-2006
▁planned	-2007
▁serious	-2008
▁rich	-2009
▁received	-2010
ober	-2011
▁dro	-2012
▁girl	-2013
▁loss	-2014
▁study	-2015
▁october	-2016
▁ky	-2017
iron	-2018
▁doz	-2019
▁exch	-2020
▁diffe	-2021
▁resign	-2022
▁important	-2023
ari	-2024
dle	-2025
▁son	-2026
▁vill	-2027
▁leading	-2028
▁results	-2029
▁appeared	-2030
▁operation	-2031
ald	-2032
uty	-2033
▁ken	-2034
▁cell	-2035
▁surv	-2036
ertain	-2037
▁wants	-2038
▁expert	-2039
▁environ	-2040
▁announce	-2041
▁supporters	-2042
▁mer	-2043
▁fear	-2044
▁room	-2045
▁distr	-2046
▁indic	-2047
▁stock	-2048
hen	-2049
wide	-2050
▁nove	-2051
though	-2052
verage	-2053
▁hamas	-2054
▁missing	-2055
▁private	-2056
▁november	-2057
▁different	-2058
▁immediately	-2059
▁ty	-2060
▁age	-2061
▁sea	-2062
ening	-2063
ising	-2064
▁wall	-2065
▁daugh	-2066
▁games	-2067
▁withd	-2068
▁voters	-2069
bc	-2070
pl	-2071
ann	-2072
▁gave	-2073
▁sell	-2074
▁although	-2075
ibet	-2076
▁ben	-2077
▁cle	-2078
▁crow	-2079
▁bring	-2080
▁heavy	-2081
▁labor	-2082
▁though	-2083
▁increase	-2084
▁spokeswoman	-2085
ograp	-2086
▁tried	-2087
▁coming	-2088
▁environment	-2089
arent	-2090
▁hope	-2091
▁mich	-2092
esters	-2093
▁tibet	-2094
▁mission	-2095
▁thought	-2096
▁problems	-2097
▁protesters	-2098
men	-2099
▁dev	-2100
▁ide	-2101
▁asia	-2102
▁feel	-2103
▁senate	-2104
▁analyst	-2105
▁conduct	-2106
▁newspaper	-2107
""	-2108
ida	-2109
▁board	-2110
▁separ	-2111
▁scheduled	-2112
▁scientists	-2113
aps	-2114
▁bh	-2115
▁arab	-2116
▁infl	-2117
▁given	-2118
eration	-2119
▁middle	-2120
let	-2121
▁kar	-2122
ruction	-2123
▁looking	-2124
bert	-2125
▁polls	-2126
▁represent	-2127
ma	-2128
ani	-2129
gest	-2130
▁train	-2131
▁design	-2132
▁really	-2133
▁germany	-2134
▁koreans	-2135
▁district	-2136
▁pakistani	-2137
imate	-2138
▁ball	-2139
▁cred	-2140
▁david	-2141
▁illeg	-2142
▁couple	-2143
▁quarter	-2144
▁request	-2145
▁officers	-2146
▁coalition	-2147
ago	-2148
cer	-2149
umb	-2150
▁rate	-2151
▁closed	-2152
▁league	-2153
▁protests	-2154
roy	-2155
ably	-2156
band	-2157
▁summer	-2158
▁history	-2159
▁os	-2160
▁adm	-2161
▁india	-2162
▁compet	-2163
▁parent	-2164
▁wanted	-2165
▁claimed	-2166
▁islamic	-2167
▁mad	-2168
▁flor	-2169
▁calls	-2170
▁turned	-2171
ify	-2172
▁shi	-2173
itness	-2174
han	-2175
▁base	-2176
▁clos	-2177
▁reached	-2178
ays	-2179
▁doc	-2180
▁lim	-2181
▁lawy	-2182
▁read	-2183
▁problem	-2184
▁recently	-2185
▁pan	-2186
▁jail	-2187
▁simp	-2188
▁blast	-2189
▁movie	-2190
▁disease	-2191
▁hillary	-2192
arc	-2193
off	-2194
arko	-2195
hest	-2196
▁saf	-2197
▁vol	-2198
▁exper	-2199
▁paris	-2200
▁growth	-2201
▁higher	-2202
▁include	-2203
▁esc	-2204
▁comb	-2205
▁remain	-2206
▁charged	-2207
▁markets	-2208
▁evidence	-2209
oid	-2210
▁bad	-2211
▁bhut	-2212
▁sarko	-2213
▁conserv	-2214
down	-2215
▁fle	-2216
orney	-2217
▁pack	-2218
▁tens	-2219
▁attorney	-2220
yl	-2221
ole	-2222
ador	-2223
▁cab	-2224
▁goal	-2225
▁citiz	-2226
▁lower	-2227
▁caused	-2228
▁summit	-2229
▁negotiations	-2230
wan	-2231
ruct	-2232
▁mic	-2233
▁ver	-2234
▁wat	-2235
▁didn	-2236
▁musl	-2237
▁green	-2238
▁leban	-2239
▁florida	-2240
▁respond	-2241
▁sarkozy	-2242
▁chairman	-2243
▁uk	-2244
itive	-2245
▁asse	-2246
▁hotel	-2247
▁staff	-2248
▁online	-2249
▁strike	-2250
rew	-2251
ilar	-2252
▁fat	-2253
▁tex	-2254
ither	-2255
ories	-2256
gether	-2257
igence	-2258
▁brown	-2259
▁cause	-2260
▁getting	-2261
▁exchange	-2262
▁together	-2263
oud	-2264
work	-2265
▁cup	-2266
▁saw	-2267
▁beat	-2268
▁flood	-2269
▁price	-2270
▁needed	-2271
▁biggest	-2272
▁situation	-2273
fic	-2274
▁bid	-2275
▁mill	-2276
▁impro	-2277
▁bhutto	-2278
▁turkey	-2279
▁technology	-2280
▁prosecutors	-2281
kyo	-2282
▁bri	-2283
▁kil	-2284
▁lin	-2285
▁sad	-2286
▁turn	-2287
atives	-2288
▁music	-2289
▁quick	-2290
▁tokyo	-2291
▁assemb	-2292
▁warned	-2293
▁arrived	-2294
▁contract	-2295
▁majority	-2296
bs	-2297
ager	-2298
ging	-2299
▁aim	-2300
▁lif	-2301
iding	-2302
while	-2303
▁king	-2304
▁paul	-2305
▁pred	-2306
▁role	-2307
▁seem	-2308
▁award	-2309
▁expect	-2310
▁intell	-2311
▁account	-2312
▁popular	-2313
▁similar	-2314
▁lawmakers	-2315
not	-2316
▁bab	-2317
▁bir	-2318
▁nas	-2319
▁tit	-2320
▁cele	-2321
▁repl	-2322
▁rout	-2323
▁texas	-2324
▁county	-2325
▁effect	-2326
▁angeles	-2327
▁average	-2328
▁growing	-2329
▁apparent	-2330
▁estimated	-2331
▁residents	-2332
▁pub	-2333
▁wind	-2334
▁fired	-2335
▁assist	-2336
▁decided	-2337
▁launched	-2338
▁delegates	-2339
use	-2340
uries	-2341
▁mark	-2342
▁reach	-2343
▁church	-2344
▁colomb	-2345
▁denied	-2346
▁opened	-2347
▁experts	-2348
▁running	-2349
▁daughter	-2350
▁development	-2351
▁foc	-2352
▁pet	-2353
▁whose	-2354
▁hostages	-2355
▁civilians	-2356
▁condition	-2357
▁organization	-2358
ni	-2359
over	-2360
▁docu	-2361
▁hyun	-2362
▁insp	-2363
▁compl	-2364
▁embass	-2365
▁survey	-2366
▁address	-2367
▁warning	-2368
▁pressure	-2369
▁services	-2370
▁continued	-2371
▁constitution	-2372
ayed	-2373
▁mom	-2374
▁deli	-2375
▁eastern	-2376
▁olympic	-2377
▁primary	-2378
duce	-2379
▁hon	-2380
▁judge	-2381
▁became	-2382
▁failed	-2383
▁william	-2384
▁witness	-2385
hu	-2386
ael	-2387
iana	-2388
ners	-2389
▁pos	-2390
▁jobs	-2391
▁prob	-2392
lished	-2393
▁mexic	-2394
▁sales	-2395
▁scene	-2396
▁issues	-2397
▁something	-2398
▁dang	-2399
▁comment	-2400
▁details	-2401
▁ordered	-2402
bi	-2403
ares	-2404
here	-2405
▁try	-2406
▁hong	-2407
▁send	-2408
ensive	-2409
▁chall	-2410
▁phone	-2411
▁destroy	-2412
▁meanwhile	-2413
▁intelligence	-2414
this	-2415
uted	-2416
ilies	-2417
▁smok	-2418
▁damage	-2419
▁rocket	-2420
▁assembly	-2421
▁champions	-2422
ez	-2423
,''	-2424
▁gi	-2425
ires	-2426
uses	-2427
▁tor	-2428
▁aftern	-2429
▁demonstr	-2430
▁families	-2431
pted	-2432
▁ast	-2433
▁rule	-2434
ential	-2435
▁asian	-2436
▁democr	-2437
▁computer	-2438
▁afternoon	-2439
▁unc	-2440
jected	-2441
▁store	-2442
▁safety	-2443
▁husband	-2444
▁suspected	-2445
ball	-2446
▁hun	-2447
▁cars	-2448
▁evac	-2449
▁hous	-2450
▁prep	-2451
▁cases	-2452
▁custom	-2453
▁robert	-2454
▁officer	-2455
▁identified	-2456
▁gold	-2457
▁rally	-2458
▁battle	-2459
▁issued	-2460
▁himself	-2461
ots	-2462
▁bod	-2463
▁deep	-2464
▁stat	-2465
▁vice	-2466
▁lives	-2467
▁match	-2468
▁share	-2469
▁virgin	-2470
▁concerns	-2471
▁democracy	-2472
form	-2473
iles	-2474
▁rob	-2475
ashed	-2476
ctions	-2477
▁often	-2478
▁radio	-2479
▁parties	-2480
▁australian	-2481
igr	-2482
itz	-2483
ott	-2484
udi	-2485
craft	-2486
▁pain	-2487
▁wild	-2488
▁shows	-2489
▁parents	-2490
▁senator	-2491
▁carrying	-2492
▁governor	-2493
▁described	-2494
uf	-2495
raz	-2496
▁oh	-2497
▁colle	-2498
▁leave	-2499
▁pound	-2500
▁chance	-2501
▁disapp	-2502
▁launch	-2503
▁brought	-2504
▁embassy	-2505
▁provide	-2506
▁progress	-2507
▁returned	-2508
▁fav	-2509
▁conn	-2510
▁occur	-2511
▁parts	-2512
ighters	-2513
▁forced	-2514
▁iranian	-2515
▁candidates	-2516
aled	-2517
ania	-2518
▁effort	-2519
▁refused	-2520
aut	-2521
iff	-2522
lant	-2523
arian	-2524
▁turk	-2525
▁story	-2526
▁traff	-2527
▁community	-2528
aces	-2529
ocks	-2530
▁ple	-2531
▁counter	-2532
▁doctors	-2533
▁message	-2534
▁transport	-2535
▁association	-2536
oted	-2537
▁moo	-2538
▁pun	-2539
▁ten	-2540
▁wel	-2541
riving	-2542
▁named	-2543
▁offer	-2544
▁urged	-2545
▁accident	-2546
▁speaking	-2547
▁nomination	-2548
ural	-2549
▁tom	-2550
▁nato	-2551
▁qual	-2552
▁rose	-2553
▁always	-2554
▁social	-2555
▁contact	-2556
▁followed	-2557
ana	-2558
mad	-2559
▁nor	-2560
round	-2561
stand	-2562
▁educ	-2563
▁laws	-2564
▁pict	-2565
▁birth	-2566
▁funds	-2567
▁river	-2568
▁fourth	-2569
▁living	-2570
▁rescue	-2571
▁complete	-2572
▁withdraw	-2573
▁population	-2574
dd	-2575
pe	-2576
lin	-2577
eech	-2578
▁tim	-2579
▁dism	-2580
▁prem	-2581
▁cerem	-2582
▁putin	-2583
▁royal	-2584
▁spent	-2585
▁instit	-2586
▁speech	-2587
▁justice	-2588
▁prevent	-2589
▁democrats	-2590
▁resolution	-2591
iod	-2592
▁ah	-2593
vere	-2594
▁why	-2595
anmar	-2596
▁index	-2597
▁legal	-2598
▁celebr	-2599
▁allowed	-2600
▁contest	-2601
▁illegal	-2602
▁leaving	-2603
▁myanmar	-2604
▁researc	-2605
▁citizens	-2606
▁announcement	-2607
cy	-2608
▁buy	-2609
▁toll	-2610
▁brief	-2611
▁danger	-2612
▁concern	-2613
▁indones	-2614
▁streets	-2615
ask	-2616
igin	-2617
ortun	-2618
▁pled	-2619
▁scre	-2620
▁freed	-2621
ailable	-2622
▁struck	-2623
▁calling	-2624
▁missile	-2625
▁weather	-2626
▁particip	-2627
ault	-2628
▁abd	-2629
▁ele	-2630
▁pul	-2631
▁tai	-2632
enced	-2633
▁club	-2634
▁rise	-2635
▁safe	-2636
▁wide	-2637
ficult	-2638
▁blood	-2639
▁ended	-2640
▁guard	-2641
▁means	-2642
▁africa	-2643
▁ambass	-2644
▁debate	-2645
▁included	-2646
▁interior	-2647
sp	-2648
▁ey	-2649
▁fif	-2650
engers	-2651
▁insurg	-2652
▁period	-2653
▁reform	-2654
▁measures	-2655
▁dog	-2656
▁eth	-2657
▁bene	-2658
▁doing	-2659
▁joint	-2660
▁played	-2661
▁things	-2662
▁protect	-2663
▁difficult	-2664
▁production	-2665
kn	-2666
ges	-2667
oned	-2668
▁cast	-2669
▁snow	-2670
▁talk	-2671
▁field	-2672
▁atlant	-2673
▁bodies	-2674
▁engine	-2675
▁destroyed	-2676
fer	-2677
▁ts	-2678
aily	-2679
orth	-2680
ware	-2681
▁broke	-2682
▁crash	-2683
▁trial	-2684
▁passed	-2685
▁shooting	-2686
▁available	-2687
▁passengers	-2688
isl	-2689
ula	-2690
inet	-2691
owed	-2692
▁cub	-2693
▁fem	-2694
▁non	-2695
heast	-2696
▁cult	-2697
▁risk	-2698
selves	-2699
▁barre	-2700
▁daily	-2701
▁credit	-2702
▁deputy	-2703
▁raised	-2704
▁african	-2705
▁friends	-2706
▁present	-2707
▁position	-2708
▁currently	-2709
▁bud	-2710
going	-2711
▁norm	-2712
▁crowd	-2713
▁claims	-2714
▁prince	-2715
▁injuries	-2716
▁surround	-2717
▁terrorism	-2718
▁investigators	-2719
za	-2720
irc	-2721
ceed	-2722
▁imm	-2723
▁pil	-2724
▁fans	-2725
▁ready	-2726
▁rival	-2727
ilities	-2728
▁longer	-2729
▁expressed	-2730
ote	-2731
ows	-2732
hood	-2733
▁cop	-2734
ences	-2735
licop	-2736
▁camer	-2737
▁natur	-2738
ination	-2739
▁origin	-2740
▁source	-2741
▁carried	-2742
▁helicop	-2743
▁comments	-2744
▁executive	-2745
▁treatment	-2746
de	-2747
they	-2748
▁ber	-2749
▁bul	-2750
▁fly	-2751
oming	-2752
▁done	-2753
▁kind	-2754
▁kong	-2755
▁access	-2756
▁taiwan	-2757
▁dropped	-2758
▁traffic	-2759
aped	-2760
iter	-2761
▁chic	-2762
▁temp	-2763
▁carol	-2764
▁doesn	-2765
▁moved	-2766
▁needs	-2767
▁restr	-2768
▁worst	-2769
▁commer	-2770
▁rebels	-2771
▁related	-2772
▁analysts	-2773
▁spending	-2774
▁terrorist	-2775
▁researchers	-2776
rial	-2777
▁circ	-2778
▁coop	-2779
▁armed	-2780
▁cities	-2781
▁common	-2782
▁trading	-2783
▁neighbor	-2784
▁programs	-2785
▁conditions	-2786
▁controvers	-2787
ona	-2788
ria	-2789
lled	-2790
▁esp	-2791
there	-2792
▁poor	-2793
▁kilome	-2794
▁legisl	-2795
▁minute	-2796
▁brother	-2797
▁ambassador	-2798
ilt	-2799
▁ol	-2800
resp	-2801
▁resum	-2802
▁suffered	-2803
▁increased	-2804
▁operations	-2805
ata	-2806
▁cy	-2807
▁enc	-2808
▁nom	-2809
aries	-2810
▁rain	-2811
▁nearby	-2812
▁michael	-2813
▁numbers	-2814
▁communic	-2815
▁declared	-2816
▁photograp	-2817
iled	-2818
rugg	-2819
▁estab	-2820
▁hopes	-2821
▁smith	-2822
▁spain	-2823
▁deploy	-2824
▁cabinet	-2825
▁holding	-2826
▁turkish	-2827
▁increasing	-2828
ara	-2829
ead	-2830
aves	-2831
onse	-2832
uing	-2833
▁fun	-2834
inking	-2835
▁banks	-2836
▁favor	-2837
▁mater	-2838
▁opening	-2839
▁quickly	-2840
airs	-2841
read	-2842
▁bal	-2843
▁obs	-2844
ients	-2845
istic	-2846
▁born	-2847
▁mult	-2848
▁repe	-2849
▁sure	-2850
▁crack	-2851
ruption	-2852
▁strugg	-2853
▁territ	-2854
▁chicago	-2855
▁earthqu	-2856
▁nothing	-2857
▁remains	-2858
▁schools	-2859
▁buildings	-2860
▁construction	-2861
amb	-2862
ike	-2863
ylv	-2864
▁dow	-2865
▁hen	-2866
▁pic	-2867
atell	-2868
nsylv	-2869
▁lear	-2870
▁paid	-2871
itting	-2872
▁mexico	-2873
▁nomine	-2874
▁pennsylv	-2875
▁personal	-2876
▁broadcast	-2877
elt	-2878
▁dub	-2879
▁eas	-2880
▁pus	-2881
▁braz	-2882
▁teen	-2883
▁evacu	-2884
▁jones	-2885
▁saudi	-2886
▁matter	-2887
▁murder	-2888
▁refuge	-2889
▁satell	-2890
▁worked	-2891
▁english	-2892
▁highest	-2893
▁instead	-2894
▁natural	-2895
▁winning	-2896
▁discovered	-2897
uk	-2898
bur	-2899
ped	-2900
ugh	-2901
arks	-2902
ding	-2903
▁xin	-2904
atory	-2905
▁card	-2906
▁worth	-2907
▁dollar	-2908
▁female	-2909
▁material	-2910
▁signific	-2911
af	-2912
ev	-2913
een	-2914
emy	-2915
nel	-2916
▁''	-2917
▁gn	-2918
come	-2919
gery	-2920
▁bit	-2921
▁pac	-2922
inois	-2923
▁love	-2924
▁italy	-2925
▁track	-2926
▁cannot	-2927
▁course	-2928
▁square	-2929
▁illinois	-2930
▁response	-2931
▁sanctions	-2932
▁pennsylvania	-2933
▁dom	-2934
aging	-2935
izing	-2936
▁feet	-2937
▁aimed	-2938
▁georg	-2939
▁influ	-2940
ization	-2941
▁astron	-2942
▁muslim	-2943
▁spread	-2944
▁admitted	-2945
▁suspects	-2946
▁virginia	-2947
bas	-2948
hua	-2949
west	-2950
▁swe	-2951
house	-2952
▁ital	-2953
▁trou	-2954
▁franc	-2955
▁charge	-2956
▁helped	-2957
▁levels	-2958
▁shiite	-2959
▁network	-2960
▁approved	-2961
▁detained	-2962
▁questions	-2963
▁tradition	-2964
▁independent	-2965
wa	-2966
aks	-2967
aded	-2968
▁vac	-2969
ocked	-2970
▁huge	-2971
▁lack	-2972
▁rock	-2973
▁focus	-2974
▁brazil	-2975
▁crimin	-2976
▁aircraft	-2977
▁consider	-2978
▁millions	-2979
▁particular	-2980
▁ice	-2981
▁sle	-2982
ature	-2983
itude	-2984
lines	-2985
▁defe	-2986
▁drop	-2987
▁fill	-2988
apping	-2989
idered	-2990
▁above	-2991
▁sites	-2992
▁attend	-2993
▁dozens	-2994
▁either	-2995
▁appoint	-2996
▁employees	-2997
▁considered	-2998
▁allegations	-2999
▁parliamentary	-3000
hel	-3001
ift	-3002
room	-3003
anish	-3004
overy	-3005
ufact	-3006
▁bail	-3007
▁sect	-3008
▁sens	-3009
iation	-3010
▁gener	-3011
▁seats	-3012
▁surpr	-3013
▁histor	-3014
▁signed	-3015
▁manufact	-3016
▁probably	-3017
▁diplomatic	-3018
▁industrial	-3019
▁previously	-3020
gu	-3021
▁aud	-3022
▁pur	-3023
▁mail	-3024
▁challen	-3025
▁decades	-3026
▁published	-3027
▁activities	-3028
▁environmental	-3029
iet	-3030
idge	-3031
▁blo	-3032
▁gnp	-3033
▁draw	-3034
▁ohio	-3035
▁shin	-3036
ability	-3037
▁indian	-3038
▁flights	-3039
▁italian	-3040
▁seeking	-3041
▁carolina	-3042
▁occurred	-3043
▁investors	-3044
▁worldwide	-3045
aur	-3046
ker	-3047
ases	-3048
avez	-3049
outh	-3050
▁opt	-3051
fully	-3052
▁farm	-3053
▁avoid	-3054
▁plant	-3055
agement	-3056
ecially	-3057
▁cancer	-3058
▁chavez	-3059
▁condem	-3060
▁collect	-3061
▁hearing	-3062
▁manager	-3063
▁surgery	-3064
▁ceremony	-3065
▁additional	-3066
▁investment	-3067
▁kilometers	-3068
▁relationship	-3069
ao	-3070
cow	-3071
kes	-3072
wood	-3073
▁arm	-3074
▁flo	-3075
▁mis	-3076
isted	-3077
pping	-3078
▁bang	-3079
▁fort	-3080
▁idea	-3081
▁mart	-3082
▁raid	-3083
▁vers	-3084
▁autom	-3085
▁check	-3086
▁hands	-3087
▁heard	-3088
▁makes	-3089
▁monit	-3090
▁regul	-3091
▁resol	-3092
▁single	-3093
▁xinhua	-3094
▁custody	-3095
▁anything	-3096
▁education	-3097
▁insurgents	-3098
▁themselves	-3099
reng	-3100
▁kur	-3101
▁mob	-3102
▁pow	-3103
aught	-3104
▁date	-3105
▁jack	-3106
▁abbas	-3107
▁costs	-3108
▁sides	-3109
▁steps	-3110
▁create	-3111
▁giving	-3112
▁lawyer	-3113
▁necess	-3114
▁shares	-3115
ological	-3116
▁certain	-3117
▁forward	-3118
▁vehicle	-3119
ification	-3120
▁attacked	-3121
▁happened	-3122
▁separate	-3123
▁especially	-3124
abe	-3125
uit	-3126
orter	-3127
▁jump	-3128
▁harry	-3129
▁moscow	-3130
▁figures	-3131
▁movement	-3132
▁commander	-3133
val	-3134
▁dar	-3135
apers	-3136
ional	-3137
▁data	-3138
▁rare	-3139
▁advis	-3140
▁cance	-3141
▁extra	-3142
▁rules	-3143
▁amount	-3144
▁rising	-3145
▁dollars	-3146
▁shortly	-3147
▁olympics	-3148
▁visitors	-3149
▁allegedly	-3150
▁attention	-3151
▁explosion	-3152
▁potential	-3153
▁significant	-3154
bed	-3155
rid	-3156
back	-3157
mine	-3158
▁row	-3159
▁phys	-3160
▁maint	-3161
▁sharp	-3162
▁signs	-3163
▁thing	-3164
▁title	-3165
▁annual	-3166
▁blamed	-3167
▁changes	-3168
▁evening	-3169
▁georgia	-3170
▁playing	-3171
▁reactor	-3172
▁session	-3173
▁suspect	-3174
▁products	-3175
▁rejected	-3176
▁earthquake	-3177
hi	-3178
agon	-3179
aine	-3180
body	-3181
ears	-3182
▁dae	-3183
▁nic	-3184
▁ren	-3185
▁blue	-3186
▁reve	-3187
▁ties	-3188
▁letter	-3189
▁posted	-3190
▁review	-3191
▁streng	-3192
▁bombing	-3193
▁richard	-3194
▁remained	-3195
▁apparently	-3196
▁threatened	-3197
▁responsible	-3198
▁die	-3199
iance	-3200
preme	-3201
▁soft	-3202
▁creat	-3203
▁faces	-3204
▁votes	-3205
▁hurric	-3206
▁elected	-3207
▁offered	-3208
▁supreme	-3209
▁authority	-3210
▁corruption	-3211
▁criticized	-3212
▁independence	-3213
rs	-3214
ran	-3215
amin	-3216
enez	-3217
mert	-3218
▁fre	-3219
alled	-3220
▁spot	-3221
isters	-3222
▁liber	-3223
▁marri	-3224
▁mayor	-3225
▁career	-3226
▁perfor	-3227
▁driving	-3228
▁politic	-3229
▁remarks	-3230
▁repeated	-3231
▁training	-3232
▁convicted	-3233
of	-3234
omm	-3235
erve	-3236
▁abs	-3237
▁exc	-3238
▁haw	-3239
▁jer	-3240
▁doub	-3241
▁fish	-3242
▁kept	-3243
▁nasa	-3244
ailand	-3245
▁winds	-3246
▁impact	-3247
▁quoted	-3248
▁animals	-3249
▁pacific	-3250
▁someone	-3251
▁critical	-3252
▁opportun	-3253
▁thailand	-3254
ha	-3255
omp	-3256
▁ow	-3257
quar	-3258
itten	-3259
uters	-3260
▁bird	-3261
▁soci	-3262
▁bombs	-3263
▁spoke	-3264
▁adding	-3265
▁overse	-3266
▁profess	-3267
▁student	-3268
▁vehicles	-3269
▁beginning	-3270
▁hurricane	-3271
▁ii	-3272
abwe	-3273
ateg	-3274
▁ful	-3275
▁zimb	-3276
insula	-3277
▁cover	-3278
▁penal	-3279
▁subst	-3280
▁combat	-3281
▁olmert	-3282
▁reason	-3283
▁commerc	-3284
▁confirm	-3285
▁nominee	-3286
▁planning	-3287
▁zimbabwe	-3288
▁peninsula	-3289
▁throughout	-3290
▁conservative	-3291
gypt	-3292
ises	-3293
▁ans	-3294
▁bin	-3295
▁gar	-3296
▁unf	-3297
aling	-3298
hered	-3299
▁jose	-3300
▁boost	-3301
▁domin	-3302
▁speed	-3303
▁stage	-3304
▁venez	-3305
▁backed	-3306
▁mosque	-3307
▁players	-3308
▁civilian	-3309
▁venezuel	-3310
▁institute	-3311
▁performan	-3312
iger	-3313
▁fbi	-3314
where	-3315
▁adop	-3316
▁size	-3317
▁zone	-3318
▁ahmad	-3319
▁egypt	-3320
▁pract	-3321
respond	-3322
▁linked	-3323
▁mostly	-3324
▁assault	-3325
▁activists	-3326
▁indonesia	-3327
▁satellite	-3328
sc	-3329
nam	-3330
▁au	-3331
▁ho	-3332
itch	-3333
lict	-3334
▁bbc	-3335
▁cat	-3336
▁pie	-3337
▁sky	-3338
▁gall	-3339
▁benef	-3340
▁micro	-3341
▁minor	-3342
▁commit	-3343
▁moment	-3344
▁holiday	-3345
▁massive	-3346
▁soldier	-3347
▁actually	-3348
▁includes	-3349
▁transfer	-3350
▁correspond	-3351
hol	-3352
nes	-3353
▁hu	-3354
▁mac	-3355
▁ron	-3356
▁seat	-3357
▁rates	-3358
▁ruled	-3359
▁apolog	-3360
▁corpor	-3361
▁defend	-3362
▁severe	-3363
▁teleph	-3364
▁collaps	-3365
▁affected	-3366
▁compared	-3367
▁electric	-3368
▁operating	-3369
▁prisoners	-3370
yan	-3371
▁kh	-3372
cing	-3373
▁mug	-3374
duced	-3375
icket	-3376
omber	-3377
▁arms	-3378
▁opin	-3379
▁sher	-3380
▁shop	-3381
▁stra	-3382
▁chung	-3383
▁moving	-3384
▁propos	-3385
▁damaged	-3386
▁restaur	-3387
▁commercial	-3388
▁everything	-3389
ken	-3390
ogn	-3391
▁bi	-3392
▁km	-3393
ilty	-3394
mark	-3395
ream	-3396
resh	-3397
▁und	-3398
▁baby	-3399
▁crime	-3400
▁displ	-3401
▁girls	-3402
▁quake	-3403
▁range	-3404
▁serve	-3405
▁tests	-3406
▁figure	-3407
▁forest	-3408
▁mugabe	-3409
▁object	-3410
▁recogn	-3411
▁century	-3412
▁improve	-3413
▁electron	-3414
▁starting	-3415
▁criticism	-3416
▁reportedly	-3417
▁neighborhood	-3418
▁responsibility	-3419
wer	-3420
know	-3421
pper	-3422
▁shr	-3423
acter	-3424
ently	-3425
orial	-3426
▁kurd	-3427
▁sale	-3428
encies	-3429
▁prize	-3430
▁voted	-3431
▁words	-3432
▁assass	-3433
▁barrel	-3434
▁guilty	-3435
▁stopped	-3436
▁remaining	-3437
▁terrorists	-3438
ba	-3439
olf	-3440
ties	-3441
▁las	-3442
force	-3443
ively	-3444
▁hall	-3445
▁weak	-3446
▁below	-3447
▁built	-3448
▁fears	-3449
▁motor	-3450
▁rather	-3451
▁regard	-3452
▁voting	-3453
▁affairs	-3454
▁attract	-3455
▁created	-3456
▁shuttle	-3457
▁palestinians	-3458
arm	-3459
ica	-3460
mon	-3461
ota	-3462
eing	-3463
▁bak	-3464
▁deg	-3465
▁mas	-3466
▁sil	-3467
estic	-3468
ullah	-3469
▁lang	-3470
▁phil	-3471
▁song	-3472
▁word	-3473
atures	-3474
lement	-3475
rators	-3476
▁crude	-3477
▁filed	-3478
▁medic	-3479
knowled	-3480
▁casual	-3481
▁player	-3482
▁seized	-3483
▁sexual	-3484
▁replace	-3485
▁consumer	-3486
▁criminal	-3487
▁forecast	-3488
▁patients	-3489
▁committed	-3490
▁conducted	-3491
▁prosecution	-3492
ga	-3493
hy	-3494
car	-3495
lex	-3496
uan	-3497
unt	-3498
▁ep	-3499
▁acad	-3500
▁cash	-3501
▁firm	-3502
▁mort	-3503
▁purs	-3504
▁rail	-3505
▁seek	-3506
▁scand	-3507
▁sound	-3508
▁twice	-3509
▁wrong	-3510
▁declined	-3511
▁proposed	-3512
▁sentence	-3513
▁concerned	-3514
▁documents	-3515
▁understand	-3516
ado	-3517
▁gh	-3518
ibly	-3519
ping	-3520
▁mel	-3521
▁sel	-3522
▁yah	-3523
agers	-3524
asion	-3525
field	-3526
▁join	-3527
▁pers	-3528
▁teac	-3529
▁burma	-3530
▁fifth	-3531
▁gates	-3532
▁images	-3533
▁malays	-3534
▁climate	-3535
▁measure	-3536
▁respect	-3537
▁deadline	-3538
▁lebanese	-3539
▁powerful	-3540
▁acknowled	-3541
▁kidnapped	-3542
▁necessary	-3543
▁witnesses	-3544
▁journalists	-3545
den	-3546
reg	-3547
ster	-3548
▁abe	-3549
▁kab	-3550
▁lad	-3551
orrow	-3552
▁magn	-3553
▁slow	-3554
▁accus	-3555
▁clean	-3556
▁giant	-3557
▁lines	-3558
▁raise	-3559
▁teams	-3560
▁events	-3561
▁itself	-3562
▁college	-3563
▁colombia	-3564
▁determin	-3565
▁mountain	-3566
▁telephone	-3567
ode	-3568
▁mc	-3569
ales	-3570
ider	-3571
▁bol	-3572
▁lib	-3573
oting	-3574
▁goes	-3575
▁hear	-3576
igious	-3577
▁envoy	-3578
▁patro	-3579
▁recon	-3580
▁shown	-3581
▁treas	-3582
▁abduct	-3583
▁placed	-3584
▁stocks	-3585
▁winner	-3586
▁airline	-3587
▁complex	-3588
▁policies	-3589
▁tourists	-3590
▁leadership	-3591
ew	-3592
ris	-3593
vez	-3594
wor	-3595
▁ha	-3596
hold	-3597
like	-3598
▁bay	-3599
▁gat	-3600
▁han	-3601
▁jew	-3602
▁pir	-3603
▁euro	-3604
▁moon	-3605
▁adult	-3606
▁artic	-3607
▁brain	-3608
▁somal	-3609
▁truck	-3610
▁works	-3611
▁yahoo	-3612
ression	-3613
▁anyone	-3614
▁caught	-3615
▁howard	-3616
▁marine	-3617
▁failure	-3618
▁complain	-3619
▁conflict	-3620
▁ministers	-3621
▁territory	-3622
no	-3623
iki	-3624
ancy	-3625
ends	-3626
ites	-3627
ivid	-3628
soft	-3629
usal	-3630
▁felt	-3631
▁heav	-3632
▁hurt	-3633
▁jung	-3634
▁whom	-3635
lywood	-3636
▁apple	-3637
▁dozen	-3638
▁fresh	-3639
▁names	-3640
▁refer	-3641
▁allies	-3642
▁science	-3643
▁society	-3644
▁domestic	-3645
▁militant	-3646
▁customers	-3647
▁dangerous	-3648
▁sentenced	-3649
ray	-3650
▁id	-3651
lies	-3652
oded	-3653
▁box	-3654
▁oce	-3655
▁ton	-3656
apore	-3657
light	-3658
▁arch	-3659
▁auto	-3660
▁fine	-3661
▁shel	-3662
▁wood	-3663
▁beach	-3664
▁drugs	-3665
▁citing	-3666
▁joined	-3667
▁spring	-3668
▁supply	-3669
▁concert	-3670
▁showing	-3671
▁football	-3672
▁promised	-3673
▁software	-3674
▁astronaut	-3675
▁singapore	-3676
▁investigating	-3677
che	-3678
gun	-3679
mas	-3680
▁ze	-3681
sein	-3682
ston	-3683
▁ali	-3684
▁mah	-3685
arily	-3686
▁fair	-3687
▁navy	-3688
▁pent	-3689
▁serb	-3690
▁trig	-3691
▁yong	-3692
friend	-3693
ulated	-3694
▁langu	-3695
▁sleep	-3696
▁appeal	-3697
▁losses	-3698
▁madrid	-3699
▁screen	-3700
▁sharif	-3701
▁lebanon	-3702
▁married	-3703
▁pledged	-3704
▁spanish	-3705
▁airlines	-3706
▁disaster	-3707
▁everyone	-3708
▁marriage	-3709
▁williams	-3710
▁suggested	-3711
do	-3712
hs	-3713
erc	-3714
lus	-3715
uff	-3716
oved	-3717
▁flu	-3718
aksin	-3719
▁muse	-3720
▁sant	-3721
▁actor	-3722
▁firef	-3723
▁myung	-3724
▁panel	-3725
▁paper	-3726
▁takes	-3727
▁looked	-3728
▁pulled	-3729
▁sought	-3730
▁initial	-3731
▁ongoing	-3732
▁propert	-3733
▁records	-3734
▁regular	-3735
▁written	-3736
▁meetings	-3737
▁provided	-3738
▁restrict	-3739
▁microsoft	-3740
▁suspended	-3741
▁helicopter	-3742
▁management	-3743
▁republicans	-3744
ips	-3745
vin	-3746
▁fo	-3747
▁ly	-3748
▁bat	-3749
▁fer	-3750
▁gul	-3751
ashes	-3752
▁chec	-3753
▁fled	-3754
▁jong	-3755
▁normal	-3756
▁victim	-3757
▁critics	-3758
▁hostage	-3759
▁individ	-3760
▁inspect	-3761
▁largely	-3762
▁reuters	-3763
▁bombings	-3764
▁designed	-3765
▁fighters	-3766
▁positive	-3767
▁developed	-3768
▁estimates	-3769
▁protection	-3770
ror	-3771
▁et	-3772
▁gm	-3773
rupt	-3774
▁lay	-3775
ordon	-3776
▁alex	-3777
▁fest	-3778
▁gree	-3779
▁stem	-3780
▁intro	-3781
▁score	-3782
▁museum	-3783
▁francis	-3784
▁headquar	-3785
▁missiles	-3786
▁collapsed	-3787
▁demanding	-3788
gn	-3789
bel	-3790
eth	-3791
sen	-3792
ube	-3793
zai	-3794
igan	-3795
keep	-3796
▁dig	-3797
▁fro	-3798
▁sty	-3799
▁ven	-3800
▁flag	-3801
▁gang	-3802
▁blair	-3803
▁oppon	-3804
▁smoke	-3805
▁bridge	-3806
▁entire	-3807
▁recomm	-3808
▁reduce	-3809
▁winter	-3810
▁dispute	-3811
▁thaksin	-3812
▁usually	-3813
▁village	-3814
▁accepted	-3815
▁peaceful	-3816
▁pentagon	-3817
▁presence	-3818
▁regional	-3819
▁facilities	-3820
ps	-3821
dog	-3822
ovo	-3823
▁lu	-3824
onym	-3825
vert	-3826
▁var	-3827
▁ves	-3828
▁bott	-3829
▁boyc	-3830
▁fast	-3831
▁male	-3832
▁prec	-3833
▁ways	-3834
▁homel	-3835
▁kabul	-3836
▁liver	-3837
▁model	-3838
▁ocean	-3839
▁defeat	-3840
▁ticket	-3841
▁weight	-3842
heastern	-3843
▁contrib	-3844
▁opinion	-3845
▁package	-3846
▁removed	-3847
▁wearing	-3848
▁alliance	-3849
▁gathered	-3850
▁straight	-3851
▁targeted	-3852
▁christmas	-3853
▁computers	-3854
▁continues	-3855
▁determine	-3856
▁evacuated	-3857
▁businesses	-3858
▁experience	-3859
▁performance	-3860
▁resignation	-3861
hib	-3862
▁ok	-3863
ezza	-3864
▁isn	-3865
▁kos	-3866
▁nep	-3867
▁rap	-3868
enger	-3869
▁else	-3870
▁mary	-3871
▁self	-3872
▁tank	-3873
▁wasn	-3874
▁yang	-3875
coming	-3876
▁steve	-3877
▁tells	-3878
itation	-3879
oleezza	-3880
▁immigr	-3881
▁punish	-3882
▁surviv	-3883
▁suspic	-3884
▁appears	-3885
▁dismiss	-3886
▁distrib	-3887
▁violent	-3888
▁pictures	-3889
▁attempted	-3890
▁christian	-3891
▁developing	-3892
▁condoleezza	-3893
▁opportunity	-3894
▁possibility	-3895
▁headquarters	-3896
▁controversial	-3897
▁da	-3898
olic	-3899
road	-3900
▁cro	-3901
iment	-3902
inary	-3903
▁hair	-3904
▁arriv	-3905
▁coach	-3906
▁lands	-3907
▁magaz	-3908
▁prior	-3909
▁trail	-3910
▁choice	-3911
▁deadly	-3912
▁decade	-3913
▁maliki	-3914
▁singer	-3915
▁temper	-3916
▁vessel	-3917
▁actions	-3918
▁perform	-3919
▁waiting	-3920
▁required	-3921
▁confidence	-3922
aki	-3923
abad	-3924
abil	-3925
anda	-3926
aska	-3927
rote	-3928
▁ask	-3929
▁cru	-3930
▁rat	-3931
▁teh	-3932
wards	-3933
▁cauc	-3934
▁kids	-3935
▁mist	-3936
▁spir	-3937
▁surf	-3938
▁james	-3939
▁laden	-3940
▁torch	-3941
▁vowed	-3942
▁ending	-3943
▁relief	-3944
▁spears	-3945
▁waters	-3946
▁tibetan	-3947
▁annivers	-3948
▁produced	-3949
▁surrounding	-3950
▁particularly	-3951
▁demonstrators	-3952
▁demonstrations	-3953
rer	-3954
apse	-3955
olas	-3956
▁fra	-3957
▁uri	-3958
▁clin	-3959
▁clot	-3960
▁grad	-3961
▁mine	-3962
▁pick	-3963
▁block	-3964
▁lived	-3965
▁owner	-3966
▁purch	-3967
▁route	-3968
▁argent	-3969
▁doctor	-3970
▁double	-3971
▁finish	-3972
▁headed	-3973
▁meters	-3974
▁mobile	-3975
▁secure	-3976
▁sports	-3977
▁article	-3978
▁imposed	-3979
▁involve	-3980
▁premier	-3981
▁systems	-3982
▁agencies	-3983
▁directly	-3984
▁overseas	-3985
▁challenge	-3986
▁establish	-3987
▁influence	-3988
▁anniversary	-3989
▁championship	-3990
but	-3991
ett	-3992
azir	-3993
ford	-3994
▁alb	-3995
▁dut	-3996
▁hav	-3997
▁ign	-3998
▁mach	-3999
▁wing	-4000
▁alive	-4001
▁downt	-4002
▁meant	-4003
▁moham	-4004
▁queen	-4005
▁sunni	-4006
▁users	-4007
▁canada	-4008
▁encour	-4009
▁expand	-4010
▁gordon	-4011
▁houses	-4012
▁karzai	-4013
▁pervez	-4014
▁resume	-4015
▁settle	-4016
▁slight	-4017
▁hussein	-4018
▁receive	-4019
▁serving	-4020
▁exploded	-4021
▁politics	-4022
▁hollywood	-4023
▁professor	-4024
▁traveling	-4025
▁foreigners	-4026
▁considering	-4027
ams	-4028
nic	-4029
burg	-4030
▁eld	-4031
ander	-4032
anged	-4033
▁cold	-4034
▁alone	-4035
▁cents	-4036
▁drive	-4037
▁enter	-4038
▁exist	-4039
▁junta	-4040
▁princ	-4041
▁rebel	-4042
▁wrote	-4043
▁animal	-4044
▁losing	-4045
▁tehran	-4046
▁content	-4047
▁housing	-4048
▁kurdish	-4049
▁offices	-4050
▁involving	-4051
▁suffering	-4052
▁questioned	-4053
ob	-4054
bre	-4055
het	-4056
ych	-4057
▁ba	-4058
▁abu	-4059
▁eru	-4060
▁gon	-4061
▁inn	-4062
▁lic	-4063
▁ram	-4064
▁rub	-4065
▁sho	-4066
▁dial	-4067
▁door	-4068
▁floor	-4069
▁owned	-4070
▁syria	-4071
▁terms	-4072
▁trust	-4073
▁affect	-4074
▁bomber	-4075
▁gather	-4076
▁kosovo	-4077
▁clashes	-4078
▁conclud	-4079
▁footage	-4080
▁overall	-4081
▁selling	-4082
▁various	-4083
▁document	-4084
▁supplies	-4085
▁nationwide	-4086
fur	-4087
new	-4088
fort	-4089
ille	-4090
reme	-4091
▁ach	-4092
▁din	-4093
▁kyi	-4094
▁nad	-4095
▁nar	-4096
▁orb	-4097
ilipp	-4098
▁seed	-4099
▁trib	-4100
▁walk	-4101
iction	-4102
▁alert	-4103
▁fraud	-4104
▁peter	-4105
▁pregn	-4106
▁speak	-4107
▁tight	-4108
▁driver	-4109
▁facing	-4110
▁regime	-4111
▁retail	-4112
▁finance	-4113
▁lawyers	-4114
▁philipp	-4115
▁activity	-4116
▁approach	-4117
▁becoming	-4118
▁consumers	-4119
▁crackdown	-4120
▁initially	-4121
▁northeast	-4122
▁recession	-4123
▁controlled	-4124
dam	-4125
pir	-4126
▁ps	-4127
ogue	-4128
pool	-4129
▁anc	-4130
▁ari	-4131
ender	-4132
isher	-4133
▁cong	-4134
▁gets	-4135
▁item	-4136
▁page	-4137
▁achie	-4138
▁fully	-4139
▁happy	-4140
▁honor	-4141
itarian	-4142
▁ronald	-4143
▁select	-4144
▁unlike	-4145
▁freedom	-4146
▁helping	-4147
▁scandal	-4148
▁sending	-4149
▁visited	-4150
▁willing	-4151
▁collapse	-4152
▁original	-4153
▁solution	-4154
dan	-4155
gas	-4156
▁ib	-4157
hens	-4158
illa	-4159
▁bed	-4160
▁gal	-4161
▁jet	-4162
▁spl	-4163
aming	-4164
ately	-4165
▁cuts	-4166
▁push	-4167
▁sail	-4168
▁aband	-4169
▁behav	-4170
▁troop	-4171
▁anonym	-4172
▁banned	-4173
▁places	-4174
▁portug	-4175
▁finding	-4176
▁penalty	-4177
▁unclear	-4178
▁determined	-4179
▁explosives	-4180
uj	-4181
,""	-4182
une	-4183
▁ko	-4184
▁ku	-4185
imum	-4186
tern	-4187
▁rum	-4188
▁typ	-4189
asons	-4190
astic	-4191
ilton	-4192
▁alco	-4193
▁band	-4194
▁diss	-4195
▁gain	-4196
▁knew	-4197
▁save	-4198
▁thai	-4199
ension	-4200
▁cells	-4201
▁climb	-4202
▁dream	-4203
▁exerc	-4204
▁veter	-4205
▁virus	-4206
▁kenned	-4207
▁widely	-4208
▁located	-4209
▁princip	-4210
▁property	-4211
▁tensions	-4212
▁indicated	-4213
▁islamabad	-4214
▁correspondent	-4215
▁transportation	-4216
cr	-4217
ko	-4218
can	-4219
gen	-4220
ols	-4221
win	-4222
fect	-4223
ique	-4224
ront	-4225
ucks	-4226
▁lou	-4227
▁nev	-4228
▁suu	-4229
▁bear	-4230
▁chem	-4231
▁cuba	-4232
▁plot	-4233
▁pope	-4234
▁roll	-4235
▁spar	-4236
▁trop	-4237
anging	-4238
ateral	-4239
▁contr	-4240
▁examp	-4241
▁holds	-4242
▁nepal	-4243
▁ships	-4244
▁taxes	-4245
▁arabia	-4246
▁burned	-4247
▁device	-4248
▁gunmen	-4249
▁palace	-4250
▁pounds	-4251
▁resort	-4252
▁delayed	-4253
▁smaller	-4254
▁treated	-4255
▁windows	-4256
▁demanded	-4257
▁magazine	-4258
▁trillion	-4259
▁sometimes	-4260
▁convention	-4261
▁politicians	-4262
bon	-4263
iri	-4264
▁ic	-4265
▁ki	-4266
aked	-4267
rawn	-4268
▁bil	-4269
▁cbs	-4270
▁dna	-4271
▁enj	-4272
▁mix	-4273
▁rus	-4274
▁ukr	-4275
ented	-4276
rency	-4277
▁dark	-4278
▁mile	-4279
▁rall	-4280
▁warr	-4281
enders	-4282
▁books	-4283
▁frank	-4284
▁stone	-4285
▁voice	-4286
▁handed	-4287
▁picked	-4288
▁served	-4289
ferences	-4290
▁academy	-4291
▁alcohol	-4292
▁bailout	-4293
▁contain	-4294
▁deliver	-4295
▁heavily	-4296
▁highway	-4297
▁kennedy	-4298
▁species	-4299
▁believes	-4300
▁dialogue	-4301
▁finished	-4302
▁language	-4303
▁michigan	-4304
▁treasury	-4305
▁apartment	-4306
▁francisco	-4307
▁liverpool	-4308
ami	-4309
apt	-4310
ery	-4311
▁ut	-4312
eric	-4313
esty	-4314
oses	-4315
▁rac	-4316
▁rod	-4317
▁sev	-4318
vered	-4319
▁beck	-4320
▁heat	-4321
▁inqu	-4322
▁mind	-4323
▁onto	-4324
▁purp	-4325
▁text	-4326
▁true	-4327
ounced	-4328
▁fewer	-4329
▁heads	-4330
▁hoped	-4331
▁johns	-4332
▁sudan	-4333
▁touch	-4334
▁whole	-4335
ructure	-4336
western	-4337
▁asking	-4338
▁depart	-4339
▁iraqis	-4340
▁planet	-4341
▁unless	-4342
▁causing	-4343
▁entered	-4344
▁extreme	-4345
▁setting	-4346
▁warming	-4347
▁approval	-4348
▁attempts	-4349
▁roadside	-4350
▁personnel	-4351
▁religious	-4352
▁assistance	-4353
▁kidnapping	-4354
▁supporting	-4355
▁withdrawal	-4356
▁traditional	-4357
▁constitutional	-4358
owa	-4359
oral	-4360
unch	-4361
▁ens	-4362
▁ult	-4363
▁uns	-4364
anted	-4365
▁gone	-4366
▁mahm	-4367
▁ones	-4368
▁rein	-4369
ground	-4370
ifying	-4371
▁abuse	-4372
▁occup	-4373
▁seems	-4374
▁stood	-4375
chester	-4376
▁camera	-4377
▁tested	-4378
▁talking	-4379
▁condemned	-4380
▁survivors	-4381
▁travelers	-4382
▁casualties	-4383
▁connection	-4384
▁foundation	-4385
▁cooperation	-4386
▁governments	-4387
▁neighboring	-4388
enty	-4389
uers	-4390
▁gra	-4391
▁van	-4392
▁wen	-4393
▁bure	-4394
▁meth	-4395
▁virt	-4396
▁chann	-4397
▁color	-4398
▁deton	-4399
▁equip	-4400
▁frequ	-4401
▁looks	-4402
▁reven	-4403
▁broken	-4404
▁budget	-4405
▁crimes	-4406
▁happen	-4407
▁photos	-4408
▁tempor	-4409
▁demands	-4410
▁nicolas	-4411
▁sheriff	-4412
▁captured	-4413
▁historic	-4414
▁memorial	-4415
▁magnitude	-4416
▁providing	-4417
▁firefighters	-4418
ugg	-4419
▁fa	-4420
sequ	-4421
▁arr	-4422
▁eye	-4423
▁gay	-4424
▁pra	-4425
▁tun	-4426
inces	-4427
▁corn	-4428
▁hamp	-4429
▁lone	-4430
▁tony	-4431
▁roads	-4432
▁accomp	-4433
▁buying	-4434
▁declar	-4435
▁injury	-4436
▁changed	-4437
▁charles	-4438
▁keeping	-4439
▁quality	-4440
▁resolve	-4441
▁rockets	-4442
▁simpson	-4443
▁tonight	-4444
▁facility	-4445
▁proposal	-4446
▁visiting	-4447
▁completed	-4448
▁manchester	-4449
▁profession	-4450
▁competition	-4451
berg	-4452
fire	-4453
omic	-4454
tery	-4455
well	-4456
yond	-4457
▁der	-4458
▁fal	-4459
▁scr	-4460
▁sov	-4461
adian	-4462
arant	-4463
gered	-4464
lands	-4465
▁ally	-4466
▁dogs	-4467
▁plus	-4468
isions	-4469
mitted	-4470
nament	-4471
▁equal	-4472
▁fatah	-4473
▁gains	-4474
▁image	-4475
▁sense	-4476
▁surge	-4477
▁tough	-4478
▁value	-4479
▁beyond	-4480
▁cooper	-4481
▁ethnic	-4482
▁guards	-4483
▁marked	-4484
▁profit	-4485
▁tribal	-4486
▁walked	-4487
▁beckham	-4488
▁crashed	-4489
▁enforce	-4490
▁finally	-4491
▁tourism	-4492
▁trapped	-4493
▁festival	-4494
▁killings	-4495
▁rescuers	-4496
▁resident	-4497
▁wounding	-4498
▁insurance	-4499
▁strengthe	-4500
▁struggling	-4501
▁tournament	-4502
▁increasingly	-4503
▁organizations	-4504
ho	-4505
ny	-4506
▁fix	-4507
▁gov	-4508
etnam	-4509
ivity	-4510
ulate	-4511
usted	-4512
▁ford	-4513
▁mont	-4514
▁stad	-4515
▁tons	-4516
▁unit	-4517
▁zeal	-4518
usalem	-4519
utions	-4520
▁carri	-4521
▁draft	-4522
▁faced	-4523
▁obser	-4524
▁rough	-4525
▁closer	-4526
▁famous	-4527
▁gunman	-4528
▁narrow	-4529
▁auction	-4530
▁consult	-4531
▁culture	-4532
▁picture	-4533
▁produce	-4534
▁reflect	-4535
▁insisted	-4536
▁character	-4537
▁diplomats	-4538
▁discovery	-4539
▁equipment	-4540
▁jerusalem	-4541
▁relatives	-4542
▁southeast	-4543
▁standards	-4544
▁organizers	-4545
▁regulations	-4546
▁threatening	-4547
cel	-4548
ici	-4549
she	-4550
aret	-4551
etts	-4552
lets	-4553
rill	-4554
stri	-4555
achus	-4556
inger	-4557
oning	-4558
▁boat	-4559
▁cath	-4560
▁chel	-4561
▁gamb	-4562
▁mand	-4563
▁thin	-4564
▁wine	-4565
▁yell	-4566
▁colon	-4567
▁exile	-4568
▁leads	-4569
▁milan	-4570
▁noted	-4571
▁probe	-4572
▁psych	-4573
▁rapid	-4574
issions	-4575
▁assess	-4576
▁awards	-4577
▁belong	-4578
▁bought	-4579
▁flying	-4580
▁inches	-4581
▁phones	-4582
▁scored	-4583
▁soviet	-4584
▁unable	-4585
▁welcom	-4586
▁actress	-4587
▁decline	-4588
▁example	-4589
▁limited	-4590
▁require	-4591
▁telling	-4592
▁version	-4593
▁vietnam	-4594
achusetts	-4595
▁allowing	-4596
▁behavior	-4597
▁bringing	-4598
▁downtown	-4599
▁prepared	-4600
▁projects	-4601
▁relative	-4602
▁reporter	-4603
▁tomorrow	-4604
▁colombian	-4605
▁detention	-4606
▁governing	-4607
▁hospitals	-4608
▁seriously	-4609
▁delegation	-4610
▁declaration	-4611
▁massachusetts	-4612
ipp	-4613
oke	-4614
ests	-4615
icks	-4616
part	-4617
time	-4618
▁cha	-4619
▁hor	-4620
▁log	-4621
▁mir	-4622
▁mph	-4623
▁zoo	-4624
rison	-4625
▁blow	-4626
▁flew	-4627
▁iowa	-4628
▁pret	-4629
▁runs	-4630
▁sadr	-4631
▁torn	-4632
▁toys	-4633
▁unem	-4634
▁unve	-4635
▁stars	-4636
▁style	-4637
▁subur	-4638
▁atomic	-4639
▁experi	-4640
▁highly	-4641
▁hilton	-4642
▁nevada	-4643
▁owners	-4644
▁recall	-4645
▁weekly	-4646
▁conspir	-4647
▁follows	-4648
▁guarant	-4649
▁johnson	-4650
▁attended	-4651
▁compound	-4652
▁currency	-4653
▁deployed	-4654
▁drinking	-4655
▁malaysia	-4656
▁partners	-4657
▁dismissed	-4658
▁implement	-4659
▁searching	-4660
▁electronic	-4661
▁revolution	-4662
mo	-4663
ein	-4664
ova	-4665
pro	-4666
sea	-4667
wal	-4668
icip	-4669
inal	-4670
what	-4671
▁bow	-4672
▁kat	-4673
ersey	-4674
▁acqu	-4675
▁ariz	-4676
▁bern	-4677
▁mike	-4678
▁rape	-4679
▁suit	-4680
▁wave	-4681
idency	-4682
ighter	-4683
▁album	-4684
▁delay	-4685
▁exact	-4686
▁kenya	-4687
▁louis	-4688
▁monks	-4689
▁nadal	-4690
▁relay	-4691
▁rooms	-4692
▁scale	-4693
▁choose	-4694
▁estate	-4695
▁margin	-4696
▁modern	-4697
▁patrol	-4698
▁resour	-4699
▁status	-4700
▁chelsea	-4701
▁express	-4702
▁proceed	-4703
▁smoking	-4704
▁speaker	-4705
▁stadium	-4706
▁threats	-4707
▁trouble	-4708
▁christop	-4709
▁possibly	-4710
▁stations	-4711
▁unemploy	-4712
▁offensive	-4713
▁opponents	-4714
▁passenger	-4715
▁disappoint	-4716
▁journalist	-4717
▁humanitarian	-4718
▁assassination	-4719
▁communications	-4720
ye	-4721
dom	-4722
him	-4723
lad	-4724
set	-4725
udd	-4726
you	-4727
▁eh	-4728
▁ji	-4729
bery	-4730
iced	-4731
idel	-4732
ogle	-4733
that	-4734
aches	-4735
▁exam	-4736
▁ghaz	-4737
▁guns	-4738
▁jury	-4739
▁prin	-4740
▁rome	-4741
▁symb	-4742
▁wire	-4743
icient	-4744
incial	-4745
▁begun	-4746
▁bench	-4747
▁cited	-4748
▁diana	-4749
▁items	-4750
▁oscar	-4751
▁piece	-4752
▁spend	-4753
▁throw	-4754
▁troub	-4755
▁vegas	-4756
essions	-4757
▁answer	-4758
▁applic	-4759
▁berlin	-4760
▁cheney	-4761
▁gained	-4762
▁google	-4763
▁judges	-4764
▁jumped	-4765
▁thanks	-4766
▁treaty	-4767
▁airstri	-4768
▁arizona	-4769
▁heading	-4770
▁jackson	-4771
▁mahmoud	-4772
▁walking	-4773
▁intended	-4774
▁standing	-4775
▁provinces	-4776
▁reporting	-4777
▁appearance	-4778
▁eventually	-4779
▁prosecutor	-4780
▁provincial	-4781
▁statements	-4782
▁christopher	-4783
▁involvement	-4784
▁representatives	-4785
cri	-4786
▁ec	-4787
oney	-4788
rees	-4789
▁cow	-4790
▁gri	-4791
▁syd	-4792
anium	-4793
▁lady	-4794
▁wake	-4795
▁angry	-4796
▁dubai	-4797
▁films	-4798
▁nobel	-4799
▁overn	-4800
▁spons	-4801
▁decide	-4802
▁extrem	-4803
▁koreas	-4804
▁lowest	-4805
▁simply	-4806
▁wealth	-4807
▁adviser	-4808
▁atlanta	-4809
▁boycott	-4810
▁muslims	-4811
▁partner	-4812
▁reserve	-4813
▁turning	-4814
▁watched	-4815
▁audience	-4816
▁division	-4817
▁extended	-4818
▁standard	-4819
▁suggests	-4820
▁appointed	-4821
▁overnight	-4822
▁recovered	-4823
▁supported	-4824
▁acknowledged	-4825
zb	-4826
aro	-4827
ura	-4828
rian	-4829
▁jim	-4830
▁obt	-4831
iring	-4832
ollah	-4833
point	-4834
▁blaz	-4835
▁calm	-4836
▁dram	-4837
▁ilbo	-4838
▁pull	-4839
▁tape	-4840
▁tear	-4841
▁agric	-4842
▁fatal	-4843
▁goals	-4844
▁goods	-4845
▁niger	-4846
▁pilot	-4847
ologist	-4848
▁filled	-4849
▁formal	-4850
▁jailed	-4851
▁prompt	-4852
▁saddam	-4853
▁seeing	-4854
▁sydney	-4855
▁banking	-4856
▁couples	-4857
▁neither	-4858
▁subject	-4859
▁targets	-4860
▁uranium	-4861
▁canceled	-4862
▁flooding	-4863
▁lawmaker	-4864
▁surprise	-4865
▁discussed	-4866
▁electoral	-4867
▁targeting	-4868
▁officially	-4869
▁presidency	-4870
▁discussions	-4871
▁electricity	-4872
▁investigate	-4873
awi	-4874
▁pc	-4875
abit	-4876
abor	-4877
byon	-4878
ills	-4879
itan	-4880
oard	-4881
rect	-4882
▁ath	-4883
▁ceo	-4884
▁lie	-4885
▁sar	-4886
▁toy	-4887
itzer	-4888
ropri	-4889
▁bond	-4890
▁boys	-4891
▁cruc	-4892
▁ehud	-4893
▁fier	-4894
▁hezb	-4895
▁none	-4896
▁path	-4897
▁pitt	-4898
▁ring	-4899
▁sams	-4900
▁swim	-4901
▁yout	-4902
▁divor	-4903
▁fires	-4904
▁towns	-4905
▁worse	-4906
▁advant	-4907
▁alaska	-4908
▁assets	-4909
▁cruise	-4910
▁herald	-4911
▁pushed	-4912
▁ranked	-4913
▁ancient	-4914
▁apology	-4915
▁arrival	-4916
▁edwards	-4917
▁herself	-4918
▁statist	-4919
▁agricult	-4920
▁physical	-4921
▁prompted	-4922
▁slightly	-4923
▁yongbyon	-4924
▁entertain	-4925
▁hezbollah	-4926
▁venezuela	-4927
▁transition	-4928
▁speculation	-4929
▁hospitalized	-4930
la	-4931
bus	-4932
cle	-4933
oph	-4934
rys	-4935
▁dod	-4936
▁max	-4937
ailed	-4938
inite	-4939
limin	-4940
▁pray	-4941
▁shan	-4942
▁catch	-4943
▁categ	-4944
▁coord	-4945
▁innoc	-4946
▁rural	-4947
▁threw	-4948
▁aboard	-4949
▁carbon	-4950
▁jersey	-4951
▁lifted	-4952
▁movies	-4953
▁trains	-4954
▁comfort	-4955
▁falling	-4956
▁learned	-4957
▁samsung	-4958
▁ukraine	-4959
▁youtube	-4960
▁caucuses	-4961
▁estimate	-4962
▁practice	-4963
▁prelimin	-4964
▁reaction	-4965
▁refugees	-4966
▁specific	-4967
▁watching	-4968
▁confident	-4969
▁legislation	-4970
▁commissioner	-4971
▁restrictions	-4972
▁unemployment	-4973
ea	-4974
ipe	-4975
rey	-4976
uce	-4977
erer	-4978
haps	-4979
wang	-4980
▁dal	-4981
▁nbc	-4982
▁ric	-4983
ivals	-4984
pread	-4985
▁eyes	-4986
▁fash	-4987
▁feat	-4988
▁gonz	-4989
▁skin	-4990
▁tort	-4991
▁upon	-4992
▁wins	-4993
▁wolf	-4994
▁adopt	-4995
▁boats	-4996
▁enjoy	-4997
▁initi	-4998
▁maker	-4999
▁older	-5000
▁prost	-5001
▁table	-5002
▁youth	-5003
istered	-5004
▁abroad	-5005
▁active	-5006
▁allows	-5007
▁altern	-5008
▁detain	-5009
▁income	-5010
▁remote	-5011
▁benazir	-5012
▁covered	-5013
▁farmers	-5014
▁landing	-5015
▁liberal	-5016
▁perfect	-5017
▁putting	-5018
▁radical	-5019
▁raising	-5020
▁reasons	-5021
▁sparked	-5022
▁strikes	-5023
▁zealand	-5024
▁abdullah	-5025
▁chemical	-5026
▁claiming	-5027
▁invasion	-5028
▁messages	-5029
▁offering	-5030
▁producing	-5031
▁completely	-5032
▁continuing	-5033
▁executives	-5034
▁temperatures	-5035
hap	-5036
iro	-5037
lor	-5038
▁ak	-5039
▁iv	-5040
arta	-5041
▁awa	-5042
▁cia	-5043
▁eve	-5044
▁suc	-5045
▁wis	-5046
oline	-5047
osing	-5048
▁budd	-5049
▁chos	-5050
▁khan	-5051
inated	-5052
▁blame	-5053
▁adults	-5054
▁babies	-5055
▁bureau	-5056
▁campus	-5057
▁crowds	-5058
▁papers	-5059
▁perman	-5060
▁plants	-5061
▁reduct	-5062
▁spirit	-5063
▁channel	-5064
▁cutting	-5065
▁fashion	-5066
▁federer	-5067
▁greater	-5068
▁routine	-5069
idespread	-5070
▁atlantic	-5071
▁contests	-5072
▁creating	-5073
▁recovery	-5074
▁assistant	-5075
▁responded	-5076
▁percentage	-5077
▁successful	-5078
▁preliminary	-5079
fl	-5080
ena	-5081
mun	-5082
oma	-5083
uth	-5084
▁az	-5085
feld	-5086
rend	-5087
▁fan	-5088
▁gmt	-5089
▁lob	-5090
▁sat	-5091
ading	-5092
anced	-5093
verse	-5094
▁coff	-5095
▁hung	-5096
▁outp	-5097
▁pump	-5098
▁sand	-5099
▁vlad	-5100
▁wars	-5101
rysler	-5102
▁agend	-5103
▁brand	-5104
▁renew	-5105
▁sport	-5106
imately	-5107
▁convoy	-5108
▁fisher	-5109
▁reject	-5110
▁stores	-5111
▁stress	-5112
▁weapon	-5113
entially	-5114
▁complic	-5115
▁connect	-5116
▁opposed	-5117
▁perhaps	-5118
▁profile	-5119
▁pushing	-5120
▁reduced	-5121
▁retired	-5122
▁staying	-5123
▁benefits	-5124
▁breaking	-5125
▁canadian	-5126
▁delivery	-5127
▁internal	-5128
▁princess	-5129
▁revealed	-5130
▁strongly	-5131
▁detonated	-5132
▁northwest	-5133
▁predicted	-5134
▁requested	-5135
▁conspiracy	-5136
▁restaurant	-5137
▁widespread	-5138
kk	-5139
va	-5140
awa	-5141
agan	-5142
zing	-5143
▁adj	-5144
▁god	-5145
▁ker	-5146
▁nur	-5147
▁pel	-5148
▁raf	-5149
▁wil	-5150
amond	-5151
ategy	-5152
break	-5153
elled	-5154
▁easy	-5155
▁exit	-5156
▁hunt	-5157
▁isol	-5158
▁kang	-5159
▁merc	-5160
▁slam	-5161
▁swed	-5162
▁type	-5163
▁unus	-5164
action	-5165
▁apart	-5166
▁birds	-5167
▁dress	-5168
▁drove	-5169
▁dutch	-5170
▁haven	-5171
▁ideas	-5172
▁optim	-5173
▁palin	-5174
▁recru	-5175
▁stake	-5176
▁stret	-5177
ception	-5178
▁advert	-5179
▁mainly	-5180
▁method	-5181
▁networ	-5182
▁resist	-5183
▁closing	-5184
▁crucial	-5185
▁diamond	-5186
▁escaped	-5187
▁exports	-5188
▁invited	-5189
▁promote	-5190
▁succeed	-5191
▁towards	-5192
▁writing	-5193
▁strategy	-5194
▁survived	-5195
▁warnings	-5196
▁welcomed	-5197
▁returning	-5198
▁newspapers	-5199
▁counterpart	-5200
▁manufacture	-5201
▁questioning	-5202
ki	-5203
era	-5204
isc	-5205
rog	-5206
zen	-5207
▁ip	-5208
gage	-5209
iano	-5210
▁ash	-5211
▁bon	-5212
▁hub	-5213
▁jes	-5214
▁rid	-5215
▁via	-5216
▁wid	-5217
ansas	-5218
iling	-5219
liest	-5220
▁drew	-5221
▁ends	-5222
▁neck	-5223
▁pace	-5224
▁quit	-5225
▁samp	-5226
▁stim	-5227
akarta	-5228
▁agent	-5229
▁maybe	-5230
▁santa	-5231
▁squad	-5232
▁upper	-5233
▁agenda	-5234
▁planes	-5235
▁aggress	-5236
▁captain	-5237
▁effects	-5238
▁erupted	-5239
▁failing	-5240
▁imports	-5241
▁lawsuit	-5242
▁patient	-5243
▁birthday	-5244
▁catholic	-5245
▁entering	-5246
▁exercise	-5247
▁advantage	-5248
▁anonymity	-5249
▁organized	-5250
▁preparing	-5251
▁southwest	-5252
▁congressional	-5253
▁entertainment	-5254
amm	-5255
bac	-5256
iny	-5257
lig	-5258
rig	-5259
book	-5260
etic	-5261
iami	-5262
iest	-5263
ucky	-5264
whel	-5265
▁abc	-5266
▁ble	-5267
▁sem	-5268
iters	-5269
▁aide	-5270
▁cart	-5271
▁edge	-5272
▁grab	-5273
▁lama	-5274
▁shir	-5275
▁task	-5276
▁wait	-5277
▁warm	-5278
▁aides	-5279
▁diego	-5280
▁doubt	-5281
▁miami	-5282
▁plung	-5283
▁quite	-5284
▁split	-5285
▁columb	-5286
▁devast	-5287
▁export	-5288
▁flames	-5289
▁greece	-5290
▁larger	-5291
▁pretty	-5292
▁sector	-5293
▁soccer	-5294
▁termin	-5295
▁wonder	-5296
▁healthy	-5297
▁mention	-5298
▁pirates	-5299
▁reality	-5300
▁regions	-5301
▁seconds	-5302
▁stepped	-5303
▁champion	-5304
▁gasoline	-5305
▁resigned	-5306
▁argentina	-5307
▁primaries	-5308
▁resources	-5309
▁commitment	-5310
gs	-5311
ss	-5312
zo	-5313
aug	-5314
kel	-5315
kin	-5316
nis	-5317
odo	-5318
uct	-5319
ume	-5320
dden	-5321
fall	-5322
inct	-5323
oked	-5324
rick	-5325
uals	-5326
▁gop	-5327
▁hat	-5328
▁hug	-5329
▁ped	-5330
▁yon	-5331
leine	-5332
osite	-5333
oston	-5334
▁dani	-5335
▁dump	-5336
▁flow	-5337
▁harm	-5338
▁rebu	-5339
▁sick	-5340
▁tsun	-5341
▁veto	-5342
iously	-5343
▁dalai	-5344
▁delta	-5345
▁enemy	-5346
▁escal	-5347
▁marks	-5348
▁prosp	-5349
▁steel	-5350
▁afford	-5351
▁boston	-5352
▁couldn	-5353
▁earned	-5354
▁formed	-5355
▁hoping	-5356
▁landed	-5357
▁landsl	-5358
▁rivals	-5359
▁sudden	-5360
▁urging	-5361
▁vladim	-5362
▁bombers	-5363
▁centers	-5364
▁clearly	-5365
▁divided	-5366
▁expects	-5367
▁recover	-5368
▁chrysler	-5369
▁identify	-5370
▁maryland	-5371
▁negative	-5372
▁overwhel	-5373
▁reaching	-5374
▁tropical	-5375
▁upcoming	-5376
▁household	-5377
▁inflation	-5378
▁materials	-5379
▁permanent	-5380
▁apologized	-5381
▁girlfriend	-5382
▁inspectors	-5383
▁negotiator	-5384
▁registered	-5385
▁surrounded	-5386
▁differences	-5387
▁helicopters	-5388
bar	-5389
gar	-5390
war	-5391
▁ia	-5392
▁ka	-5393
▁lt	-5394
▁mu	-5395
fare	-5396
hist	-5397
more	-5398
unte	-5399
▁atm	-5400
▁bah	-5401
▁pkk	-5402
▁spr	-5403
deleg	-5404
ental	-5405
erous	-5406
▁amaz	-5407
▁argu	-5408
▁feed	-5409
▁grew	-5410
▁hasn	-5411
▁jeff	-5412
▁lose	-5413
▁lung	-5414
▁mour	-5415
▁note	-5416
▁pair	-5417
▁scen	-5418
▁sean	-5419
▁stal	-5420
▁anger	-5421
▁arsen	-5422
▁cease	-5423
▁corps	-5424
▁debut	-5425
▁gives	-5426
▁greet	-5427
▁sixth	-5428
▁athlet	-5429
▁bottom	-5430
▁buried	-5431
▁causes	-5432
▁darfur	-5433
▁disney	-5434
▁fellow	-5435
▁fought	-5436
▁frozen	-5437
▁ghazni	-5438
▁lights	-5439
▁remove	-5440
▁serbia	-5441
▁simple	-5442
▁yonhap	-5443
▁drivers	-5444
▁feeling	-5445
▁funding	-5446
▁install	-5447
▁islands	-5448
▁journey	-5449
▁kingdom	-5450
▁managed	-5451
▁matches	-5452
▁tsunami	-5453
▁volunte	-5454
▁infected	-5455
▁maintain	-5456
▁vladimir	-5457
▁corporate	-5458
▁extremely	-5459
▁neighbors	-5460
▁observers	-5461
▁repeatedly	-5462
▁controversy	-5463
▁expectations	-5464
cop	-5465
ita	-5466
rec	-5467
▁od	-5468
▁rh	-5469
iang	-5470
wart	-5471
▁fab	-5472
▁ire	-5473
▁sam	-5474
▁tab	-5475
antly	-5476
rated	-5477
shire	-5478
▁aids	-5479
▁cycl	-5480
▁dong	-5481
▁jord	-5482
▁outr	-5483
▁visa	-5484
minent	-5485
▁abdul	-5486
▁chart	-5487
▁chile	-5488
▁jesus	-5489
▁lohan	-5490
▁degree	-5491
▁desert	-5492
▁hotels	-5493
▁interp	-5494
▁powers	-5495
▁proced	-5496
▁sister	-5497
▁underw	-5498
▁valley	-5499
▁worker	-5500
▁chances	-5501
▁convers	-5502
▁rallies	-5503
▁ranking	-5504
▁reading	-5505
▁reforms	-5506
▁studies	-5507
▁tourist	-5508
▁welcome	-5509
▁islamist	-5510
▁publicly	-5511
▁shopping	-5512
▁traveled	-5513
▁unveiled	-5514
▁bilateral	-5515
▁disappear	-5516
▁emissions	-5517
▁madeleine	-5518
▁triggered	-5519
▁violation	-5520
▁complained	-5521
▁enforcement	-5522
▁established	-5523
▁professional	-5524
▁southeastern	-5525
dc	-5526
enn	-5527
oen	-5528
see	-5529
▁pu	-5530
ctic	-5531
ghai	-5532
life	-5533
outs	-5534
▁bob	-5535
▁cry	-5536
▁gap	-5537
▁lah	-5538
▁sha	-5539
▁spy	-5540
acity	-5541
inals	-5542
osure	-5543
stein	-5544
▁aren	-5545
▁barb	-5546
▁copy	-5547
▁dict	-5548
▁drag	-5549
▁ease	-5550
▁sust	-5551
ivered	-5552
olitan	-5553
▁glass	-5554
▁knows	-5555
▁macau	-5556
▁overt	-5557
▁solar	-5558
▁fallen	-5559
▁gallon	-5560
▁morgan	-5561
▁potter	-5562
▁presum	-5563
▁shared	-5564
▁videos	-5565
▁dismant	-5566
▁emerged	-5567
▁secular	-5568
▁strateg	-5569
▁teacher	-5570
▁accompan	-5571
▁challeng	-5572
▁confront	-5573
▁formally	-5574
▁location	-5575
▁numerous	-5576
▁recorded	-5577
▁shanghai	-5578
▁vacation	-5579
▁effective	-5580
▁engineers	-5581
▁illegally	-5582
▁peacekeep	-5583
▁astronauts	-5584
▁deployment	-5585
▁introduced	-5586
▁superdeleg	-5587
▁restaurants	-5588
▁conservation	-5589
▁demonstration	-5590
▁manufacturing	-5591
ato	-5592
daq	-5593
jad	-5594
ram	-5595
unk	-5596
▁ox	-5597
cher	-5598
irai	-5599
look	-5600
orse	-5601
▁guy	-5602
▁nav	-5603
▁reh	-5604
▁rig	-5605
▁syn	-5606
▁tsv	-5607
agues	-5608
lling	-5609
olute	-5610
ville	-5611
▁cool	-5612
▁edit	-5613
▁emph	-5614
▁gulf	-5615
▁holy	-5616
▁sear	-5617
asters	-5618
▁basra	-5619
▁hawai	-5620
▁loans	-5621
▁lying	-5622
▁manip	-5623
▁prove	-5624
▁reloc	-5625
▁shots	-5626
▁strip	-5627
▁trees	-5628
▁uncon	-5629
▁views	-5630
▁arrive	-5631
▁athens	-5632
▁atmosp	-5633
▁beaten	-5634
▁boeing	-5635
▁driven	-5636
▁escape	-5637
▁faster	-5638
▁jordan	-5639
▁martin	-5640
▁offers	-5641
▁proper	-5642
▁yellow	-5643
▁advance	-5644
▁arsenal	-5645
▁blocked	-5646
▁engaged	-5647
▁plastic	-5648
▁refugee	-5649
▁stories	-5650
▁administ	-5651
▁airports	-5652
▁cultural	-5653
▁favorite	-5654
▁medicine	-5655
▁normally	-5656
▁pregnant	-5657
▁producer	-5658
▁schedule	-5659
▁certainly	-5660
▁concluded	-5661
▁delivered	-5662
▁generation	-5663
▁punishment	-5664
zz	-5665
dro	-5666
kok	-5667
rae	-5668
▁du	-5669
▁ru	-5670
irty	-5671
otic	-5672
ouri	-5673
▁fox	-5674
▁jon	-5675
▁jul	-5676
▁luc	-5677
▁sli	-5678
▁tan	-5679
▁tay	-5680
ledge	-5681
ously	-5682
using	-5683
▁aged	-5684
▁ages	-5685
▁fate	-5686
▁gore	-5687
▁halt	-5688
▁hero	-5689
▁leng	-5690
▁manh	-5691
▁perm	-5692
▁peru	-5693
▁tall	-5694
▁thom	-5695
▁typh	-5696
atican	-5697
rating	-5698
▁antar	-5699
▁delhi	-5700
▁exhib	-5701
▁grave	-5702
▁inaug	-5703
▁paint	-5704
▁photo	-5705
angirai	-5706
initely	-5707
▁begins	-5708
▁cleric	-5709
▁ensure	-5710
▁fierce	-5711
▁floods	-5712
▁orders	-5713
▁adopted	-5714
▁bangkok	-5715
▁closely	-5716
▁consequ	-5717
▁deliber	-5718
▁license	-5719
▁predict	-5720
▁rescued	-5721
▁testing	-5722
▁vatican	-5723
▁warrant	-5724
▁abducted	-5725
▁friendly	-5726
▁strength	-5727
▁stronger	-5728
▁expensive	-5729
▁hampshire	-5730
▁highlight	-5731
▁positions	-5732
▁colleagues	-5733
▁difference	-5734
▁tsvangirai	-5735
▁philippines	-5736
▁participants	-5737
di	-5738
ero	-5739
isf	-5740
▁eb	-5741
▁ta	-5742
airo	-5743
bing	-5744
dict	-5745
ella	-5746
emic	-5747
ovic	-5748
pass	-5749
ques	-5750
rich	-5751
▁eat	-5752
▁kib	-5753
▁mut	-5754
▁pin	-5755
▁sin	-5756
abeth	-5757
eared	-5758
lades	-5759
nesty	-5760
▁acts	-5761
▁crop	-5762
▁epic	-5763
▁iaea	-5764
▁kiss	-5765
▁lind	-5766
▁matt	-5767
▁plat	-5768
▁reun	-5769
▁subs	-5770
▁vari	-5771
▁yous	-5772
inejad	-5773
▁civic	-5774
▁error	-5775
▁gradu	-5776
▁mouth	-5777
▁wheel	-5778
▁castro	-5779
▁circum	-5780
▁daniel	-5781
▁eating	-5782
▁hawaii	-5783
▁pledge	-5784
▁reagan	-5785
▁somali	-5786
▁stands	-5787
▁arrests	-5788
▁charity	-5789
▁cleared	-5790
▁compens	-5791
▁display	-5792
▁fishing	-5793
▁focused	-5794
▁hopeful	-5795
▁jakarta	-5796
▁options	-5797
▁worried	-5798
▁accounts	-5799
▁identity	-5800
▁substant	-5801
▁teachers	-5802
▁attending	-5803
▁referring	-5804
▁economists	-5805
▁ahmadinejad	-5806
▁immigration	-5807
▁communication	-5808
▁representative	-5809
da	-5810
ek	-5811
aka	-5812
arr	-5813
don	-5814
ean	-5815
eed	-5816
rad	-5817
uls	-5818
uni	-5819
▁ms	-5820
adel	-5821
chan	-5822
ilit	-5823
omes	-5824
▁ank	-5825
▁cig	-5826
▁gib	-5827
▁hiv	-5828
▁mun	-5829
▁rio	-5830
inted	-5831
raeus	-5832
▁bell	-5833
▁busy	-5834
▁debt	-5835
▁hang	-5836
▁link	-5837
▁mate	-5838
▁prol	-5839
▁sets	-5840
▁sole	-5841
▁tack	-5842
▁vast	-5843
▁vent	-5844
encing	-5845
▁bound	-5846
▁fayed	-5847
▁forum	-5848
▁habit	-5849
▁learn	-5850
▁newly	-5851
▁phoen	-5852
▁sarah	-5853
▁shock	-5854
▁shore	-5855
▁shout	-5856
▁broadc	-5857
▁corner	-5858
▁detect	-5859
▁disarm	-5860
▁dubbed	-5861
▁elimin	-5862
▁firing	-5863
▁leaves	-5864
▁mccorm	-5865
▁runway	-5866
▁seemed	-5867
▁shrine	-5868
▁stimul	-5869
▁storms	-5870
▁amnesty	-5871
▁austria	-5872
▁burning	-5873
▁funeral	-5874
▁indiana	-5875
▁kidnapp	-5876
▁roughly	-5877
▁section	-5878
▁sharply	-5879
▁wedding	-5880
▁capacity	-5881
▁findings	-5882
▁homeland	-5883
▁mohammed	-5884
▁outbreak	-5885
▁petraeus	-5886
▁remember	-5887
▁alexander	-5888
▁banglades	-5889
▁benchmark	-5890
▁dominated	-5891
▁incidents	-5892
▁knowledge	-5893
▁presented	-5894
▁successor	-5895
▁villagers	-5896
▁monitoring	-5897
▁originally	-5898
▁communities	-5899
▁individuals	-5900
▁negotiators	-5901
▁investigations	-5902
▁superdelegates	-5903
chi	-5904
ded	-5905
had	-5906
imp	-5907
ios	-5908
▁si	-5909
anes	-5910
cons	-5911
mont	-5912
oria	-5913
utal	-5914
wait	-5915
▁cra	-5916
▁jam	-5917
▁vit	-5918
acing	-5919
attle	-5920
erved	-5921
evich	-5922
iliar	-5923
▁beef	-5924
▁boom	-5925
▁chun	-5926
▁code	-5927
▁duty	-5928
▁emot	-5929
▁hole	-5930
▁knee	-5931
▁migr	-5932
▁scot	-5933
▁summ	-5934
▁tied	-5935
▁tree	-5936
atever	-5937
celona	-5938
ocking	-5939
▁acres	-5940
▁blago	-5941
▁drawn	-5942
▁elder	-5943
▁faith	-5944
▁hamid	-5945
▁osama	-5946
▁roman	-5947
▁sight	-5948
▁spect	-5949
▁toxic	-5950
▁unity	-5951
▁waste	-5952
▁debris	-5953
▁easily	-5954
▁humans	-5955
▁kibaki	-5956
▁memory	-5957
▁multip	-5958
▁nasdaq	-5959
▁option	-5960
▁packed	-5961
▁trucks	-5962
▁achieve	-5963
▁coastal	-5964
▁cyclone	-5965
▁degrees	-5966
▁founded	-5967
▁founder	-5968
▁ireland	-5969
▁phoenix	-5970
▁surface	-5971
▁whaling	-5972
▁accusing	-5973
▁circumst	-5974
▁controls	-5975
▁portugal	-5976
▁unlikely	-5977
▁barcelona	-5978
▁intention	-5979
▁regarding	-5980
▁shootings	-5981
▁presidents	-5982
▁campaigning	-5983
▁participate	-5984
tr	-5985
ads	-5986
has	-5987
ini	-5988
mal	-5989
ori	-5990
enth	-5991
iani	-5992
mand	-5993
▁nik	-5994
▁ski	-5995
every	-5996
night	-5997
orted	-5998
rence	-5999
undai	-6000
▁chap	-6001
▁elev	-6002
▁eliz	-6003
▁farc	-6004
▁lake	-6005
▁liqu	-6006
▁mars	-6007
▁sons	-6008
▁stro	-6009
▁toug	-6010
▁barri	-6011
▁basic	-6012
▁basis	-6013
▁bills	-6014
▁chest	-6015
▁comed	-6016
▁henry	-6017
▁joong	-6018
▁label	-6019
▁quiet	-6020
▁shift	-6021
▁truth	-6022
▁bigger	-6023
▁blasts	-6024
▁counts	-6025
▁except	-6026
▁inquir	-6027
▁intens	-6028
▁listed	-6029
▁michel	-6030
▁observ	-6031
▁remark	-6032
▁scores	-6033
▁stance	-6034
▁topped	-6035
▁unions	-6036
atically	-6037
ropriate	-6038
▁ability	-6039
▁hyundai	-6040
▁illness	-6041
▁letters	-6042
▁meaning	-6043
▁mississ	-6044
▁promise	-6045
▁sailors	-6046
▁separat	-6047
▁somalia	-6048
▁stalled	-6049
▁theater	-6050
▁younger	-6051
▁buddhist	-6052
▁homeless	-6053
▁replaced	-6054
▁surveill	-6055
▁violated	-6056
▁decisions	-6057
▁gathering	-6058
▁sensitive	-6059
▁winehouse	-6060
▁atmosphere	-6061
▁depression	-6062
▁individual	-6063
▁relatively	-6064
▁richardson	-6065
▁venezuelan	-6066
▁administrat	-6067
▁transferred	-6068
▁southwestern	-6069
pa	-6070
efa	-6071
inn	-6072
uma	-6073
won	-6074
▁aw	-6075
▁fi	-6076
▁mr	-6077
atra	-6078
ippi	-6079
when	-6080
wise	-6081
▁aer	-6082
▁coc	-6083
▁rif	-6084
▁wre	-6085
dinga	-6086
ecess	-6087
oster	-6088
owitz	-6089
under	-6090
▁brig	-6091
▁dust	-6092
▁file	-6093
▁harv	-6094
▁uefa	-6095
▁unif	-6096
jevich	-6097
▁amend	-6098
▁camps	-6099
▁crews	-6100
▁deals	-6101
▁globe	-6102
▁hwang	-6103
▁laure	-6104
▁limit	-6105
▁metal	-6106
▁proud	-6107
▁shops	-6108
▁swept	-6109
▁worry	-6110
through	-6111
▁bloody	-6112
▁courts	-6113
▁destin	-6114
▁kuwait	-6115
▁odinga	-6116
▁spoken	-6117
▁string	-6118
▁talked	-6119
▁anticip	-6120
▁backing	-6121
▁borders	-6122
▁divorce	-6123
▁earning	-6124
▁endorse	-6125
▁gambari	-6126
▁maximum	-6127
▁mexican	-6128
▁militia	-6129
▁patrick	-6130
▁restore	-6131
▁returns	-6132
▁sitting	-6133
▁telecom	-6134
▁winners	-6135
▁absolute	-6136
▁briefing	-6137
▁changing	-6138
▁familiar	-6139
▁innocent	-6140
▁passport	-6141
▁supposed	-6142
▁thinking	-6143
▁villages	-6144
▁accidents	-6145
▁contained	-6146
▁elizabeth	-6147
▁prompting	-6148
▁recommend	-6149
▁defendants	-6150
▁indonesian	-6151
▁blagojevich	-6152
▁mississippi	-6153
▁successfully	-6154
▁surveillance	-6155
▁understanding	-6156
exp	-6157
iop	-6158
umi	-6159
gers	-6160
icit	-6161
▁jac	-6162
▁kaz	-6163
▁lew	-6164
▁pap	-6165
▁pav	-6166
▁yen	-6167
attan	-6168
enses	-6169
illed	-6170
ining	-6171
known	-6172
oking	-6173
usion	-6174
verty	-6175
▁appl	-6176
▁bags	-6177
▁bars	-6178
▁chad	-6179
▁empt	-6180
▁huck	-6181
▁lapt	-6182
▁mamm	-6183
▁peak	-6184
▁rudd	-6185
▁ryan	-6186
▁sche	-6187
▁tend	-6188
▁uses	-6189
ichuan	-6190
rupted	-6191
▁alban	-6192
▁false	-6193
▁kevin	-6194
▁moves	-6195
▁oblig	-6196
▁orbit	-6197
▁petro	-6198
▁pilgr	-6199
▁raids	-6200
▁remov	-6201
▁solid	-6202
▁sweep	-6203
▁urban	-6204
ossible	-6205
▁argued	-6206
▁chosen	-6207
▁denies	-6208
▁feared	-6209
▁height	-6210
▁lahore	-6211
▁length	-6212
▁metrop	-6213
▁miners	-6214
▁nature	-6215
▁runoff	-6216
▁temple	-6217
▁volcan	-6218
▁awarded	-6219
▁digital	-6220
▁edition	-6221
▁explain	-6222
▁fortune	-6223
▁hitting	-6224
▁monitor	-6225
▁pleaded	-6226
▁poverty	-6227
▁rapidly	-6228
▁referen	-6229
▁survive	-6230
▁typhoon	-6231
▁battling	-6232
▁contrast	-6233
▁directed	-6234
▁mainland	-6235
▁scotland	-6236
▁senators	-6237
▁troubled	-6238
▁economist	-6239
▁mccormack	-6240
▁nominated	-6241
▁suspicion	-6242
▁bangladesh	-6243
▁conducting	-6244
▁accusations	-6245
▁corporation	-6246
▁destruction	-6247
▁disappeared	-6248
▁experienced	-6249
▁unification	-6250
▁broadcasting	-6251
▁disappointed	-6252
bl	-6253
vi	-6254
alf	-6255
bod	-6256
ola	-6257
oth	-6258
oto	-6259
▁dv	-6260
anch	-6261
anke	-6262
kets	-6263
olis	-6264
rell	-6265
rong	-6266
zech	-6267
▁alt	-6268
▁ess	-6269
▁hid	-6270
▁pad	-6271
▁sor	-6272
▁sri	-6273
icial	-6274
ighth	-6275
ipped	-6276
▁boss	-6277
▁foss	-6278
▁impe	-6279
▁lank	-6280
▁loan	-6281
▁mall	-6282
▁ramp	-6283
▁riot	-6284
▁shah	-6285
▁soil	-6286
▁sony	-6287
▁sort	-6288
▁stan	-6289
▁toil	-6290
▁wear	-6291
▁yuan	-6292
▁abort	-6293
▁cargo	-6294
▁czech	-6295
▁euros	-6296
▁firms	-6297
▁multi	-6298
▁nowak	-6299
▁postp	-6300
▁posts	-6301
vereign	-6302
▁agents	-6303
▁airbus	-6304
▁artist	-6305
▁brutal	-6306
▁coffee	-6307
▁dinner	-6308
▁donald	-6309
▁enrich	-6310
▁examin	-6311
▁guests	-6312
▁missed	-6313
▁native	-6314
▁paying	-6315
▁regret	-6316
▁shield	-6317
▁staged	-6318
▁strain	-6319
▁whales	-6320
▁window	-6321
▁concent	-6322
▁dealing	-6323
▁forcing	-6324
▁intense	-6325
▁praised	-6326
▁sharing	-6327
▁striker	-6328
▁trigger	-6329
▁verdict	-6330
▁writers	-6331
▁advanced	-6332
▁athletes	-6333
▁gonzales	-6334
▁quarterf	-6335
▁recalled	-6336
▁stressed	-6337
▁struggle	-6338
▁watchdog	-6339
▁whatever	-6340
▁wildlife	-6341
▁complaint	-6342
▁deadliest	-6343
▁generally	-6344
▁louisiana	-6345
▁manhattan	-6346
▁recognize	-6347
▁reduction	-6348
▁sovereign	-6349
▁televised	-6350
▁initiative	-6351
▁responding	-6352
▁settlement	-6353
▁alternative	-6354
▁circumstances	-6355
agn	-6356
dum	-6357
ikh	-6358
vey	-6359
▁nd	-6360
▁pm	-6361
▁rd	-6362
▁uh	-6363
▁yi	-6364
ache	-6365
achi	-6366
izes	-6367
ourt	-6368
phia	-6369
rete	-6370
will	-6371
▁bes	-6372
▁orc	-6373
▁tel	-6374
▁yel	-6375
bacco	-6376
dogan	-6377
imony	-6378
print	-6379
umbai	-6380
▁beer	-6381
▁cafe	-6382
▁dick	-6383
▁giul	-6384
▁glac	-6385
▁gren	-6386
▁inch	-6387
▁leak	-6388
▁nick	-6389
▁ride	-6390
▁tiny	-6391
▁anton	-6392
▁apply	-6393
▁cable	-6394
▁davis	-6395
▁frust	-6396
▁galax	-6397
▁grown	-6398
▁kerry	-6399
▁liter	-6400
▁moder	-6401
▁stern	-6402
▁whale	-6403
▁acting	-6404
▁bitter	-6405
▁depend	-6406
▁endors	-6407
▁golden	-6408
▁handle	-6409
▁joseph	-6410
▁motion	-6411
▁mumbai	-6412
▁notice	-6413
▁ousted	-6414
▁runner	-6415
▁strict	-6416
▁wounds	-6417
adelphia	-6418
ulations	-6419
▁amounts	-6420
▁arrange	-6421
▁beating	-6422
▁benefit	-6423
▁erdogan	-6424
▁hunting	-6425
▁mistake	-6426
▁operate	-6427
▁revenue	-6428
▁robbery	-6429
▁ronaldo	-6430
▁tobacco	-6431
▁turnout	-6432
▁uniform	-6433
▁unknown	-6434
▁viewers	-6435
▁virtual	-6436
▁worries	-6437
▁columbia	-6438
▁detected	-6439
▁dramatic	-6440
▁giuliani	-6441
▁improved	-6442
▁midnight	-6443
▁networks	-6444
▁obtained	-6445
▁provides	-6446
▁striking	-6447
▁alongside	-6448
▁celebrity	-6449
▁direction	-6450
▁increases	-6451
▁interests	-6452
▁otherwise	-6453
▁projected	-6454
▁stability	-6455
▁temporary	-6456
▁assessment	-6457
▁attempting	-6458
▁checkpoint	-6459
▁classified	-6460
▁impossible	-6461
▁referendum	-6462
▁engineering	-6463
▁negotiating	-6464
▁investigated	-6465
▁philadelphia	-6466
ju	-6467
sa	-6468
asc	-6469
how	-6470
pan	-6471
rie	-6472
roc	-6473
abee	-6474
aint	-6475
ocol	-6476
olen	-6477
otti	-6478
▁egg	-6479
▁era	-6480
▁gor	-6481
▁hij	-6482
▁lux	-6483
▁mit	-6484
▁pip	-6485
▁sir	-6486
▁yes	-6487
uting	-6488
▁bath	-6489
▁calc	-6490
▁carl	-6491
▁chen	-6492
▁fern	-6493
▁gard	-6494
▁hack	-6495
▁outl	-6496
▁wors	-6497
ancing	-6498
tering	-6499
▁advoc	-6500
▁bened	-6501
▁bones	-6502
▁doors	-6503
▁heath	-6504
▁hills	-6505
▁links	-6506
▁loved	-6507
▁loyal	-6508
▁nancy	-6509
▁smugg	-6510
▁swiss	-6511
▁teens	-6512
▁wreck	-6513
attered	-6514
▁bright	-6515
▁cambod	-6516
▁carter	-6517
▁copies	-6518
▁emphas	-6519
▁factor	-6520
▁fields	-6521
▁finger	-6522
▁jewish	-6523
▁nether	-6524
▁poland	-6525
▁steven	-6526
▁twenty	-6527
▁unrest	-6528
ologists	-6529
▁carrier	-6530
▁caution	-6531
▁citizen	-6532
▁devices	-6533
▁prepare	-6534
▁privacy	-6535
▁spotted	-6536
▁unusual	-6537
▁arriving	-6538
▁category	-6539
▁delegate	-6540
▁distance	-6541
▁handling	-6542
▁huckabee	-6543
▁imprison	-6544
▁mortgage	-6545
▁multiple	-6546
▁payments	-6547
▁referred	-6548
▁requires	-6549
▁searched	-6550
▁thousand	-6551
▁boyfriend	-6552
▁detainees	-6553
▁locations	-6554
▁pollution	-6555
▁sentiment	-6556
▁shortages	-6557
▁structure	-6558
▁testimony	-6559
▁wolfowitz	-6560
▁collection	-6561
▁scientific	-6562
▁appointment	-6563
▁netherlands	-6564
▁breakthrough	-6565
▁northeastern	-6566
▁overwhelming	-6567
gl	-6568
ua	-6569
bor	-6570
bow	-6571
idi	-6572
ids	-6573
ila	-6574
lah	-6575
oli	-6576
oms	-6577
▁ug	-6578
enna	-6579
irac	-6580
tsin	-6581
▁bor	-6582
▁ecu	-6583
▁joe	-6584
▁obv	-6585
▁unh	-6586
▁unn	-6587
board	-6588
leans	-6589
▁blan	-6590
▁brad	-6591
▁cham	-6592
▁imag	-6593
▁kent	-6594
▁kick	-6595
▁lift	-6596
▁outs	-6597
▁rang	-6598
▁sees	-6599
▁stun	-6600
▁todd	-6601
▁blaze	-6602
▁burst	-6603
▁cards	-6604
▁drama	-6605
▁fleet	-6606
▁lobby	-6607
▁novel	-6608
▁phill	-6609
▁risen	-6610
▁schol	-6611
▁scott	-6612
▁slump	-6613
▁theft	-6614
▁timet	-6615
▁trick	-6616
▁upset	-6617
▁vital	-6618
ography	-6619
uration	-6620
▁centre	-6621
▁chiefs	-6622
▁conver	-6623
▁deeply	-6624
▁eighth	-6625
▁master	-6626
▁mccann	-6627
▁mechan	-6628
▁merkel	-6629
▁motors	-6630
▁oldest	-6631
▁prepar	-6632
▁superv	-6633
▁switch	-6634
▁tennes	-6635
▁thirds	-6636
▁thomas	-6637
▁aftersh	-6638
▁becomes	-6639
▁briefly	-6640
▁cameras	-6641
▁capable	-6642
▁capture	-6643
▁conclus	-6644
▁correct	-6645
▁dealers	-6646
▁marines	-6647
▁orleans	-6648
▁outcome	-6649
▁passing	-6650
▁rebuild	-6651
▁shelter	-6652
▁tension	-6653
ciliation	-6654
▁appealed	-6655
▁baseball	-6656
▁concrete	-6657
▁defended	-6658
▁employee	-6659
▁executed	-6660
▁features	-6661
▁injuring	-6662
▁mohammad	-6663
▁prospect	-6664
▁stimulus	-6665
▁attorneys	-6666
▁contracts	-6667
▁promoting	-6668
▁receiving	-6669
▁approached	-6670
▁complaints	-6671
▁containing	-6672
▁popularity	-6673
▁disarmament	-6674
▁electronics	-6675
▁photographs	-6676
▁potentially	-6677
▁metropolitan	-6678
,'	-6679
oe	-6680
ti	-6681
yc	-6682
met	-6683
rit	-6684
zed	-6685
▁,"	-6686
▁ay	-6687
▁pp	-6688
ahar	-6689
aire	-6690
aman	-6691
chen	-6692
cker	-6693
gans	-6694
kins	-6695
roit	-6696
▁emp	-6697
▁fta	-6698
▁sac	-6699
space	-6700
state	-6701
water	-6702
▁belg	-6703
▁bowl	-6704
▁core	-6705
▁iron	-6706
▁porn	-6707
▁rank	-6708
▁roof	-6709
▁vacc	-6710
lahoma	-6711
ration	-6712
▁capit	-6713
▁drink	-6714
▁feels	-6715
▁gross	-6716
▁harsh	-6717
▁keeps	-6718
▁latin	-6719
▁mixed	-6720
▁persu	-6721
▁plays	-6722
▁polar	-6723
▁saved	-6724
▁turns	-6725
▁units	-6726
▁weigh	-6727
▁woods	-6728
angered	-6729
▁advent	-6730
▁ahmadi	-6731
▁attrib	-6732
▁breath	-6733
▁darwin	-6734
▁excess	-6735
▁extend	-6736
▁hijack	-6737
▁integr	-6738
▁interf	-6739
▁kansas	-6740
▁makers	-6741
▁murray	-6742
▁pieces	-6743
▁prohib	-6744
▁promot	-6745
▁rivers	-6746
▁rumors	-6747
▁stolen	-6748
▁strand	-6749
▁thinks	-6750
▁warren	-6751
▁airways	-6752
▁barbara	-6753
▁barrels	-6754
▁battles	-6755
▁clothes	-6756
▁compete	-6757
▁detroit	-6758
▁ecuador	-6759
▁factory	-6760
▁fernand	-6761
▁machine	-6762
▁orchest	-6763
▁profits	-6764
▁samples	-6765
▁sichuan	-6766
▁stephen	-6767
▁suspend	-6768
▁trained	-6769
▁yeltsin	-6770
▁astronom	-6771
▁bankrupt	-6772
▁colorado	-6773
▁deterior	-6774
▁egyptian	-6775
▁function	-6776
▁indicate	-6777
▁oklahoma	-6778
▁priority	-6779
▁purchase	-6780
▁purposes	-6781
▁studying	-6782
▁swimming	-6783
▁daughters	-6784
▁defending	-6785
▁departure	-6786
▁improving	-6787
▁negotiate	-6788
▁performed	-6789
▁tennessee	-6790
▁statistics	-6791
▁agriculture	-6792
ema	-6793
iel	-6794
isa	-6795
iya	-6796
san	-6797
uez	-6798
▁dy	-6799
amas	-6800
elly	-6801
oons	-6802
roll	-6803
some	-6804
▁asp	-6805
▁bea	-6806
▁cos	-6807
▁fel	-6808
▁fit	-6809
▁jav	-6810
▁lyn	-6811
▁tie	-6812
▁unp	-6813
▁yem	-6814
erves	-6815
essed	-6816
ledon	-6817
ushed	-6818
▁anal	-6819
▁anch	-6820
▁aung	-6821
▁chip	-6822
▁dean	-6823
▁guer	-6824
▁jint	-6825
▁katr	-6826
▁khal	-6827
▁murd	-6828
▁pose	-6829
▁wimb	-6830
▁wish	-6831
acters	-6832
ansion	-6833
ashing	-6834
dering	-6835
▁coinc	-6836
▁cuban	-6837
▁legit	-6838
▁write	-6839
achment	-6840
oration	-6841
▁advice	-6842
▁apprec	-6843
▁bullet	-6844
▁chirac	-6845
▁consec	-6846
▁ethiop	-6847
▁impose	-6848
▁infant	-6849
▁legend	-6850
▁romney	-6851
▁slaves	-6852
▁specif	-6853
▁starts	-6854
▁stayed	-6855
▁suburb	-6856
▁tackle	-6857
▁tunnel	-6858
▁wouldn	-6859
standing	-6860
▁capitol	-6861
▁ceremon	-6862
▁congrat	-6863
▁exactly	-6864
▁inquiry	-6865
▁monthly	-6866
▁pointed	-6867
▁ranging	-6868
▁rebound	-6869
▁slipped	-6870
▁benedict	-6871
▁disputed	-6872
▁endorsed	-6873
▁isolated	-6874
▁landmark	-6875
▁ordinary	-6876
▁sexually	-6877
identified	-6878
▁abandoned	-6879
▁displaced	-6880
▁elsewhere	-6881
▁everybody	-6882
▁explosive	-6883
▁guarantee	-6884
▁nationals	-6885
▁protected	-6886
▁sectarian	-6887
▁sustained	-6888
▁timetable	-6889
▁violating	-6890
▁wimbledon	-6891
▁characters	-6892
▁discussion	-6893
▁endangered	-6894
▁spacecraft	-6895
▁ultimately	-6896
▁broadcaster	-6897
▁proceedings	-6898
▁compensation	-6899
▁significantly	-6900
dy	-6901
eb	-6902
ka	-6903
cho	-6904
erb	-6905
ias	-6906
osi	-6907
pet	-6908
sey	-6909
▁kl	-6910
apes	-6911
ario	-6912
bell	-6913
gent	-6914
hips	-6915
iece	-6916
indi	-6917
moil	-6918
uese	-6919
▁ads	-6920
▁ark	-6921
▁hud	-6922
▁ioc	-6923
▁mud	-6924
▁sci	-6925
▁slo	-6926
▁woo	-6927
aters	-6928
chers	-6929
child	-6930
ching	-6931
ddick	-6932
maker	-6933
place	-6934
ptive	-6935
rahim	-6936
utive	-6937
▁blew	-6938
▁burn	-6939
▁clar	-6940
▁entr	-6941
▁kand	-6942
▁laid	-6943
▁tiss	-6944
▁unac	-6945
apolis	-6946
consin	-6947
ducing	-6948
▁branc	-6949
▁breed	-6950
▁cheap	-6951
▁consc	-6952
▁disag	-6953
▁entry	-6954
▁forec	-6955
▁laugh	-6956
▁libya	-6957
▁opens	-6958
▁posed	-6959
▁stuff	-6960
▁yemen	-6961
▁accuse	-6962
▁bacter	-6963
▁client	-6964
▁easier	-6965
▁jintao	-6966
▁limits	-6967
▁mental	-6968
▁myster	-6969
▁peters	-6970
▁rodrig	-6971
▁rubble	-6972
▁shinzo	-6973
▁stalin	-6974
▁traged	-6975
▁checked	-6976
▁clashed	-6977
▁cloning	-6978
▁consist	-6979
▁constit	-6980
▁customs	-6981
▁disable	-6982
▁excited	-6983
▁granted	-6984
▁katrina	-6985
▁masters	-6986
▁purpose	-6987
▁resumed	-6988
▁roddick	-6989
▁teenage	-6990
▁tickets	-6991
▁torture	-6992
▁transpl	-6993
▁turmoil	-6994
▁variety	-6995
▁vermont	-6996
▁vessels	-6997
▁crossing	-6998
▁describe	-6999
▁diplomat	-7000
▁diseases	-7001
▁israelis	-7002
▁kandahar	-7003
▁momentum	-7004
▁pilgrims	-7005
▁selected	-7006
▁standoff	-7007
▁teenager	-7008
▁throwing	-7009
▁wireless	-7010
▁withdrew	-7011
▁addressed	-7012
▁attacking	-7013
▁centuries	-7014
▁construct	-7015
▁encourage	-7016
▁indicates	-7017
▁mountains	-7018
▁regularly	-7019
▁spiritual	-7020
▁spreading	-7021
▁surprised	-7022
▁wisconsin	-7023
▁authorized	-7024
▁employment	-7025
▁insurgency	-7026
▁portuguese	-7027
▁protesting	-7028
▁volunteers	-7029
▁advertising	-7030
▁consecutive	-7031
▁legislative	-7032
▁presumptive	-7033
▁institutions	-7034
▁unidentified	-7035
tt	-7036
zi	-7037
bul	-7038
iti	-7039
now	-7040
▁ft	-7041
aste	-7042
born	-7043
oren	-7044
shot	-7045
ysis	-7046
▁cla	-7047
▁dad	-7048
▁inh	-7049
▁jol	-7050
▁mog	-7051
▁moh	-7052
▁mrs	-7053
▁nut	-7054
▁pit	-7055
▁ppp	-7056
▁tum	-7057
▁vig	-7058
burgh	-7059
gment	-7060
mates	-7061
ulner	-7062
▁barr	-7063
▁caps	-7064
▁chol	-7065
▁diet	-7066
▁golf	-7067
▁hell	-7068
▁hugo	-7069
▁legs	-7070
▁mete	-7071
▁nuri	-7072
▁pron	-7073
▁scar	-7074
▁tamp	-7075
▁tent	-7076
▁touc	-7077
▁unre	-7078
▁zero	-7079
people	-7080
weight	-7081
▁chaos	-7082
▁chong	-7083
▁chose	-7084
▁chris	-7085
▁cleve	-7086
▁crops	-7087
▁decre	-7088
▁embry	-7089
▁empty	-7090
▁greek	-7091
▁lanka	-7092
▁parks	-7093
▁paulo	-7094
▁rains	-7095
▁robot	-7096
▁semif	-7097
▁solve	-7098
▁sweet	-7099
▁thank	-7100
▁bodygu	-7101
▁charts	-7102
▁conven	-7103
▁delays	-7104
▁forget	-7105
▁hudson	-7106
▁insist	-7107
▁pelosi	-7108
▁reiter	-7109
▁rushed	-7110
▁safely	-7111
▁salmon	-7112
▁satisf	-7113
▁shaped	-7114
▁stable	-7115
▁therap	-7116
▁values	-7117
▁antonio	-7118
▁balance	-7119
▁carries	-7120
▁comprom	-7121
▁exposed	-7122
▁flooded	-7123
▁futures	-7124
▁jobless	-7125
▁karachi	-7126
▁legally	-7127
▁longest	-7128
▁mohamed	-7129
▁musical	-7130
▁nigeria	-7131
▁parking	-7132
▁pending	-7133
▁pleased	-7134
▁plunged	-7135
▁seventh	-7136
▁soaring	-7137
▁earnings	-7138
▁existing	-7139
▁indicted	-7140
▁interrog	-7141
▁resulted	-7142
▁suddenly	-7143
▁airstrike	-7144
▁brazilian	-7145
▁denounced	-7146
▁efficient	-7147
▁expecting	-7148
▁followers	-7149
▁releasing	-7150
▁aggressive	-7151
▁background	-7152
▁explosions	-7153
▁federation	-7154
▁greenhouse	-7155
▁interviews	-7156
▁personally	-7157
▁violations	-7158
▁temporarily	-7159
▁underground	-7160
▁consequences	-7161
▁championships	-7162
▁reconciliation	-7163
gi	-7164
sl	-7165
wr	-7166
xi	-7167
akh	-7168
iat	-7169
iox	-7170
ira	-7171
ito	-7172
osa	-7173
por	-7174
tes	-7175
▁na	-7176
cape	-7177
fast	-7178
held	-7179
irut	-7180
mond	-7181
onic	-7182
onom	-7183
rast	-7184
sell	-7185
vili	-7186
wind	-7187
▁ded	-7188
▁dol	-7189
▁dop	-7190
▁gro	-7191
▁hin	-7192
▁hou	-7193
▁lit	-7194
▁raj	-7195
▁sav	-7196
▁ske	-7197
apova	-7198
escop	-7199
onium	-7200
sfeld	-7201
uster	-7202
▁dall	-7203
▁flat	-7204
▁opec	-7205
▁pich	-7206
▁pool	-7207
▁pros	-7208
▁stir	-7209
▁whit	-7210
makers	-7211
▁acted	-7212
▁ambul	-7213
▁badly	-7214
▁buses	-7215
▁chain	-7216
▁eleph	-7217
▁fever	-7218
▁flags	-7219
▁flown	-7220
▁intel	-7221
▁medal	-7222
▁meter	-7223
▁moore	-7224
▁mosul	-7225
▁print	-7226
▁retal	-7227
▁thick	-7228
▁tiger	-7229
▁trips	-7230
iveness	-7231
▁arabic	-7232
▁archae	-7233
▁assert	-7234
▁beirut	-7235
▁distur	-7236
▁divers	-7237
▁extrad	-7238
▁hailed	-7239
▁listen	-7240
▁meteor	-7241
▁orange	-7242
▁prefer	-7243
▁thirty	-7244
▁vision	-7245
idelines	-7246
▁autonom	-7247
▁battery	-7248
▁beneath	-7249
▁cigaret	-7250
▁classes	-7251
▁cocaine	-7252
▁elderly	-7253
▁element	-7254
▁grounds	-7255
▁houston	-7256
▁overtur	-7257
▁polling	-7258
▁renewed	-7259
▁tornado	-7260
▁tougher	-7261
▁tragedy	-7262
▁welfare	-7263
▁brothers	-7264
▁clothing	-7265
▁commerce	-7266
▁dictator	-7267
▁discover	-7268
▁instruct	-7269
▁missouri	-7270
▁platform	-7271
▁telescop	-7272
▁wreckage	-7273
▁attracted	-7274
▁contacted	-7275
▁denuclear	-7276
▁execution	-7277
▁fundament	-7278
▁offenders	-7279
▁postponed	-7280
▁rodriguez	-7281
▁scientist	-7282
▁sharapova	-7283
▁submitted	-7284
▁technical	-7285
▁announcing	-7286
▁challenges	-7287
▁enrichment	-7288
▁extremists	-7289
▁interested	-7290
▁occupation	-7291
▁prevention	-7292
▁strengthen	-7293
▁suggesting	-7294
▁recommended	-7295
▁representing	-7296
zh	-7297
ela	-7298
hdi	-7299
run	-7300
tan	-7301
▁gy	-7302
hand	-7303
iful	-7304
lick	-7305
lock	-7306
omen	-7307
onda	-7308
teen	-7309
with	-7310
yala	-7311
ylum	-7312
▁dak	-7313
▁dry	-7314
▁fuj	-7315
▁rah	-7316
▁rot	-7317
antic	-7318
berto	-7319
igned	-7320
ooter	-7321
▁alan	-7322
▁cave	-7323
▁hide	-7324
▁kash	-7325
▁kitt	-7326
▁omar	-7327
▁pard	-7328
▁puts	-7329
▁rand	-7330
▁shif	-7331
▁urge	-7332
▁ward	-7333
▁wore	-7334
▁aside	-7335
▁aware	-7336
▁charl	-7337
▁clash	-7338
▁crown	-7339
▁frame	-7340
▁grass	-7341
▁jihad	-7342
▁larry	-7343
▁meets	-7344
▁mehdi	-7345
▁motiv	-7346
▁pitch	-7347
▁relax	-7348
▁repro	-7349
▁steep	-7350
▁terri	-7351
▁timor	-7352
aughter	-7353
▁asylum	-7354
▁cheong	-7355
▁elabor	-7356
▁galaxy	-7357
▁hearts	-7358
▁oppose	-7359
▁pilots	-7360
▁pursue	-7361
▁rafael	-7362
▁reward	-7363
▁signal	-7364
▁stabil	-7365
▁symbol	-7366
▁syrian	-7367
▁abandon	-7368
▁condemn	-7369
▁crowded	-7370
▁declare	-7371
▁explore	-7372
▁fleeing	-7373
▁ibrahim	-7374
▁infrast	-7375
▁minimum	-7376
▁moments	-7377
▁pulling	-7378
▁signing	-7379
▁switzer	-7380
▁underst	-7381
▁veteran	-7382
▁attitude	-7383
▁centered	-7384
▁exposure	-7385
▁missions	-7386
▁occasion	-7387
▁resolved	-7388
▁rumsfeld	-7389
▁ballistic	-7390
▁composite	-7391
▁landslide	-7392
▁launching	-7393
▁producers	-7394
▁residence	-7395
▁transform	-7396
▁typically	-7397
▁absolutely	-7398
▁frequently	-7399
▁kidnappers	-7400
▁recognized	-7401
▁suspension	-7402
▁devastating	-7403
▁sovereignty	-7404
▁switzerland	-7405
▁trafficking	-7406
▁conversation	-7407
▁investigator	-7408
▁disappearance	-7409
▁manufacturers	-7410
▁revolutionary	-7411
jo	-7412
ala	-7413
cat	-7414
eav	-7415
ezz	-7416
few	-7417
hem	-7418
phy	-7419
yah	-7420
bour	-7421
eneg	-7422
inth	-7423
raid	-7424
star	-7425
▁bae	-7426
▁hee	-7427
▁jur	-7428
▁nov	-7429
▁rav	-7430
▁tar	-7431
emies	-7432
igers	-7433
olved	-7434
owing	-7435
regon	-7436
▁adds	-7437
▁arth	-7438
▁barg	-7439
▁deny	-7440
▁earn	-7441
▁ebay	-7442
▁excl	-7443
▁fame	-7444
▁fert	-7445
▁forb	-7446
▁fred	-7447
▁jets	-7448
▁mide	-7449
▁palm	-7450
▁plea	-7451
▁plum	-7452
▁plut	-7453
▁sang	-7454
▁yard	-7455
atched	-7456
preced	-7457
umbled	-7458
▁canal	-7459
▁cloud	-7460
▁conce	-7461
▁crist	-7462
▁disab	-7463
▁diver	-7464
▁explo	-7465
▁fined	-7466
▁kyodo	-7467
▁lewis	-7468
▁lists	-7469
▁maria	-7470
▁monet	-7471
▁rawal	-7472
▁risks	-7473
▁rocks	-7474
▁shape	-7475
▁shark	-7476
▁shirt	-7477
▁stamp	-7478
▁swift	-7479
▁usual	-7480
▁volat	-7481
▁waves	-7482
▁abuses	-7483
▁beauty	-7484
▁belief	-7485
▁downlo	-7486
▁editor	-7487
▁embezz	-7488
▁endeav	-7489
▁freeze	-7490
▁kenyan	-7491
▁laptop	-7492
▁lasted	-7493
▁miller	-7494
▁oregon	-7495
▁panama	-7496
▁slated	-7497
▁stages	-7498
▁steady	-7499
▁surren	-7500
▁titles	-7501
▁viewed	-7502
▁vulner	-7503
ceptable	-7504
▁appeals	-7505
▁bottles	-7506
▁closest	-7507
▁crossed	-7508
▁disrupt	-7509
▁dressed	-7510
▁epicent	-7511
▁knocked	-7512
▁marched	-7513
▁matters	-7514
▁mideast	-7515
▁pressed	-7516
▁totally	-7517
▁atlantis	-7518
▁combined	-7519
▁discount	-7520
▁informed	-7521
▁interpol	-7522
▁interven	-7523
▁mounting	-7524
▁petition	-7525
▁shutdown	-7526
▁stepping	-7527
▁unfortun	-7528
▁cleveland	-7529
▁declaring	-7530
▁economies	-7531
▁expansion	-7532
▁happening	-7533
▁insurgent	-7534
▁malaysian	-7535
▁plutonium	-7536
▁predecess	-7537
▁retailers	-7538
▁teenagers	-7539
▁uncertain	-7540
▁virtually	-7541
precedented	-7542
▁airstrikes	-7543
▁conviction	-7544
▁discussing	-7545
▁immigrants	-7546
▁laboratory	-7547
▁maintained	-7548
▁permission	-7549
▁politician	-7550
▁represents	-7551
▁separatist	-7552
▁distributed	-7553
▁replacement	-7554
▁confrontation	-7555
▁photographers	-7556
▁administrative	-7557
▁infrastructure	-7558
ui	-7559
eon	-7560
ima	-7561
iot	-7562
mor	-7563
pay	-7564
▁sg	-7565
acle	-7566
awaz	-7567
heim	-7568
inho	-7569
inos	-7570
keys	-7571
mese	-7572
uous	-7573
▁dan	-7574
▁dur	-7575
▁gye	-7576
▁lag	-7577
▁lev	-7578
▁sab	-7579
▁sao	-7580
▁tas	-7581
▁zaw	-7582
angel	-7583
eland	-7584
eline	-7585
icked	-7586
pindi	-7587
these	-7588
usive	-7589
▁brow	-7590
▁dawn	-7591
▁diox	-7592
▁eggs	-7593
▁jews	-7594
▁kath	-7595
▁lies	-7596
▁mans	-7597
▁meat	-7598
▁obst	-7599
▁spur	-7600
▁zard	-7601
aching	-7602
arrass	-7603
awatra	-7604
teroid	-7605
▁antib	-7606
▁bears	-7607
▁bruni	-7608
▁chase	-7609
▁craig	-7610
▁diagn	-7611
▁naval	-7612
▁riots	-7613
▁spill	-7614
▁tears	-7615
▁unexp	-7616
▁vigil	-7617
umbling	-7618
▁consol	-7619
▁defect	-7620
▁diyala	-7621
▁hiding	-7622
▁implic	-7623
▁infect	-7624
▁massac	-7625
▁nobody	-7626
▁proved	-7627
▁raided	-7628
▁reluct	-7629
▁reveal	-7630
▁taylor	-7631
▁theory	-7632
▁tissue	-7633
▁traded	-7634
▁transl	-7635
▁unfair	-7636
▁vienna	-7637
▁warner	-7638
▁yangon	-7639
ordinary	-7640
▁absence	-7641
▁blasted	-7642
▁burmese	-7643
▁concept	-7644
▁deficit	-7645
▁dioxide	-7646
▁drawing	-7647
▁enemies	-7648
▁feature	-7649
▁greeted	-7650
▁habitat	-7651
▁methods	-7652
▁revised	-7653
▁secured	-7654
▁smashed	-7655
▁vitamin	-7656
▁volcano	-7657
▁zardari	-7658
▁abortion	-7659
▁asteroid	-7660
▁billions	-7661
▁campbell	-7662
▁collabor	-7663
▁contains	-7664
▁deciding	-7665
▁disputes	-7666
▁frontier	-7667
▁greatest	-7668
▁michelle	-7669
▁midfield	-7670
▁reducing	-7671
▁register	-7672
▁supports	-7673
▁surveyed	-7674
▁appearing	-7675
▁automaker	-7676
▁celebrate	-7677
▁cooperate	-7678
▁embarrass	-7679
▁factories	-7680
▁policeman	-7681
▁promising	-7682
▁publicist	-7683
▁reviewing	-7684
▁stationed	-7685
▁testified	-7686
▁uncovered	-7687
▁attributed	-7688
▁bankruptcy	-7689
▁experiment	-7690
▁indication	-7691
▁inspection	-7692
▁philippine	-7693
▁rawalpindi	-7694
▁shinawatra	-7695
▁unexpected	-7696
▁accompanied	-7697
▁astronomers	-7698
▁celebrities	-7699
▁interviewed	-7700
▁respondents	-7701
▁inauguration	-7702
▁northwestern	-7703
▁conservatives	-7704
ji	-7705
uz	-7706
amo	-7707
ius	-7708
quo	-7709
rah	-7710
uda	-7711
▁ja	-7712
▁zh	-7713
abet	-7714
aved	-7715
ials	-7716
ican	-7717
lers	-7718
onia	-7719
onna	-7720
uman	-7721
▁amy	-7722
▁fda	-7723
▁gig	-7724
▁ing	-7725
▁jin	-7726
▁keb	-7727
▁les	-7728
▁mdc	-7729
▁ray	-7730
▁tam	-7731
▁tip	-7732
ensus	-7733
izumi	-7734
rimin	-7735
▁anth	-7736
▁emir	-7737
▁eval	-7738
▁fake	-7739
▁flee	-7740
▁glob	-7741
▁grap	-7742
▁grav	-7743
▁gray	-7744
▁hybr	-7745
▁kate	-7746
▁roma	-7747
▁sett	-7748
▁soph	-7749
▁span	-7750
▁tool	-7751
▁unsu	-7752
▁yoon	-7753
attled	-7754
estone	-7755
igible	-7756
iliate	-7757
inding	-7758
keeper	-7759
person	-7760
ushkin	-7761
▁alger	-7762
▁annan	-7763
▁bruce	-7764
▁celeb	-7765
▁clock	-7766
▁dying	-7767
▁falls	-7768
▁flash	-7769
▁imper	-7770
▁kelly	-7771
▁kyoto	-7772
▁lined	-7773
▁nawaz	-7774
▁roger	-7775
▁scrap	-7776
▁shoes	-7777
▁shook	-7778
▁theme	-7779
▁trend	-7780
▁walls	-7781
▁zawah	-7782
▁allied	-7783
▁andrew	-7784
▁barred	-7785
▁behalf	-7786
▁checks	-7787
▁comedy	-7788
▁conced	-7789
▁curfew	-7790
▁finals	-7791
▁graham	-7792
▁gyeong	-7793
▁harder	-7794
▁hosted	-7795
▁intent	-7796
▁plenty	-7797
▁retire	-7798
▁revive	-7799
▁rulers	-7800
▁sealed	-7801
▁sweden	-7802
▁taxpay	-7803
▁tigers	-7804
▁toyota	-7805
▁waited	-7806
children	-7807
▁crocker	-7808
▁everest	-7809
▁fighter	-7810
▁happens	-7811
▁insists	-7812
▁interim	-7813
▁joining	-7814
▁koizumi	-7815
▁mercury	-7816
▁monarch	-7817
▁outrage	-7818
▁prosper	-7819
▁prostit	-7820
▁reconst	-7821
▁rehabil	-7822
▁scoring	-7823
▁shouldn	-7824
▁slammed	-7825
▁studios	-7826
▁thanked	-7827
▁bacteria	-7828
▁chancell	-7829
▁competit	-7830
▁covering	-7831
▁customer	-7832
▁formerly	-7833
▁frequent	-7834
▁kentucky	-7835
▁overcome	-7836
▁slowdown	-7837
▁sponsors	-7838
▁stranded	-7839
▁terminal	-7840
▁collected	-7841
▁epicenter	-7842
▁extensive	-7843
▁pregnancy	-7844
▁resulting	-7845
▁sentences	-7846
▁socialist	-7847
▁technolog	-7848
▁underwent	-7849
▁unsuccess	-7850
▁withdrawn	-7851
▁ceremonies	-7852
▁christians	-7853
▁commanders	-7854
▁critically	-7855
▁elementary	-7856
▁evacuation	-7857
▁everywhere	-7858
▁executions	-7859
▁historical	-7860
▁importance	-7861
▁indicating	-7862
▁optimistic	-7863
▁pichushkin	-7864
▁reiterated	-7865
▁securities	-7866
▁separately	-7867
▁suspicious	-7868
▁concessions	-7869
▁effectively	-7870
▁forecasters	-7871
▁politically	-7872
▁universities	-7873
▁correspondents	-7874
ca	-7875
dp	-7876
fk	-7877
ox	-7878
tv	-7879
abs	-7880
esh	-7881
kei	-7882
udh	-7883
una	-7884
yes	-7885
acks	-7886
away	-7887
cont	-7888
icef	-7889
ongh	-7890
ooth	-7891
ores	-7892
quba	-7893
rain	-7894
wers	-7895
▁cul	-7896
▁dim	-7897
▁dor	-7898
▁gut	-7899
▁hos	-7900
▁ibm	-7901
▁lod	-7902
▁map	-7903
▁mol	-7904
▁naz	-7905
▁oxy	-7906
▁seg	-7907
aimed	-7908
akash	-7909
anamo	-7910
aware	-7911
esong	-7912
etown	-7913
fires	-7914
ocide	-7915
right	-7916
ulous	-7917
▁chat	-7918
▁fulf	-7919
▁gear	-7920
▁hits	-7921
▁loud	-7922
▁mats	-7923
▁mood	-7924
▁nice	-7925
▁reop	-7926
▁sequ	-7927
▁twel	-7928
iciary	-7929
lusive	-7930
strong	-7931
▁aired	-7932
▁audio	-7933
▁bases	-7934
▁beaut	-7935
▁casey	-7936
▁dates	-7937
▁flame	-7938
▁guant	-7939
▁marry	-7940
▁moroc	-7941
▁outdo	-7942
▁pages	-7943
▁patri	-7944
▁pitts	-7945
▁prest	-7946
▁puert	-7947
▁raped	-7948
▁sworn	-7949
▁tools	-7950
▁veget	-7951
▁weren	-7952
holders	-7953
ulating	-7954
▁afraid	-7955
▁amazon	-7956
▁ankara	-7957
▁baquba	-7958
▁blacks	-7959
▁danish	-7960
▁denver	-7961
▁disord	-7962
▁myself	-7963
▁openly	-7964
▁output	-7965
▁partly	-7966
▁powell	-7967
▁rarely	-7968
▁revers	-7969
▁scenes	-7970
▁skills	-7971
▁submit	-7972
▁unders	-7973
▁unicef	-7974
▁writer	-7975
▁approve	-7976
▁broader	-7977
▁colored	-7978
▁coordin	-7979
▁dragged	-7980
▁enterpr	-7981
▁fossett	-7982
▁genetic	-7983
▁harvard	-7984
▁honored	-7985
▁kaesong	-7986
▁lending	-7987
▁madonna	-7988
▁passion	-7989
▁picking	-7990
▁posting	-7991
▁seattle	-7992
▁shooter	-7993
▁surveys	-7994
▁testify	-7995
▁touched	-7996
▁traders	-7997
▁achieved	-7998
▁aviation	-7999
▁branches	-8000
▁colonial	-8001
▁creation	-8002
▁detailed	-8003
▁entirely	-8004
▁evacuate	-8005
▁featured	-8006
▁freezing	-8007
▁heathrow	-8008
▁mistakes	-8009
▁moderate	-8010
▁monetary	-8011
▁pressing	-8012
▁sessions	-8013
▁superior	-8014
▁volatile	-8015
▁yourself	-8016
▁apologize	-8017
▁campaigns	-8018
▁criminals	-8019
▁evolution	-8020
▁extension	-8021
▁judiciary	-8022
▁mandatory	-8023
▁probation	-8024
▁prominent	-8025
▁proposals	-8026
▁recording	-8027
▁separated	-8028
▁strongest	-8029
▁surrender	-8030
▁taiwanese	-8031
▁telescope	-8032
▁undermine	-8033
▁wildfires	-8034
▁automakers	-8035
▁chancellor	-8036
▁compromise	-8037
▁guantanamo	-8038
▁principles	-8039
▁protecting	-8040
▁resistance	-8041
▁anticipated	-8042
▁appearances	-8043
▁appropriate	-8044
▁investments	-8045
▁nominations	-8046
▁represented	-8047
▁confirmation	-8048
▁peacekeeping	-8049
▁specifically	-8050
▁unprecedented	-8051
bu	-8052
aws	-8053
fir	-8054
fit	-8055
lls	-8056
put	-8057
▁wy	-8058
▁zo	-8059
anim	-8060
care	-8061
lson	-8062
ords	-8063
oric	-8064
uten	-8065
▁dvd	-8066
▁fol	-8067
▁gad	-8068
▁gus	-8069
▁hut	-8070
▁jae	-8071
▁jay	-8072
▁kum	-8073
▁lav	-8074
▁sgt	-8075
▁sym	-8076
▁yas	-8077
▁zap	-8078
abama	-8079
etime	-8080
front	-8081
iated	-8082
itage	-8083
liner	-8084
rooms	-8085
vedev	-8086
▁aven	-8087
▁blog	-8088
▁cats	-8089
▁curb	-8090
▁dign	-8091
▁exha	-8092
▁fant	-8093
▁gest	-8094
▁lean	-8095
▁ling	-8096
▁mice	-8097
▁neut	-8098
▁pand	-8099
▁rays	-8100
▁seas	-8101
▁wart	-8102
airobi	-8103
icated	-8104
omberg	-8105
parent	-8106
tanbul	-8107
▁brook	-8108
▁clubs	-8109
▁craft	-8110
▁cyber	-8111
▁discl	-8112
▁elite	-8113
▁exped	-8114
▁hired	-8115
▁incor	-8116
▁jerry	-8117
▁minds	-8118
▁minus	-8119
▁ninth	-8120
▁phase	-8121
▁samar	-8122
▁seeks	-8123
▁songs	-8124
▁tower	-8125
▁truce	-8126
▁types	-8127
actions	-8128
▁autops	-8129
▁ballot	-8130
▁blocks	-8131
▁boycot	-8132
▁commem	-8133
▁compar	-8134
▁dakota	-8135
▁dallas	-8136
▁dating	-8137
▁encoun	-8138
▁exceed	-8139
▁gender	-8140
▁incurs	-8141
▁insult	-8142
▁locals	-8143
▁manila	-8144
▁marath	-8145
▁nikkei	-8146
▁oxygen	-8147
▁rooney	-8148
▁scheme	-8149
▁serves	-8150
▁stroke	-8151
▁tanker	-8152
▁toilet	-8153
▁tribun	-8154
▁unique	-8155
▁visits	-8156
▁wilson	-8157
▁wright	-8158
▁abusing	-8159
▁alabama	-8160
▁climbed	-8161
▁enjoyed	-8162
▁factors	-8163
▁gunfire	-8164
▁gunshot	-8165
▁hanging	-8166
▁helmand	-8167
▁hosting	-8168
▁intends	-8169
▁marking	-8170
▁myspace	-8171
▁nairobi	-8172
▁portion	-8173
▁publish	-8174
▁rowling	-8175
▁saakash	-8176
▁sevilla	-8177
▁shocked	-8178
▁stewart	-8179
▁unnamed	-8180
▁wrapped	-8181
ibilities	-8182
▁analysis	-8183
▁attached	-8184
▁contamin	-8185
▁defeated	-8186
▁emirates	-8187
▁expanded	-8188
▁generals	-8189
▁graduate	-8190
▁heritage	-8191
▁hometown	-8192
▁istanbul	-8193
▁johnston	-8194
▁learning	-8195
▁managers	-8196
▁medvedev	-8197
▁minority	-8198
▁predomin	-8199
▁reflects	-8200
▁severely	-8201
▁shoulder	-8202
▁sweeping	-8203
▁warrants	-8204
▁affiliate	-8205
▁afterward	-8206
▁ambitions	-8207
▁antarctic	-8208
▁argentine	-8209
▁bloomberg	-8210
▁competing	-8211
▁connected	-8212
▁elaborate	-8213
▁financing	-8214
▁infection	-8215
▁installed	-8216
▁intercept	-8217
▁penalties	-8218
▁primarily	-8219
▁purchased	-8220
▁reclusive	-8221
▁selection	-8222
▁celebrated	-8223
▁definitely	-8224
▁designated	-8225
▁geological	-8226
▁industries	-8227
▁midfielder	-8228
▁pittsburgh	-8229
▁pronounced	-8230
▁recovering	-8231
▁relocation	-8232
▁specialist	-8233
▁citizenship	-8234
▁documentary	-8235
▁fundamental	-8236
▁saakashvili	-8237
▁substantial	-8238
▁agricultural	-8239
▁technologies	-8240
▁unacceptable	-8241
▁extraordinary	-8242
▁opportunities	-8243
▁participating	-8244
po	-8245
abi	-8246
agu	-8247
ibe	-8248
mir	-8249
ois	-8250
oys	-8251
ums	-8252
▁ni	-8253
▁om	-8254
▁wu	-8255
argo	-8256
atri	-8257
awed	-8258
bean	-8259
cars	-8260
cles	-8261
hone	-8262
icut	-8263
imps	-8264
ishu	-8265
lete	-8266
mate	-8267
offs	-8268
oles	-8269
onto	-8270
rist	-8271
warz	-8272
▁dun	-8273
▁haz	-8274
▁hip	-8275
▁lun	-8276
▁pod	-8277
▁rog	-8278
▁tae	-8279
▁usa	-8280
eller	-8281
icken	-8282
ingly	-8283
isons	-8284
lying	-8285
▁amin	-8286
▁audi	-8287
▁bart	-8288
▁bold	-8289
▁cann	-8290
▁cert	-8291
▁cler	-8292
▁craw	-8293
▁croc	-8294
▁dana	-8295
▁dorm	-8296
▁embr	-8297
▁estr	-8298
▁gate	-8299
▁gram	-8300
▁horm	-8301
▁marg	-8302
▁maur	-8303
▁nebr	-8304
▁nurs	-8305
▁pear	-8306
▁rans	-8307
▁rash	-8308
▁reid	-8309
▁rush	-8310
▁shed	-8311
▁slim	-8312
▁synd	-8313
▁ther	-8314
▁user	-8315
▁webs	-8316
arotti	-8317
bourne	-8318
closed	-8319
elling	-8320
essing	-8321
intend	-8322
reness	-8323
teries	-8324
▁ahmed	-8325
▁burns	-8326
▁clark	-8327
▁drunk	-8328
▁fines	-8329
▁foods	-8330
▁fujim	-8331
▁gangs	-8332
▁haiti	-8333
▁henin	-8334
▁horri	-8335
▁indef	-8336
▁maine	-8337
▁mines	-8338
▁naked	-8339
▁notes	-8340
▁pants	-8341
▁pharm	-8342
▁raquo	-8343
▁relig	-8344
▁reput	-8345
▁squee	-8346
▁stops	-8347
▁tablo	-8348
▁teeth	-8349
▁terry	-8350
▁tours	-8351
▁venue	-8352
▁yards	-8353
inction	-8354
onghold	-8355
▁affili	-8356
▁bolton	-8357
▁burial	-8358
▁carlos	-8359
▁doping	-8360
▁edward	-8361
▁garden	-8362
▁hubble	-8363
▁incred	-8364
▁indeed	-8365
▁kidney	-8366
▁liquid	-8367
▁luxury	-8368
▁murphy	-8369
▁physic	-8370
▁piracy	-8371
▁propag	-8372
▁retrie	-8373
▁rounds	-8374
▁saving	-8375
▁sensit	-8376
▁suffer	-8377
▁trails	-8378
▁twelve	-8379
▁chapter	-8380
▁charism	-8381
▁damages	-8382
▁doubled	-8383
▁exhibit	-8384
▁handing	-8385
▁inquest	-8386
▁objects	-8387
▁outlook	-8388
▁planets	-8389
▁quoting	-8390
▁railway	-8391
▁rallied	-8392
▁refusal	-8393
▁runners	-8394
▁schwarz	-8395
▁serbian	-8396
▁shouted	-8397
▁signals	-8398
▁singing	-8399
▁stretch	-8400
▁visible	-8401
▁anderson	-8402
▁argument	-8403
▁broadway	-8404
▁checking	-8405
▁counties	-8406
▁elements	-8407
▁entrance	-8408
▁judicial	-8409
▁massacre	-8410
▁measured	-8411
▁nebraska	-8412
▁operated	-8413
▁opponent	-8414
▁outgoing	-8415
▁russians	-8416
▁shipping	-8417
▁youngest	-8418
▁zawahiri	-8419
▁abduction	-8420
▁adventure	-8421
▁attackers	-8422
▁awareness	-8423
▁cautioned	-8424
▁considers	-8425
▁discrimin	-8426
▁disrupted	-8427
▁fortified	-8428
▁ourselves	-8429
▁principle	-8430
▁privately	-8431
▁procedure	-8432
▁contenders	-8433
▁goalkeeper	-8434
▁photograph	-8435
▁professors	-8436
▁remarkable	-8437
▁satellites	-8438
▁stronghold	-8439
▁vulnerable	-8440
▁comfortable	-8441
▁connecticut	-8442
▁consumption	-8443
▁impeachment	-8444
▁legislature	-8445
▁demonstrated	-8446
▁manipulation	-8447
▁rehabilitation	-8448
ja	-8449
iev	-8450
kir	-8451
net	-8452
onn	-8453
rav	-8454
rez	-8455
zer	-8456
▁hs	-8457
▁ye	-8458
adic	-8459
agic	-8460
aken	-8461
appy	-8462
bons	-8463
case	-8464
ette	-8465
frey	-8466
hasa	-8467
iffe	-8468
lose	-8469
prom	-8470
rate	-8471
tada	-8472
them	-8473
▁fee	-8474
▁hog	-8475
▁kir	-8476
▁len	-8477
▁pig	-8478
▁roy	-8479
▁sul	-8480
▁ted	-8481
▁tra	-8482
▁upd	-8483
armed	-8484
celer	-8485
eless	-8486
iders	-8487
inced	-8488
munic	-8489
▁abol	-8490
▁bare	-8491
▁caut	-8492
▁clay	-8493
▁fare	-8494
▁flex	-8495
▁forg	-8496
▁frag	-8497
▁guys	-8498
▁hend	-8499
▁ivan	-8500
▁kerv	-8501
▁krem	-8502
▁lots	-8503
▁noon	-8504
▁owns	-8505
▁salv	-8506
▁slip	-8507
▁ster	-8508
▁sung	-8509
▁tact	-8510
▁tale	-8511
▁topp	-8512
▁unch	-8513
▁utah	-8514
active	-8515
adishu	-8516
antile	-8517
father	-8518
ompson	-8519
ouring	-8520
planes	-8521
rillas	-8522
rising	-8523
stream	-8524
▁argue	-8525
▁bever	-8526
▁bonds	-8527
▁boxes	-8528
▁brick	-8529
▁carib	-8530
▁dated	-8531
▁guang	-8532
▁helps	-8533
▁jewel	-8534
▁joins	-8535
▁lynch	-8536
▁memor	-8537
▁oprah	-8538
▁proof	-8539
▁simon	-8540
▁skept	-8541
▁stall	-8542
▁sympt	-8543
▁uncom	-8544
▁wales	-8545
▁wider	-8546
ancourt	-8547
enegger	-8548
ressive	-8549
vention	-8550
▁angela	-8551
▁arctic	-8552
▁buyers	-8553
▁caucus	-8554
▁clinic	-8555
▁crocod	-8556
▁exiled	-8557
▁explan	-8558
▁greens	-8559
▁honest	-8560
▁jungle	-8561
▁killer	-8562
▁locked	-8563
▁merger	-8564
▁mining	-8565
▁perino	-8566
▁philip	-8567
▁repair	-8568
▁resemb	-8569
▁routes	-8570
▁sharks	-8571
▁stones	-8572
▁thrill	-8573
▁thrown	-8574
▁tracks	-8575
▁unanim	-8576
▁volunt	-8577
▁youths	-8578
▁advised	-8579
▁bahamas	-8580
▁ballots	-8581
▁counted	-8582
▁engines	-8583
▁ignored	-8584
▁kerviel	-8585
▁kremlin	-8586
▁leftist	-8587
▁lengthy	-8588
▁passage	-8589
▁pursued	-8590
▁sectors	-8591
▁tribute	-8592
▁wartime	-8593
▁winfrey	-8594
▁adoption	-8595
▁attacker	-8596
▁belonged	-8597
▁constant	-8598
▁dropping	-8599
▁eligible	-8600
▁employed	-8601
▁engineer	-8602
▁expelled	-8603
▁focusing	-8604
▁genocide	-8605
▁imminent	-8606
▁inspired	-8607
▁marathon	-8608
▁monitors	-8609
▁nominees	-8610
▁operator	-8611
▁patience	-8612
▁prisoner	-8613
▁pursuing	-8614
▁quarters	-8615
▁releases	-8616
▁requests	-8617
▁restored	-8618
▁sciences	-8619
▁somebody	-8620
▁thompson	-8621
▁tribunal	-8622
▁veterans	-8623
▁admission	-8624
▁amendment	-8625
▁beautiful	-8626
▁convinced	-8627
▁counterfe	-8628
▁diplomacy	-8629
▁donations	-8630
▁emotional	-8631
▁fishermen	-8632
▁landscape	-8633
▁mogadishu	-8634
▁paintings	-8635
▁pavarotti	-8636
▁promotion	-8637
▁protested	-8638
▁reference	-8639
▁substance	-8640
▁technique	-8641
▁universal	-8642
▁betancourt	-8643
▁conclusion	-8644
▁contribute	-8645
▁fatalities	-8646
▁guerrillas	-8647
▁laundering	-8648
▁medication	-8649
▁mercantile	-8650
▁procedures	-8651
▁undergoing	-8652
▁dismantling	-8653
▁institution	-8654
▁outstanding	-8655
▁residential	-8656
▁temperature	-8657
▁territories	-8658
▁applications	-8659
▁assassinated	-8660
▁distribution	-8661
▁peacekeepers	-8662
▁preparations	-8663
▁registration	-8664
▁schwarzenegger	-8665
din	-8666
fun	-8667
hus	-8668
iko	-8669
▁ga	-8670
▁kc	-8671
asts	-8672
droe	-8673
isen	-8674
iser	-8675
mail	-8676
math	-8677
oner	-8678
ouch	-8679
oult	-8680
rome	-8681
shad	-8682
umph	-8683
▁afp	-8684
▁aig	-8685
▁bra	-8686
▁liv	-8687
▁mbc	-8688
▁nam	-8689
▁nap	-8690
▁nba	-8691
▁ori	-8692
▁ros	-8693
▁rud	-8694
▁rug	-8695
▁tag	-8696
▁wip	-8697
▁yoo	-8698
▁zar	-8699
after	-8700
aniya	-8701
ctica	-8702
isive	-8703
kirts	-8704
prime	-8705
rical	-8706
world	-8707
▁aims	-8708
▁auth	-8709
▁aziz	-8710
▁bone	-8711
▁brib	-8712
▁bull	-8713
▁eric	-8714
▁fees	-8715
▁idol	-8716
▁indo	-8717
▁jama	-8718
▁marc	-8719
▁medi	-8720
▁mere	-8721
▁shia	-8722
▁stab	-8723
▁thor	-8724
▁tips	-8725
giving	-8726
iments	-8727
itious	-8728
mother	-8729
nesota	-8730
ormous	-8731
▁assum	-8732
▁corre	-8733
▁dolph	-8734
▁donor	-8735
▁forth	-8736
▁grant	-8737
▁holes	-8738
▁intim	-8739
▁lunch	-8740
▁moral	-8741
▁pleas	-8742
▁races	-8743
▁radar	-8744
▁relie	-8745
▁rosen	-8746
▁singh	-8747
▁sorry	-8748
▁spani	-8749
▁stead	-8750
▁tampa	-8751
▁wazir	-8752
▁widow	-8753
▁yield	-8754
iciency	-8755
regular	-8756
▁anthem	-8757
▁archit	-8758
▁bombed	-8759
▁borrow	-8760
▁comply	-8761
▁diabet	-8762
▁exclud	-8763
▁foster	-8764
▁funded	-8765
▁hinted	-8766
▁hybrid	-8767
▁incent	-8768
▁instru	-8769
▁madoff	-8770
▁nelson	-8771
▁noting	-8772
▁oscars	-8773
▁overth	-8774
▁provoc	-8775
▁ransom	-8776
▁riding	-8777
▁sheikh	-8778
▁shirts	-8779
▁surged	-8780
▁tennis	-8781
▁uganda	-8782
▁urgent	-8783
▁afghans	-8784
▁artists	-8785
▁autopsy	-8786
▁chamber	-8787
▁courage	-8788
▁denmark	-8789
▁evangel	-8790
▁extinct	-8791
▁fastest	-8792
▁filming	-8793
▁handful	-8794
▁hardest	-8795
▁hostile	-8796
▁impover	-8797
▁instant	-8798
▁neutral	-8799
▁payment	-8800
▁prolong	-8801
▁ratings	-8802
▁recruit	-8803
▁subsequ	-8804
▁toronto	-8805
▁tripoli	-8806
▁triumph	-8807
▁undergo	-8808
▁vaccine	-8809
▁activist	-8810
▁arranged	-8811
▁barriers	-8812
▁bathroom	-8813
▁cambodia	-8814
▁commemor	-8815
▁concerts	-8816
▁consolid	-8817
▁disagree	-8818
▁elevator	-8819
▁fujimori	-8820
▁glaciers	-8821
▁incoming	-8822
▁involves	-8823
▁longtime	-8824
▁margaret	-8825
▁mourning	-8826
▁occupied	-8827
▁opposite	-8828
▁properly	-8829
▁realized	-8830
▁regarded	-8831
▁religion	-8832
▁shortage	-8833
▁stopping	-8834
▁survival	-8835
▁victoria	-8836
▁aftermath	-8837
▁breakfast	-8838
▁caribbean	-8839
▁consensus	-8840
▁endeavour	-8841
▁excessive	-8842
▁generated	-8843
▁incursion	-8844
▁marketing	-8845
▁minnesota	-8846
▁outskirts	-8847
▁prevented	-8848
▁smuggling	-8849
▁sponsored	-8850
▁therefore	-8851
▁antarctica	-8852
▁dissidents	-8853
▁households	-8854
▁landslides	-8855
▁overturned	-8856
▁reputation	-8857
▁salmonella	-8858
▁surprising	-8859
▁billionaire	-8860
▁complicated	-8861
▁obligations	-8862
▁predecessor	-8863
▁prestigious	-8864
▁sensitivity	-8865
▁impoverished	-8866
▁performances	-8867
▁photographer	-8868
▁prostitution	-8869
▁respectively	-8870
▁shareholders	-8871
▁predominantly	-8872
▁reconstruction	-8873
adi	-8874
aze	-8875
eer	-8876
ico	-8877
ils	-8878
mao	-8879
ope	-8880
umn	-8881
urn	-8882
weg	-8883
zes	-8884
▁bm	-8885
▁cm	-8886
▁mi	-8887
▁oz	-8888
▁ry	-8889
acas	-8890
araz	-8891
asty	-8892
beat	-8893
hart	-8894
iffs	-8895
iner	-8896
itis	-8897
leum	-8898
long	-8899
mans	-8900
nold	-8901
odes	-8902
opez	-8903
orta	-8904
ospi	-8905
spec	-8906
▁agg	-8907
▁alf	-8908
▁cac	-8909
▁cdc	-8910
▁mao	-8911
▁nan	-8912
▁por	-8913
▁soo	-8914
▁unw	-8915
▁wol	-8916
allah	-8917
erald	-8918
grade	-8919
ighed	-8920
jiang	-8921
oured	-8922
storm	-8923
▁andy	-8924
▁brid	-8925
▁chan	-8926
▁dies	-8927
▁drow	-8928
▁duck	-8929
▁epis	-8930
▁fifa	-8931
▁fisc	-8932
▁ftse	-8933
▁hike	-8934
▁jane	-8935
▁java	-8936
▁leon	-8937
▁limb	-8938
▁okin	-8939
▁pill	-8940
▁pure	-8941
▁qari	-8942
▁scan	-8943
▁scor	-8944
▁scul	-8945
▁seal	-8946
▁snap	-8947
▁sued	-8948
▁symp	-8949
▁thus	-8950
▁toss	-8951
▁tren	-8952
▁warn	-8953
acular	-8954
americ	-8955
icipal	-8956
icking	-8957
iotics	-8958
rehens	-8959
▁ammun	-8960
▁aquar	-8961
▁audit	-8962
▁defin	-8963
▁depos	-8964
▁depth	-8965
▁fifty	-8966
▁forms	-8967
▁gases	-8968
▁genes	-8969
▁guess	-8970
▁guest	-8971
▁hosts	-8972
▁ivory	-8973
▁kospi	-8974
▁lance	-8975
▁levin	-8976
▁lopez	-8977
▁lungs	-8978
▁paral	-8979
▁param	-8980
▁ramos	-8981
▁reass	-8982
▁recyc	-8983
▁remem	-8984
▁swine	-8985
▁toler	-8986
▁tries	-8987
▁valid	-8988
▁actors	-8989
▁actual	-8990
▁adjust	-8991
▁anchor	-8992
▁branch	-8993
▁burden	-8994
▁compon	-8995
▁crater	-8996
▁destro	-8997
▁donors	-8998
▁giants	-8999
▁gotten	-9000
▁guided	-9001
▁gusmao	-9002
▁hidden	-9003
▁hitler	-9004
▁invent	-9005
▁knight	-9006
▁models	-9007
▁organs	-9008
▁passes	-9009
▁pepper	-9010
▁preced	-9011
▁random	-9012
▁scramb	-9013
▁silver	-9014
▁strang	-9015
▁studio	-9016
▁versus	-9017
▁videot	-9018
cription	-9019
ilateral	-9020
▁acceler	-9021
▁applied	-9022
▁arguing	-9023
▁bedroom	-9024
▁bernard	-9025
▁brigade	-9026
▁cancell	-9027
▁captors	-9028
▁classic	-9029
▁clients	-9030
▁equival	-9031
▁forests	-9032
▁gazprom	-9033
▁hawking	-9034
▁imagine	-9035
▁jacques	-9036
▁laurean	-9037
▁lieuten	-9038
▁montana	-9039
▁motorcy	-9040
▁murders	-9041
▁noticed	-9042
▁offense	-9043
▁paparaz	-9044
▁plummet	-9045
▁realize	-9046
▁rolling	-9047
▁setback	-9048
▁surpass	-9049
▁swedish	-9050
▁aquarium	-9051
▁bernanke	-9052
▁casualty	-9053
▁consumed	-9054
▁diabetes	-9055
▁distress	-9056
▁hearings	-9057
▁imperial	-9058
▁instance	-9059
▁interfax	-9060
▁johndroe	-9061
▁justices	-9062
▁lifetime	-9063
▁lighting	-9064
▁machines	-9065
▁militias	-9066
▁orbiting	-9067
▁pointing	-9068
▁removing	-9069
▁romantic	-9070
▁scandals	-9071
▁shelters	-9072
▁shutting	-9073
▁suburban	-9074
▁sudanese	-9075
▁summoned	-9076
▁symptoms	-9077
▁theaters	-9078
▁arguments	-9079
▁breathing	-9080
▁candidacy	-9081
▁confessed	-9082
▁conscious	-9083
▁describes	-9084
▁ethiopian	-9085
▁featuring	-9086
▁interpret	-9087
▁municipal	-9088
▁orchestra	-9089
▁somewhere	-9090
▁strategic	-9091
▁supporter	-9092
▁accounting	-9093
▁addressing	-9094
▁ammunition	-9095
▁applicants	-9096
▁challenged	-9097
▁dispatched	-9098
▁guarantees	-9099
▁legitimate	-9100
▁restricted	-9101
▁transplant	-9102
▁waziristan	-9103
▁antibiotics	-9104
▁combination	-9105
▁competitive	-9106
▁complaining	-9107
▁contractors	-9108
▁criticizing	-9109
▁destination	-9110
▁endorsement	-9111
▁examination	-9112
▁implemented	-9113
▁personality	-9114
▁retaliation	-9115
▁unsuccessful	-9116
▁interrogation	-9117
ahn	-9118
amy	-9119
asy	-9120
ati	-9121
aza	-9122
bit	-9123
eta	-9124
eva	-9125
jas	-9126
kat	-9127
lan	-9128
lev	-9129
neg	-9130
tic	-9131
▁hi	-9132
▁pf	-9133
ello	-9134
ifer	-9135
just	-9136
lein	-9137
mble	-9138
osex	-9139
phan	-9140
uits	-9141
▁ana	-9142
▁bru	-9143
▁chi	-9144
▁dil	-9145
▁dir	-9146
▁err	-9147
▁gil	-9148
▁imf	-9149
▁jir	-9150
▁kas	-9151
▁oak	-9152
▁qat	-9153
▁tru	-9154
▁vin	-9155
▁yan	-9156
ables	-9157
agger	-9158
anson	-9159
cript	-9160
otive	-9161
qtada	-9162
udhry	-9163
wered	-9164
▁abst	-9165
▁acid	-9166
▁buzz	-9167
▁dann	-9168
▁echo	-9169
▁glas	-9170
▁jank	-9171
▁melt	-9172
▁nerv	-9173
▁orth	-9174
▁peer	-9175
▁pole	-9176
▁poly	-9177
▁publ	-9178
▁qass	-9179
▁rove	-9180
▁shoe	-9181
▁tang	-9182
▁wang	-9183
▁wool	-9184
▁wrap	-9185
forced	-9186
ichiro	-9187
illing	-9188
manuel	-9189
terror	-9190
▁accur	-9191
▁arson	-9192
▁cairo	-9193
▁clues	-9194
▁decor	-9195
▁eager	-9196
▁farms	-9197
▁files	-9198
▁inner	-9199
▁jolie	-9200
▁knife	-9201
▁lakes	-9202
▁lucky	-9203
▁mcdon	-9204
▁meals	-9205
▁ordin	-9206
▁overs	-9207
▁ports	-9208
▁pride	-9209
▁ranks	-9210
▁resur	-9211
▁rhode	-9212
▁rogge	-9213
▁roles	-9214
▁sacri	-9215
▁spots	-9216
▁spray	-9217
▁swing	-9218
▁villa	-9219
▁wayne	-9220
ificial	-9221
▁affair	-9222
▁aiming	-9223
▁behead	-9224
▁breach	-9225
▁clinch	-9226
▁engage	-9227
▁enthus	-9228
▁fabric	-9229
▁geneva	-9230
▁harper	-9231
▁ignore	-9232
▁indict	-9233
▁iphone	-9234
▁kazakh	-9235
▁kidnap	-9236
▁manage	-9237
▁medics	-9238
▁midday	-9239
▁mitche	-9240
▁mortar	-9241
▁muscle	-9242
▁norway	-9243
▁norweg	-9244
▁puerto	-9245
▁respir	-9246
▁slowed	-9247
▁slowly	-9248
▁statue	-9249
▁stream	-9250
▁struct	-9251
▁verify	-9252
▁volume	-9253
▁walter	-9254
ographic	-9255
▁affects	-9256
▁alberto	-9257
▁amazing	-9258
▁barrier	-9259
▁beverly	-9260
▁blanket	-9261
▁boosted	-9262
▁chanted	-9263
▁consent	-9264
▁convict	-9265
▁counsel	-9266
▁dispers	-9267
▁gesture	-9268
▁gravity	-9269
▁indians	-9270
▁inmates	-9271
▁intimid	-9272
▁liberty	-9273
▁lowered	-9274
▁mandate	-9275
▁obvious	-9276
▁okinawa	-9277
▁paulson	-9278
▁rampage	-9279
▁restart	-9280
▁retreat	-9281
▁samarra	-9282
▁silence	-9283
▁studied	-9284
▁substit	-9285
▁thermal	-9286
▁transit	-9287
▁typical	-9288
▁viruses	-9289
▁advisers	-9290
▁animated	-9291
▁anywhere	-9292
▁chaudhry	-9293
▁cheering	-9294
▁coverage	-9295
▁damaging	-9296
▁deadlock	-9297
▁decrease	-9298
▁enormous	-9299
▁facebook	-9300
▁grenades	-9301
▁judgment	-9302
▁managing	-9303
▁persuade	-9304
▁peterson	-9305
▁promises	-9306
▁scholars	-9307
▁subprime	-9308
▁takeover	-9309
▁thorough	-9310
▁watchers	-9311
▁anonymous	-9312
▁courtroom	-9313
▁crocodile	-9314
▁declining	-9315
▁directors	-9316
▁existence	-9317
▁favorable	-9318
▁fernandez	-9319
▁finishing	-9320
▁greenland	-9321
▁intensive	-9322
▁introduce	-9323
▁mentioned	-9324
▁motivated	-9325
▁movements	-9326
▁petroleum	-9327
▁policemen	-9328
▁populated	-9329
▁principal	-9330
▁propelled	-9331
▁qualified	-9332
▁reinforce	-9333
▁threatens	-9334
▁unchanged	-9335
▁agreements	-9336
▁capability	-9337
▁challenger	-9338
▁emphasized	-9339
▁friendship	-9340
▁possession	-9341
▁preventing	-9342
▁propaganda	-9343
▁qualifying	-9344
▁regardless	-9345
▁businessman	-9346
▁contributed	-9347
▁encouraging	-9348
▁prostitutes	-9349
▁statistical	-9350
▁technically	-9351
▁indefinitely	-9352
▁quarterfinal	-9353
▁telecommunic	-9354
▁quarterfinals	-9355
▁strengthening	-9356
▁traditionally	-9357
▁identification	-9358
ci	-9359
oi	-9360
sm	-9361
uo	-9362
"",	-9363
aid	-9364
bil	-9365
bro	-9366
dem	-9367
ext	-9368
hal	-9369
iac	-9370
ien	-9371
mat	-9372
oty	-9373
sur	-9374
▁ax	-9375
▁bn	-9376
▁ww	-9377
▁yu	-9378
abao	-9379
agen	-9380
alay	-9381
arre	-9382
eong	-9383
furt	-9384
heng	-9385
onte	-9386
osis	-9387
pers	-9388
toff	-9389
uded	-9390
▁ell	-9391
▁hay	-9392
▁joy	-9393
▁kph	-9394
▁kyu	-9395
▁mum	-9396
▁nfl	-9397
▁sox	-9398
▁suv	-9399
▁yog	-9400
abani	-9401
acked	-9402
acute	-9403
annes	-9404
atoes	-9405
charg	-9406
cover	-9407
ensed	-9408
iband	-9409
ishop	-9410
lando	-9411
ommod	-9412
peace	-9413
piece	-9414
today	-9415
▁adam	-9416
▁bees	-9417
▁blat	-9418
▁brus	-9419
▁buff	-9420
▁cook	-9421
▁deng	-9422
▁desk	-9423
▁ferg	-9424
▁grim	-9425
▁hind	-9426
▁intr	-9427
▁keen	-9428
▁luck	-9429
▁luis	-9430
▁mild	-9431
▁mini	-9432
▁mong	-9433
▁nose	-9434
▁panc	-9435
▁phen	-9436
▁root	-9437
▁sank	-9438
▁stor	-9439
▁swat	-9440
▁sway	-9441
▁tail	-9442
▁ware	-9443
▁yush	-9444
aution	-9445
heimer	-9446
iatric	-9447
igroup	-9448
ishing	-9449
opular	-9450
umbent	-9451
▁aging	-9452
▁allen	-9453
▁congo	-9454
▁discs	-9455
▁dwind	-9456
▁fault	-9457
▁feder	-9458
▁ferry	-9459
▁fidel	-9460
▁guild	-9461
▁hindu	-9462
▁jirga	-9463
▁kinds	-9464
▁laser	-9465
▁lhasa	-9466
▁libby	-9467
▁magic	-9468
▁marit	-9469
▁marty	-9470
▁merch	-9471
▁mobil	-9472
▁overd	-9473
▁plate	-9474
▁poore	-9475
▁ranch	-9476
▁remin	-9477
▁rifle	-9478
▁safer	-9479
▁serge	-9480
▁sized	-9481
▁skull	-9482
▁starb	-9483
▁stick	-9484
▁tanks	-9485
▁trash	-9486
▁uribe	-9487
▁yanke	-9488
▁zones	-9489
osexual	-9490
▁absent	-9491
▁anyway	-9492
▁approx	-9493
▁banner	-9494
▁basket	-9495
▁bottle	-9496
▁brands	-9497
▁carpet	-9498
▁chocol	-9499
▁cloned	-9500
▁covers	-9501
▁crunch	-9502
▁deeper	-9503
▁dement	-9504
▁drough	-9505
▁duties	-9506
▁empire	-9507
▁fright	-9508
▁garage	-9509
▁grammy	-9510
▁heated	-9511
▁hunger	-9512
▁hunter	-9513
▁infilt	-9514
▁jiabao	-9515
▁kimchi	-9516
▁nicole	-9517
▁overha	-9518
▁prayer	-9519
▁premie	-9520
▁racial	-9521
▁racing	-9522
▁raises	-9523
▁rating	-9524
▁sounds	-9525
▁spaces	-9526
▁stated	-9527
▁tragic	-9528
▁waving	-9529
rendered	-9530
▁angered	-9531
▁anybody	-9532
▁assured	-9533
▁authors	-9534
▁belgium	-9535
▁circuit	-9536
▁closure	-9537
▁conting	-9538
▁fallout	-9539
▁forming	-9540
▁gibbons	-9541
▁grabbed	-9542
▁handled	-9543
▁infring	-9544
▁lifting	-9545
▁organic	-9546
▁orlando	-9547
▁painful	-9548
▁prayers	-9549
▁prisons	-9550
▁purport	-9551
▁reacted	-9552
▁removal	-9553
▁revenge	-9554
▁reverse	-9555
▁richest	-9556
▁russell	-9557
▁stormed	-9558
▁weighed	-9559
annesburg	-9560
rehensive	-9561
▁accommod	-9562
▁actively	-9563
▁arkansas	-9564
▁assigned	-9565
▁battered	-9566
▁captives	-9567
▁climbing	-9568
▁comeback	-9569
▁convince	-9570
▁farewell	-9571
▁holidays	-9572
▁incorpor	-9573
▁mitchell	-9574
▁protocol	-9575
▁reviewed	-9576
▁revision	-9577
▁securing	-9578
▁symbolic	-9579
▁talabani	-9580
▁batteries	-9581
▁captivity	-9582
▁citigroup	-9583
▁continent	-9584
▁economics	-9585
▁extending	-9586
▁framework	-9587
▁incumbent	-9588
▁intensity	-9589
▁kurdistan	-9590
▁radiation	-9591
▁screaming	-9592
▁shipments	-9593
▁victories	-9594
▁automotive	-9595
▁committees	-9596
▁devastated	-9597
▁difficulty	-9598
▁engagement	-9599
▁equivalent	-9600
▁extinction	-9601
▁guidelines	-9602
▁invitation	-9603
▁liberation	-9604
▁peacefully	-9605
▁precaution	-9606
▁sentencing	-9607
▁aftershocks	-9608
▁celebrating	-9609
▁fingerprint	-9610
▁grandfather	-9611
▁grandmother	-9612
▁influential	-9613
▁maintaining	-9614
▁publication	-9615
▁respiratory	-9616
▁spectacular	-9617
▁surrendered	-9618
▁transparent	-9619
▁willingness	-9620
▁embezzlement	-9621
▁johannesburg	-9622
▁manufactured	-9623
▁thanksgiving	-9624
▁consideration	-9625
▁neighborhoods	-9626
▁unfortunately	-9627
▁recommendations	-9628
",	-9629
mn	-9630
bec	-9631
bie	-9632
ibu	-9633
mes	-9634
oda	-9635
ser	-9636
sif	-9637
ttp	-9638
was	-9639
yad	-9640
▁dj	-9641
▁wo	-9642
alez	-9643
ardo	-9644
arge	-9645
cade	-9646
dale	-9647
elro	-9648
illy	-9649
play	-9650
qawi	-9651
rard	-9652
royo	-9653
ught	-9654
uket	-9655
umes	-9656
uson	-9657
yans	-9658
▁alg	-9659
▁alz	-9660
▁bic	-9661
▁bmw	-9662
▁bog	-9663
▁bry	-9664
▁caf	-9665
▁duc	-9666
▁dug	-9667
▁enh	-9668
▁gif	-9669
▁hye	-9670
▁kia	-9671
▁kun	-9672
▁kuz	-9673
▁que	-9674
▁suk	-9675
▁thr	-9676
▁uni	-9677
▁vic	-9678
▁zah	-9679
ascus	-9680
cedes	-9681
earns	-9682
ether	-9683
gging	-9684
iller	-9685
inson	-9686
ounce	-9687
ouses	-9688
shine	-9689
stone	-9690
vinen	-9691
▁bans	-9692
▁belt	-9693
▁bron	-9694
▁cant	-9695
▁cher	-9696
▁chur	-9697
▁cole	-9698
▁cous	-9699
▁curt	-9700
▁dili	-9701
▁drum	-9702
▁epid	-9703
▁ghan	-9704
▁hail	-9705
▁http	-9706
▁jenn	-9707
▁juan	-9708
▁lima	-9709
▁lion	-9710
▁lobb	-9711
▁lock	-9712
▁memo	-9713
▁mitt	-9714
▁oath	-9715
▁odds	-9716
▁olds	-9717
▁pact	-9718
▁pets	-9719
▁pink	-9720
▁pist	-9721
▁reck	-9722
▁seok	-9723
▁tayy	-9724
▁tops	-9725
▁usfk	-9726
ecided	-9727
mental	-9728
oultry	-9729
▁adapt	-9730
▁ankle	-9731
▁asset	-9732
▁baker	-9733
▁brian	-9734
▁chron	-9735
▁croat	-9736
▁cryst	-9737
▁enact	-9738
▁finds	-9739
▁gonna	-9740
▁homic	-9741
▁horta	-9742
▁hydro	-9743
▁irish	-9744
▁jeong	-9745
▁linda	-9746
▁notor	-9747
▁prodi	-9748
▁quant	-9749
▁reign	-9750
▁revel	-9751
▁rings	-9752
▁santi	-9753
▁sheep	-9754
▁sting	-9755
▁taste	-9756
▁tired	-9757
▁torre	-9758
▁tumor	-9759
▁twins	-9760
▁undis	-9761
▁voter	-9762
▁wells	-9763
▁wings	-9764
▁wrest	-9765
esterol	-9766
hetoric	-9767
respons	-9768
station	-9769
uations	-9770
▁arroyo	-9771
▁austin	-9772
▁blames	-9773
▁breaks	-9774
▁brothe	-9775
▁commut	-9776
▁desper	-9777
▁domain	-9778
▁doubts	-9779
▁dumped	-9780
▁extent	-9781
▁fiscal	-9782
▁holder	-9783
▁honors	-9784
▁humili	-9785
▁motive	-9786
▁parker	-9787
▁phuket	-9788
▁please	-9789
▁poison	-9790
▁polish	-9791
▁prolif	-9792
▁richie	-9793
▁rifles	-9794
▁rocked	-9795
▁scared	-9796
▁smooth	-9797
▁soared	-9798
▁subsid	-9799
▁subway	-9800
▁titled	-9801
▁trials	-9802
▁tribes	-9803
▁useful	-9804
▁walker	-9805
▁automob	-9806
▁backers	-9807
▁binding	-9808
▁bullets	-9809
▁caracas	-9810
▁cheaper	-9811
▁creates	-9812
▁credits	-9813
▁fearing	-9814
▁gaining	-9815
▁goldman	-9816
▁iceland	-9817
▁knowing	-9818
▁magistr	-9819
▁nervous	-9820
▁outdoor	-9821
▁poultry	-9822
▁prophet	-9823
▁proport	-9824
▁seasons	-9825
▁secrets	-9826
▁tabloid	-9827
▁website	-9828
▁wrongdo	-9829
▁youssif	-9830
▁zarqawi	-9831
isticated	-9832
▁academic	-9833
▁annually	-9834
▁answered	-9835
▁choosing	-9836
▁christie	-9837
▁contrary	-9838
▁creature	-9839
▁damascus	-9840
▁disorder	-9841
▁dispatch	-9842
▁emerging	-9843
▁ferguson	-9844
▁gonzalez	-9845
▁jankovic	-9846
▁jennifer	-9847
▁levinson	-9848
▁lowering	-9849
▁maritime	-9850
▁meantime	-9851
▁mercedes	-9852
▁miliband	-9853
▁opinions	-9854
▁opposing	-9855
▁sleeping	-9856
▁sometime	-9857
▁textbook	-9858
▁threaten	-9859
▁uprising	-9860
▁weakened	-9861
▁accepting	-9862
▁accounted	-9863
▁alzheimer	-9864
▁ambitious	-9865
▁ambulance	-9866
▁bodyguard	-9867
▁chocolate	-9868
▁cigarette	-9869
▁colleague	-9870
▁confusion	-9871
▁depending	-9872
▁diagnosed	-9873
▁examining	-9874
▁frankfurt	-9875
▁irregular	-9876
▁kilometer	-9877
▁languages	-9878
▁maintains	-9879
▁milestone	-9880
▁paparazzi	-9881
▁premature	-9882
▁purported	-9883
▁semifinal	-9884
▁starbucks	-9885
▁struggled	-9886
▁unpopular	-9887
▁wonderful	-9888
▁accomplish	-9889
▁aftershock	-9890
▁artificial	-9891
▁biological	-9892
▁electrical	-9893
▁healthcare	-9894
▁identities	-9895
▁lieutenant	-9896
▁membership	-9897
▁reductions	-9898
▁regulators	-9899
▁structures	-9900
▁sufficient	-9901
▁challenging	-9902
▁cholesterol	-9903
▁coordinated	-9904
▁earthquakes	-9905
▁extradition	-9906
▁inspections	-9907
▁legislators	-9908
▁mountainous	-9909
▁undisclosed	-9910
▁withdrawing	-9911
▁arrangements	-9912
▁contaminated	-9913
▁governmental	-9914
▁intervention	-9915
▁manufacturer	-9916
▁participated	-9917
▁photographed	-9918
▁comprehensive	-9919
▁proliferation	-9920
▁sophisticated	-9921
fp	-9922
su	-9923
anu	-9924
bee	-9925
chs	-9926
equ	-9927
hev	-9928
iza	-9929
olt	-9930
say	-9931
tra	-9932
vis	-9933
▁bp	-9934
▁jr	-9935
▁mw	-9936
▁nh	-9937
adei	-9938
adow	-9939
amer	-9940
anns	-9941
athy	-9942
club	-9943
fish	-9944
gies	-9945
good	-9946
heit	-9947
heon	-9948
iane	-9949
pher	-9950
sels	-9951
stan	-9952
udes	-9953
vant	-9954
▁asc	-9955
▁avo	-9956
▁ces	-9957
▁clo	-9958
▁fog	-9959
▁fuk	-9960
▁jab	-9961
▁kad	-9962
▁kit	-9963
▁	-9964
e	-9965
a	-9966
t	-9967
i	-9968
n	-9969
o	-9970
s	-9971
r	-9972
h	-9973
d	-9974
l	-9975
c	-9976
u	-9977
m	-9978
p	-9979
f	-9980
g	-9981
w	-9982
y	-9983
b	-9984
,	-9985
v	-9986
k	-9987
'	-9988
"	-9989
j	-9990
x	-9991
z	-9992
q	-9993
