<unk>	0
<pad>	0
<s>	0
</s>	0
<bos>	0
<eos>	0
▁이	-0
했다	-1
▁있	-2
▁대	-3
에서	-4
▁사	-5
▁지	-6
▁그	-7
▁일	-8
▁것	-9
으로	-10
▁전	-11
▁수	-12
▁미	-13
▁가	-14
▁있다	-15
▁아	-16
▁시	-17
▁주	-18
▁한	-19
▁위	-20
▁보	-21
▁경	-22
▁정	-23
▁중	-24
▁말	-25
▁고	-26
▁인	-27
▁명	-28
▁자	-29
▁기	-30
하고	-31
다고	-32
▁부	-33
▁밝	-34
라고	-35
하는	-36
▁의	-37
▁발	-38
▁공	-39
▁년	-40
▁오	-41
▁관	-42
▁국	-43
▁밝혔	-44
들은	-45
들이	-46
▁다	-47
▁유	-48
▁현	-49
▁여	-50
▁밝혔다	-51
▁말했다	-52
▁것이	-53
▁조	-54
▁않	-55
▁미국	-56
니다	-57
▁비	-58
▁상	-59
▁만	-60
▁하	-61
▁나	-62
▁마	-63
▁소	-64
▁제	-65
▁있는	-66
▁연	-67
▁개	-68
통령	-69
▁모	-70
▁세	-71
▁영	-72
▁지난	-73
으며	-74
▁대통령	-75
▁동	-76
었다	-77
▁선	-78
▁월	-79
▁내	-80
에게	-81
▁그는	-82
▁우	-83
▁무	-84
▁해	-85
▁최	-86
▁당	-87
▁후	-88
▁바	-89
▁파	-90
▁방	-91
▁예	-92
▁알	-93
▁스	-94
▁에	-95
▁위해	-96
▁받	-97
▁도	-98
▁결	-99
▁대한	-100
▁북	-101
▁현지	-102
▁총	-103
▁회	-104
▁남	-105
▁이번	-106
습니다	-107
▁없	-108
▁정부	-109
▁구	-110
▁통	-111
▁전했다	-112
▁성	-113
▁차	-114
했다고	-115
지만	-116
▁이라	-117
시간	-118
▁반	-119
이다	-120
▁불	-121
적인	-122
▁신	-123
▁어	-124
▁현지시간	-125
▁노	-126
▁대해	-127
▁달	-128
▁포	-129
▁거	-130
하기	-131
▁장	-132
▁계	-133
▁강	-134
▁또	-135
▁생	-136
▁프	-137
▁실	-138
까지	-139
▁로	-140
들을	-141
▁이라크	-142
리는	-143
▁경찰	-144
▁폭	-145
됐다	-146
▁매	-147
▁"	-148
▁올	-149
▁분	-150
▁명이	-151
▁것으로	-152
▁사람	-153
들의	-154
▁약	-155
▁서	-156
▁감	-157
▁때	-158
▁재	-159
▁것이라고	-160
▁더	-161
▁교	-162
▁피	-163
▁안	-164
▁요	-165
▁중국	-166
▁진	-167
러나	-168
▁있다고	-169
▁문	-170
하지	-171
▁라	-172
▁자신	-173
았다	-174
▁원	-175
▁북한	-176
였다	-177
한다	-178
▁것을	-179
▁그러나	-180
▁사망	-181
▁외	-182
▁입	-183
▁열	-184
▁추	-185
▁며	-186
▁발생	-187
▁주장	-188
▁출	-189
▁한국	-190
적으로	-191
▁호	-192
▁확	-193
▁많	-194
▁는	-195
▁군	-196
부터	-197
에는	-198
▁테	-199
인은	-200
▁카	-201
▁민	-202
▁등	-203
▁명의	-204
▁다른	-205
▁살	-206
▁지역	-207
▁행	-208
▁같	-209
시아	-210
하게	-211
▁영국	-212
▁두	-213
▁관계	-214
▁과	-215
▁예정	-216
▁한편	-217
▁증	-218
▁투	-219
▁발표	-220
▁작	-221
▁'	-222
▁대변	-223
▁리	-224
▁목	-225
사는	-226
▁승	-227
▁배	-228
▁타	-229
▁집	-230
▁단	-231
▁법	-232
▁베	-233
장은	-234
▁설	-235
기를	-236
▁오바	-237
▁오바마	-238
▁되	-239
▁건	-240
리아	-241
▁새	-242
졌다	-243
▁화	-244
들에게	-245
▁문제	-246
▁,	-247
▁이후	-248
▁뉴	-249
▁보도	-250
이라고	-251
에서는	-252
▁처	-253
▁심	-254
▁못	-255
▁후보	-256
▁참	-257
▁판	-258
▁일본	-259
자는	-260
▁달러	-261
▁독	-262
▁할	-263
▁치	-264
▁세계	-265
▁억	-266
▁평	-267
▁버	-268
다는	-269
▁금	-270
▁관련	-271
▁많은	-272
▁앞	-273
▁코	-274
▁병	-275
▁번	-276
▁클	-277
스탄	-278
▁대통령은	-279
▁들	-280
에따	-281
면서	-282
▁적	-283
▁통해	-284
▁언	-285
▁크	-286
하며	-287
리고	-288
▁검	-289
▁부시	-290
▁체	-291
했으며	-292
자가	-293
▁협	-294
▁데	-295
▁레	-296
라는	-297
▁위한	-298
▁벌	-299
▁운	-300
사를	-301
관은	-302
▁가장	-303
▁물	-304
▁국가	-305
▁핵	-306
▁합	-307
▁그의	-308
▁동안	-309
▁것이다	-310
리가	-311
▁테러	-312
▁변	-313
▁필	-314
▁학	-315
▁같은	-316
스는	-317
▁이상	-318
▁사건	-319
▁은	-320
▁시작	-321
▁저	-322
▁산	-323
▁대변인은	-324
스트	-325
▁공격	-326
▁초	-327
된다	-328
▁경제	-329
자들은	-330
▁브	-331
▁항	-332
▁아프	-333
문에	-334
▁영화	-335
▁아이	-336
▁양	-337
리를	-338
▁현재	-339
원의	-340
▁이라고	-341
▁직	-342
▁보고	-343
들과	-344
▁계획	-345
▁임	-346
▁민주	-347
혐의	-348
▁국제	-349
▁역	-350
▁주장했다	-351
▁될	-352
이트	-353
▁시간	-354
▁연구	-355
▁사용	-356
지는	-357
▁선거	-358
▁또한	-359
▁존	-360
▁것은	-361
▁미군	-362
▁일부	-363
▁야	-364
▁인터	-365
▁함	-366
▁에서	-367
었다고	-368
▁조사	-369
▁한다	-370
▁메	-371
스라	-372
상을	-373
▁돌	-374
▁발견	-375
▁했다	-376
▁뒤	-377
요일	-378
▁덧	-379
했습니다	-380
▁덧붙	-381
으나	-382
▁시위	-383
도록	-384
▁지지	-385
되는	-386
▁최근	-387
▁혐의	-388
▁경기	-389
▁계속	-390
▁토	-391
▁페	-392
▁덧붙였다	-393
▁않았다	-394
▁러	-395
▁포함	-396
력을	-397
스라엘	-398
원은	-399
▁여성	-400
▁이스라엘	-401
▁취	-402
▁보도했다	-403
▁경우	-404
▁사실	-405
▁특	-406
▁태	-407
자들이	-408
▁회담	-409
▁요구	-410
▁이란	-411
레스	-412
▁환	-413
라이	-414
▁석	-415
했던	-416
▁결정	-417
▁당국	-418
▁자신의	-419
▁표	-420
▁설명	-421
레이	-422
▁방문	-423
▁줄	-424
▁비난	-425
▁지도	-426
▁및	-427
로운	-428
▁생각	-429
▁탈	-430
장을	-431
▁몇	-432
키스탄	-433
▁를	-434
▁복	-435
▁결과	-436
▁파키스탄	-437
르면	-438
▁모든	-439
니아	-440
▁박	-441
▁당시	-442
리스	-443
▁프로	-444
▁함께	-445
▁가능	-446
▁프랑	-447
되고	-448
인이	-449
▁종	-450
▁팔	-451
입니다	-452
▁게	-453
▁활	-454
▁백	-455
주의	-456
사가	-457
▁곳	-458
▁허	-459
하다	-460
▁음	-461
▁점	-462
▁인도	-463
▁와	-464
원이	-465
보다	-466
▁그리고	-467
▁있습니다	-468
▁수도	-469
▁하는	-470
▁높	-471
▁맞	-472
▁예정이다	-473
▁대선	-474
▁걸	-475
▁채	-476
▁러시아	-477
랜드	-478
▁때문에	-479
해야	-480
▁근	-481
▁모두	-482
▁떨	-483
▁논	-484
▁클린	-485
▁경찰은	-486
▁드	-487
▁숨	-488
▁처음	-489
회의	-490
▁간	-491
▁필요	-492
지고	-493
▁프랑스	-494
▁새로운	-495
에따르면	-496
▁있으며	-497
시키	-498
▁지원	-499
▁클린턴	-500
▁정치	-501
▁애	-502
▁유엔	-503
에도	-504
지를	-505
자인	-506
▁사고	-507
▁떨어	-508
▁피해	-509
왔다	-510
▁충	-511
▁알려	-512
▁정부는	-513
▁아직	-514
▁사이	-515
▁설명했다	-516
▁기록	-517
부는	-518
▁열린	-519
▁터	-520
▁친	-521
▁용	-522
▁민주당	-523
서는	-524
▁있었다	-525
▁본	-526
▁갖	-527
▁규	-528
▁들어	-529
▁않았	-530
▁유럽	-531
▁케	-532
▁폭탄	-533
장이	-534
▁천	-535
▁뉴욕	-536
▁라고	-537
▁찾	-538
▁지난해	-539
▁좋	-540
▁철	-541
기가	-542
▁큰	-543
▁질	-544
안을	-545
▁기자	-546
▁쿠	-547
▁그녀	-548
▁상황	-549
▁우주	-550
▁대통령이	-551
▁휴	-552
치를	-553
원회	-554
▁없다	-555
▁하고	-556
▁않는	-557
▁식	-558
되어	-559
▁이에	-560
▁담	-561
▁나타	-562
▁합의	-563
▁디	-564
▁플	-565
비아	-566
됐다고	-567
리의	-568
▁올해	-569
▁손	-570
▁블	-571
▁않을	-572
▁권	-573
이스	-574
▁무장	-575
▁온	-576
▁대표	-577
▁아니	-578
▁최고	-579
▁힐	-580
▁상원의	-581
기에	-582
▁이날	-583
▁날	-584
▁압	-585
명을	-586
▁있을	-587
▁네	-588
부분	-589
▁따	-590
▁가족	-591
▁총리는	-592
▁확인	-593
▁김	-594
▁있었	-595
▁발생한	-596
▁준	-597
▁청	-598
▁비행	-599
▁체포	-600
▁명을	-601
▁번째	-602
▁부상	-603
▁발표했다	-604
▁루	-605
▁완	-606
▁광	-607
▁국민	-608
▁첫	-609
화를	-610
▁접	-611
그램	-612
이고	-613
전을	-614
▁위치	-615
▁침	-616
자를	-617
▁반대	-618
▁이슬	-619
▁끝	-620
▁받고	-621
▁진행	-622
▁속	-623
▁미국의	-624
거나	-625
성이	-626
▁이미	-627
▁대부분	-628
명의	-629
동을	-630
하여	-631
▁소식	-632
수는	-633
▁정보	-634
▁난	-635
▁범	-636
▁폐	-637
▁방송	-638
▁주민	-639
▁얻	-640
이며	-641
▁패	-642
▁아프간	-643
▁다음	-644
▁이용	-645
▁공개	-646
▁있다는	-647
▁각	-648
운데	-649
▁대학	-650
▁만들	-651
▁잘	-652
스의	-653
▁다시	-654
▁가운데	-655
▁순	-656
이나	-657
렸다	-658
▁이는	-659
자의	-660
▁증가	-661
▁희	-662
단체	-663
▁예상	-664
▁중단	-665
▁왕	-666
▁사람들이	-667
타인	-668
▁항공	-669
▁병원	-670
▁워	-671
정을	-672
▁넘	-673
▁빠	-674
▁그가	-675
▁정부가	-676
성을	-677
정부	-678
▁의해	-679
지역	-680
▁주요	-681
▁트	-682
▁밝혀	-683
▁실시	-684
▁누	-685
▁우리	-686
에따라	-687
▁전문	-688
▁차량	-689
▁막	-690
레반	-691
사의	-692
하면	-693
▁축	-694
과의	-695
스가	-696
▁된다	-697
▁골	-698
▁이슬람	-699
▁오늘	-700
인을	-701
▁투표	-702
원을	-703
▁공화	-704
▁내용	-705
▁암	-706
▁탈레반	-707
났다	-708
▁프로그램	-709
▁납	-710
▁콜	-711
간의	-712
▁절	-713
▁인해	-714
로부터	-715
하면서	-716
이는	-717
▁된	-718
▁않은	-719
▁급	-720
▁됐다	-721
들에	-722
▁상태	-723
▁감독	-724
▁팔레스	-725
▁밀	-726
금을	-727
▁홍	-728
▁받아	-729
▁여러	-730
▁언급	-731
▁조지	-732
▁폭발	-733
▁향	-734
는데	-735
무장	-736
▁이어	-737
▁머	-738
▁의회	-739
▁얼	-740
했지만	-741
▁해결	-742
▁독일	-743
▁지적	-744
달러	-745
▁돌아	-746
장에서	-747
▁언론	-748
▁인터뷰	-749
▁혐의로	-750
▁책	-751
▁농	-752
▁도시	-753
▁중요	-754
스를	-755
하려	-756
▁형	-757
동차	-758
▁팔레스타인	-759
▁외교	-760
▁받았다	-761
림픽	-762
되지	-763
▁변호	-764
▁티	-765
▁대통령의	-766
드는	-767
▁지금	-768
▁개월	-769
▁요청	-770
▁우려	-771
▁전쟁	-772
대로	-773
무부	-774
와의	-775
▁상승	-776
▁학생	-777
▁살해	-778
▁이들	-779
▁정상	-780
▁잡	-781
▁캐	-782
▁국방	-783
▁위치한	-784
▁단체	-785
위원회	-786
▁석방	-787
기로	-788
▁평화	-789
▁있어	-790
▁퍼	-791
디오	-792
사태	-793
▁호주	-794
▁남부	-795
가는	-796
테러	-797
▁판매	-798
▁브라	-799
명이	-800
▁을	-801
업체	-802
도로	-803
자로	-804
▁참석	-805
▁이유	-806
처럼	-807
▁승리	-808
관이	-809
▁성공	-810
한다고	-811
▁소속	-812
되었다	-813
▁공화당	-814
▁추가	-815
▁죽	-816
▁이를	-817
▁촉	-818
▁연방	-819
▁매우	-820
▁매케	-821
임을	-822
▁사진	-823
▁관리	-824
▁편	-825
▁모습	-826
▁사실을	-827
▁한다고	-828
▁키	-829
▁터키	-830
▁하락	-831
격을	-832
▁제공	-833
겠다고	-834
▁관계자는	-835
▁헤	-836
▁당국은	-837
기는	-838
리카	-839
▁우리는	-840
▁자동차	-841
▁탄	-842
▁데이	-843
수가	-844
했고	-845
▁없는	-846
▁강조	-847
▁구조	-848
▁용의	-849
▁인터넷	-850
▁볼	-851
▁악	-852
▁개의	-853
▁개발	-854
▁힘	-855
냈다	-856
▁위협	-857
▁총리	-858
▁긴	-859
▁떠	-860
▁맥	-861
▁베이	-862
▁여행	-863
▁않고	-864
▁금융	-865
▁인근	-866
▁쓰	-867
▁마이	-868
되었	-869
▁방법	-870
▁올림픽	-871
리포	-872
▁반군	-873
전에	-874
▁군사	-875
▁기술	-876
▁당선	-877
▁생산	-878
▁최소	-879
▁없다고	-880
▁측	-881
▁하나	-882
▁명은	-883
▁협상	-884
이었다	-885
업을	-886
자들을	-887
이지	-888
▁서울	-889
▁위험	-890
러한	-891
▁인정	-892
▁일어	-893
장에	-894
▁''	-895
▁지적했다	-896
르는	-897
▁보인	-898
▁주지	-899
▁전문가	-900
▁과학	-901
▁영향	-902
▁하지	-903
력이	-904
▁보안	-905
▁보여	-906
▁어떤	-907
▁인질	-908
▁잠	-909
▁그들은	-910
▁회사	-911
리에	-912
▁보호	-913
에서의	-914
치는	-915
▁받은	-916
▁백악	-917
▁납치	-918
▁건물	-919
▁정책	-920
▁사무	-921
▁하지만	-922
샤라	-923
▁검찰	-924
▁경고	-925
▁이와	-926
▁커	-927
▁크리스	-928
▁외국	-929
부를	-930
▁공식	-931
▁어린	-932
▁오후	-933
했었다	-934
다드	-935
센터	-936
권을	-937
얀마	-938
▁관광	-939
▁바그	-940
▁폴	-941
▁공항	-942
있는	-943
인의	-944
▁미얀마	-945
▁컴	-946
▁도착	-947
▁안전	-948
▁이름	-949
음을	-950
▁노동	-951
▁있던	-952
했으나	-953
▁것에	-954
▁자유	-955
▁떨어진	-956
▁논의	-957
▁차례	-958
▁받았	-959
신은	-960
▁지구	-961
▁바그다드	-962
▁몰	-963
▁자살	-964
▁준비	-965
▁니	-966
지에	-967
▁선수	-968
▁런	-969
▁은행	-970
식을	-971
인트	-972
▁의원	-973
▁제작	-974
▁웹	-975
▁년간	-976
▁마지	-977
▁경찰이	-978
선을	-979
시켰	-980
하기로	-981
▁힐러	-982
지지	-983
▁여론	-984
▁으로	-985
▁학교	-986
▁엘	-987
퓨터	-988
▁건강	-989
▁착	-990
싱턴	-991
▁런던	-992
▁북부	-993
▁보고서	-994
회담	-995
▁이러한	-996
대를	-997
▁성명	-998
▁컴퓨터	-999
료를	-1000
▁고위	-1001
▁앞서	-1002
▁격	-1003
▁북한이	-1004
▁극	-1005
▁푸	-1006
▁북한의	-1007
▁길	-1008
문을	-1009
▁아시아	-1010
▁사회	-1011
▁오는	-1012
▁밖	-1013
▁거래	-1014
▁스페	-1015
하는데	-1016
▁워싱턴	-1017
하다고	-1018
▁사태	-1019
▁팀	-1020
▁노력	-1021
▁시민	-1022
▁그녀는	-1023
도를	-1024
▁스타	-1025
▁창	-1026
세를	-1027
위를	-1028
▁앞으로	-1029
▁까지	-1030
▁인터뷰에서	-1031
▁마지막	-1032
▁정부의	-1033
▁이탈	-1034
▁비난했다	-1035
▁면	-1036
회견	-1037
▁빌	-1038
▁야당	-1039
▁연합	-1040
▁오전	-1041
▁조직	-1042
▁윌	-1043
있다	-1044
▁갖고	-1045
▁거의	-1046
씨는	-1047
자와	-1048
▁가격	-1049
▁싶	-1050
▁미국은	-1051
▁알카	-1052
은행	-1053
▁국경	-1054
▁동물	-1055
샤라프	-1056
▁차지	-1057
▁처음으로	-1058
▁자신이	-1059
▁규모	-1060
▁놓	-1061
▁민간	-1062
▁미국이	-1063
지가	-1064
▁목표	-1065
▁밤	-1066
조사	-1067
회를	-1068
▁버락	-1069
▁강조했다	-1070
▁무샤라프	-1071
▁결혼	-1072
▁최대	-1073
에서도	-1074
▁백악관	-1075
▁잃	-1076
수를	-1077
▁수감	-1078
▁촉구	-1079
합니다	-1080
▁눈	-1081
▁빈	-1082
나는	-1083
동안	-1084
▁회의	-1085
▁장관은	-1086
기도	-1087
었던	-1088
▁판결	-1089
됐으며	-1090
장의	-1091
▁남아	-1092
▁도움	-1093
▁부인	-1094
니스탄	-1095
▁지난달	-1096
▁거부	-1097
▁경쟁	-1098
▁투자	-1099
▁캘	-1100
▁혼	-1101
사일	-1102
▁가진	-1103
▁기업	-1104
▁연설	-1105
▁있도록	-1106
리포니아	-1107
▁발언	-1108
▁불구	-1109
▁수백	-1110
▁사망했다	-1111
▁이탈리아	-1112
▁슈	-1113
같은	-1114
전히	-1115
▁공동	-1116
▁기자회견	-1117
에다	-1118
▁나는	-1119
▁수상	-1120
▁활동	-1121
▁샤	-1122
▁보내	-1123
▁출신	-1124
▁충돌	-1125
▁헬	-1126
들도	-1127
▁만에	-1128
▁사람들은	-1129
군이	-1130
▁이런	-1131
▁참가	-1132
자들의	-1133
▁이상의	-1134
나라	-1135
이라	-1136
▁재판	-1137
▁못했다	-1138
▁이들은	-1139
▁밝히	-1140
▁소비	-1141
▁느	-1142
쳤다	-1143
하도록	-1144
▁있지만	-1145
▁통과	-1146
▁베이징	-1147
▁돈	-1148
▁즉	-1149
마스	-1150
사인	-1151
▁공급	-1152
▁금지	-1153
▁다이	-1154
▁부족	-1155
▁호텔	-1156
군은	-1157
제를	-1158
▁유명	-1159
▁폭력	-1160
▁삼	-1161
▁정도	-1162
으로부터	-1163
▁늘	-1164
▁아무	-1165
▁이전	-1166
인들이	-1167
▁북한은	-1168
▁많이	-1169
▁불법	-1170
▁운영	-1171
▁오바마는	-1172
▁캘리포니아	-1173
▁희생	-1174
대가	-1175
▁그것	-1176
사이트	-1177
센트	-1178
심을	-1179
▁심각	-1180
▁좋은	-1181
▁보인다	-1182
가니스탄	-1183
세계	-1184
▁전망	-1185
▁지방	-1186
했을	-1187
▁하루	-1188
졌다고	-1189
▁그를	-1190
▁참여	-1191
▁아프가니스탄	-1192
▁라이	-1193
했다는	-1194
▁헌	-1195
▁관한	-1196
▁우승	-1197
▁않는다	-1198
▁콘	-1199
규모	-1200
▁사우	-1201
▁이곳	-1202
▁주둔	-1203
▁알카에다	-1204
▁지진	-1205
▁환경	-1206
▁움	-1207
▁미사일	-1208
▁친구	-1209
▁말했습니다	-1210
▁가자	-1211
▁역사	-1212
▁몸	-1213
스터	-1214
치가	-1215
▁귀	-1216
드의	-1217
스타	-1218
▁중요한	-1219
▁감소	-1220
▁범죄	-1221
▁약속	-1222
▁알려졌다	-1223
▁유지	-1224
▁타임	-1225
▁것입니다	-1226
니는	-1227
르코	-1228
▁출연	-1229
국은	-1230
▁대상	-1231
▁없이	-1232
▁낮	-1233
국의	-1234
▁최초	-1235
▁폐쇄	-1236
감을	-1237
▁바이	-1238
▁수사	-1239
▁이루	-1240
▁미국과	-1241
▁어린이	-1242
가를	-1243
원들이	-1244
▁회담을	-1245
▁징	-1246
▁사망한	-1247
▁포인트	-1248
▁너	-1249
▁대의	-1250
▁반면	-1251
원들은	-1252
▁공격을	-1253
▁불구하고	-1254
▁보다	-1255
▁문제를	-1256
▁엄	-1257
베이	-1258
자들에게	-1259
▁갈	-1260
트는	-1261
▁독립	-1262
안에	-1263
▁동영	-1264
▁전투	-1265
▁부토	-1266
▁발생했다	-1267
▁놀	-1268
▁움직	-1269
▁쇼	-1270
▁남성	-1271
▁웹사이트	-1272
▁이라며	-1273
▁힐러리	-1274
▁사망했다고	-1275
▁내려	-1276
▁이야	-1277
▁맨	-1278
▁응	-1279
▁마을	-1280
가가	-1281
대한	-1282
▁딸	-1283
▁봉	-1284
원에	-1285
하자	-1286
▁스페인	-1287
▁짐	-1288
사회	-1289
▁구성	-1290
▁변화	-1291
▁세의	-1292
▁일으	-1293
▁앤	-1294
▁유권	-1295
▁직접	-1296
▁추정	-1297
부가	-1298
주는	-1299
▁가지	-1300
▁기대	-1301
▁대사	-1302
▁전에	-1303
▁통신	-1304
기구	-1305
후보	-1306
▁목격	-1307
▁발사	-1308
▁아버	-1309
▁전세계	-1310
▁별	-1311
하던	-1312
▁말을	-1313
▁인용	-1314
리에서	-1315
▁박사는	-1316
▁의하면	-1317
▁지난주	-1318
▁웨	-1319
▁펼	-1320
▁기소	-1321
▁맡	-1322
기의	-1323
어진	-1324
▁성명을	-1325
▁것이라는	-1326
▁년에	-1327
▁모습을	-1328
▁높은	-1329
▁확보	-1330
▁총리가	-1331
▁대통령과	-1332
대의	-1333
▁장관	-1334
▁주택	-1335
▁혐의를	-1336
▁서비	-1337
▁가능성이	-1338
▁수천	-1339
인들은	-1340
▁지역에서	-1341
▁업	-1342
▁퇴	-1343
원에서	-1344
▁않았다고	-1345
라도	-1346
▁기간	-1347
▁레바	-1348
▁인권	-1349
▁중심	-1350
▁콜롬	-1351
▁엔	-1352
계를	-1353
서를	-1354
이가	-1355
즈는	-1356
▁신문	-1357
▁안보	-1358
▁역할	-1359
▁인한	-1360
▁조치를	-1361
▁칼	-1362
▁경선	-1363
▁도로	-1364
▁아침	-1365
▁지나	-1366
갔다	-1367
라인	-1368
리다	-1369
스템	-1370
였던	-1371
▁특별	-1372
▁화재	-1373
▁사르코	-1374
▁폭탄테러	-1375
▁강화	-1376
당의	-1377
대에	-1378
물을	-1379
▁더욱	-1380
▁이제	-1381
▁인쇄	-1382
▁레바논	-1383
하겠다고	-1384
▁뿐	-1385
베트	-1386
▁과정	-1387
▁이것	-1388
▁일반	-1389
시켰다	-1390
▁지역에	-1391
▁강력	-1392
▁행사	-1393
회에서	-1394
▁계획을	-1395
▁만달러	-1396
의를	-1397
▁운동	-1398
▁일간	-1399
▁뜻	-1400
▁황	-1401
시코	-1402
▁개인	-1403
▁윌리	-1404
▁전체	-1405
▁확실	-1406
대는	-1407
측은	-1408
▁결국	-1409
▁석유	-1410
▁알고	-1411
▁어려	-1412
▁이뤄	-1413
슨은	-1414
▁플로	-1415
▁여자	-1416
▁아니다	-1417
▁글	-1418
▁믿	-1419
▁캠	-1420
라마	-1421
▁성명에서	-1422
시킬	-1423
▁개최	-1424
▁되는	-1425
▁분석	-1426
었으며	-1427
▁문제가	-1428
▁코리아	-1429
▁남자	-1430
▁선고	-1431
▁실종	-1432
▁매케인	-1433
▁중국의	-1434
▁있었다고	-1435
두고	-1436
적이	-1437
▁마련	-1438
▁여객	-1439
멕시코	-1440
▁영향을	-1441
지구	-1442
▁소유	-1443
▁일을	-1444
▁겪	-1445
애나	-1446
해서	-1447
▁거주	-1448
▁때문	-1449
▁의견	-1450
▁의료	-1451
▁타이	-1452
전에서	-1453
▁데이비	-1454
리자	-1455
▁내년	-1456
▁너무	-1457
▁팬	-1458
▁티베트	-1459
스와	-1460
전이	-1461
훈련	-1462
▁시도	-1463
▁한나라	-1464
▁생활	-1465
▁것이며	-1466
▁풀	-1467
드리	-1468
머니	-1469
소를	-1470
트를	-1471
▁위원	-1472
▁타고	-1473
자들	-1474
▁브라운	-1475
▁입장을	-1476
▁히	-1477
설명	-1478
▁남편	-1479
▁수행	-1480
라이나	-1481
▁필요한	-1482
▁건설	-1483
▁나라	-1484
▁담당	-1485
▁올라	-1486
스크	-1487
▁이동	-1488
▁해외	-1489
▁관련된	-1490
▁없었다	-1491
▁먹	-1492
▁울	-1493
▁탑	-1494
▁교육	-1495
▁레이	-1496
▁선택	-1497
▁원문	-1498
▁제조	-1499
▁중앙	-1500
▁육	-1501
▁효	-1502
▁독해	-1503
▁어제	-1504
네시아	-1505
▁했다고	-1506
▁독해설명	-1507
▁콜롬비아	-1508
부의	-1509
사와	-1510
품을	-1511
▁총선	-1512
▁핵무	-1513
국이	-1514
▁선언	-1515
▁재개	-1516
한다는	-1517
▁문제에	-1518
▁망	-1519
▁구호	-1520
▁받을	-1521
▁사상	-1522
▁주변	-1523
▁잔	-1524
너지	-1525
드가	-1526
텍사	-1527
▁산업	-1528
▁역시	-1529
▁증거	-1530
▁해안	-1531
▁소식통	-1532
▁인도네시아	-1533
▁감염	-1534
▁또는	-1535
▁년까지	-1536
▁노무	-1537
▁있고	-1538
▁열리는	-1539
▁한국의	-1540
▁기자회견에서	-1541
는지	-1542
▁비용	-1543
▁사건에	-1544
▁조사를	-1545
▁둘	-1546
▁즐	-1547
▁나오	-1548
▁시설	-1549
▁찾아	-1550
신을	-1551
이를	-1552
▁어떻	-1553
쪽으로	-1554
▁관광객	-1555
▁예정이라고	-1556
만에	-1557
▁시장	-1558
▁주식	-1559
▁노무현	-1560
▁윌리엄	-1561
▁끌	-1562
▁지도자	-1563
▁피해를	-1564
▁곧	-1565
▁이유로	-1566
스카	-1567
▁프리	-1568
▁멕시코	-1569
▁어떻게	-1570
는다	-1571
무를	-1572
▁비상	-1573
▁왔다	-1574
베스	-1575
▁남북	-1576
▁사람이	-1577
▁익	-1578
랐다	-1579
프는	-1580
▁아마	-1581
▁연기	-1582
▁화요일	-1583
▁전문가들은	-1584
▁뇌	-1585
▁펜	-1586
▁수십	-1587
▁수준	-1588
▁일이	-1589
▁제기	-1590
▁출전	-1591
▁샌	-1592
▁그렇	-1593
▁얼마	-1594
▁달러를	-1595
▁비디오	-1596
▁시스템	-1597
하이	-1598
▁수술	-1599
였다고	-1600
▁정보를	-1601
스에	-1602
제로	-1603
▁회복	-1604
가지	-1605
스코	-1606
정에	-1607
▁국영	-1608
▁드러	-1609
▁따라	-1610
▁바로	-1611
▁음악	-1612
▁이끌	-1613
▁자금	-1614
▁철수	-1615
▁대피	-1616
▁제안	-1617
▁자신들의	-1618
점을	-1619
▁게임	-1620
▁의미	-1621
▁라이스	-1622
▁사망하고	-1623
▁아프리카	-1624
▁플로리다	-1625
▁탐	-1626
운드	-1627
▁로버	-1628
▁전달	-1629
▁중동	-1630
▁행동	-1631
▁보였다	-1632
▁찬	-1633
이자	-1634
▁사업	-1635
▁스티	-1636
▁텍사	-1637
▁대선후보	-1638
스턴	-1639
▁명과	-1640
▁제출	-1641
▁훈련	-1642
▁휴대	-1643
▁부상을	-1644
▁정치적	-1645
었습니다	-1646
세력	-1647
스로	-1648
약을	-1649
촬영	-1650
형을	-1651
▁제재	-1652
▁주말	-1653
▁책임	-1654
무장관은	-1655
▁시작했다	-1656
치고	-1657
▁베네	-1658
겠다는	-1659
▁답	-1660
▁대신	-1661
▁월에	-1662
▁인구	-1663
이라는	-1664
▁붙	-1665
▁있게	-1666
▁파괴	-1667
▁동영상	-1668
리트	-1669
▁추락	-1670
▁치료	-1671
폭탄	-1672
학교	-1673
▁교통	-1674
▁년대	-1675
▁시아	-1676
▁대규모	-1677
▁사망자	-1678
▁우리가	-1679
▁기념	-1680
▁부분	-1681
▁이상이	-1682
▁있었던	-1683
▁가자지구	-1684
도가	-1685
어를	-1686
▁사라	-1687
▁앞두고	-1688
만을	-1689
프트	-1690
▁부모	-1691
▁전화	-1692
소에서	-1693
▁억달러	-1694
▁살고	-1695
▁실패	-1696
▁억원	-1697
▁정확	-1698
▁던	-1699
피언	-1700
▁보건	-1701
▁촬영	-1702
▁대부분의	-1703
드로	-1704
부에	-1705
섰다	-1706
▁관할	-1707
▁만들어	-1708
▁포함한	-1709
▁돼	-1710
▁벨	-1711
▁가까	-1712
으로써	-1713
▁달러의	-1714
▁위원회	-1715
▁한나라당	-1716
▁비롯	-1717
▁주도	-1718
▁탑승	-1719
▁그들의	-1720
▁의원은	-1721
스러	-1722
행을	-1723
▁불가	-1724
▁안에	-1725
▁전해	-1726
▁에너지	-1727
▁이같은	-1728
▁붕	-1729
▁배우	-1730
▁전국	-1731
▁제시	-1732
▁아니라	-1733
▁싸	-1734
▁앨	-1735
▁흑	-1736
당한	-1737
사에	-1738
실을	-1739
▁교도	-1740
▁부정	-1741
▁수용	-1742
▁지속	-1743
▁직원	-1744
▁것이라	-1745
▁메시	-1746
▁사과	-1747
▁에이	-1748
▁입은	-1749
▁지명	-1750
▁토론	-1751
▁헌법	-1752
▁당국이	-1753
▁지원을	-1754
성은	-1755
회에	-1756
▁감시	-1757
▁수단	-1758
▁특히	-1759
▁가지고	-1760
▁경기를	-1761
▁말한다	-1762
▁상원의원	-1763
르고	-1764
수로	-1765
▁운전	-1766
▁중인	-1767
▁축구	-1768
▁행위	-1769
▁미국인	-1770
▁여전히	-1771
나다	-1772
▁만원	-1773
▁열차	-1774
▁작업	-1775
▁홍콩	-1776
▁사우디	-1777
▁한국인	-1778
▁챔	-1779
시는	-1780
▁국내	-1781
▁붕괴	-1782
▁않다	-1783
▁최종	-1784
▁지역의	-1785
▁경기에서	-1786
란드	-1787
안이	-1788
▁데이비드	-1789
군의	-1790
움을	-1791
▁무기	-1792
▁수입	-1793
▁아닌	-1794
▁장면	-1795
바브	-1796
으면	-1797
▁다우	-1798
▁라는	-1799
▁푸틴	-1800
바브웨	-1801
만이	-1802
성에	-1803
연합	-1804
▁고려	-1805
▁비판	-1806
▁비해	-1807
▁조치	-1808
▁포기	-1809
▁협력	-1810
스에서	-1811
▁심각한	-1812
▁이루어	-1813
▁퍼센트	-1814
▁승객	-1815
▁작은	-1816
▁희망	-1817
들로	-1818
인지	-1819
▁태국	-1820
▁그들이	-1821
▁로버트	-1822
▁부통령	-1823
▁온라인	-1824
▁관계자가	-1825
▁나타났다	-1826
▁휘	-1827
단은	-1828
어들	-1829
정한	-1830
▁기다	-1831
▁반응	-1832
▁서로	-1833
▁수색	-1834
▁시험	-1835
▁정신	-1836
장으로	-1837
하려는	-1838
▁월요일	-1839
▁짐바브웨	-1840
▁젊	-1841
고를	-1842
리그	-1843
바이	-1844
소에	-1845
▁그런	-1846
▁의사	-1847
▁송	-1848
시켜	-1849
▁결의	-1850
▁브라질	-1851
▁챔피언	-1852
▁경고했다	-1853
▁촉구했다	-1854
▁벗	-1855
▁만나	-1856
▁스미	-1857
▁아르	-1858
▁없을	-1859
▁월드	-1860
▁케냐	-1861
▁페르	-1862
▁역할을	-1863
▁과거	-1864
▁난민	-1865
▁생존	-1866
▁성장	-1867
▁승인	-1868
▁저지	-1869
▁치러	-1870
▁민간인	-1871
▁발표한	-1872
▁시위를	-1873
▁일본의	-1874
▁후보가	-1875
▁슬	-1876
▁흔	-1877
보는	-1878
시설	-1879
트로	-1880
▁소방	-1881
▁오른	-1882
▁제한	-1883
▁마이클	-1884
▁겨	-1885
▁설치	-1886
▁수는	-1887
▁식량	-1888
▁진압	-1889
▁항의	-1890
▁확산	-1891
▁회원	-1892
▁요구했다	-1893
▁뛰	-1894
▁섬	-1895
겠다	-1896
버그	-1897
▁국립	-1898
▁대법	-1899
▁밝힌	-1900
▁여름	-1901
▁중국은	-1902
▁캐나다	-1903
▁빨	-1904
▁좌	-1905
사건	-1906
운티	-1907
▁그린	-1908
▁무엇	-1909
▁암살	-1910
▁결과를	-1911
▁밝혀졌다	-1912
중인	-1913
▁각각	-1914
▁구속	-1915
▁사임	-1916
▁수가	-1917
▁제품	-1918
▁넣	-1919
수의	-1920
지의	-1921
▁니콜	-1922
▁살아	-1923
▁상원	-1924
▁심장	-1925
시키는	-1926
▁외국인	-1927
▁클린턴은	-1928
▁풍	-1929
리케	-1930
시킨	-1931
신이	-1932
▁가져	-1933
▁결승	-1934
▁되어	-1935
▁병사	-1936
▁정당	-1937
▁평가	-1938
▁교수는	-1939
▁상황을	-1940
▁시아파	-1941
▁프라이	-1942
▁대변인이	-1943
▁낙	-1944
▁씨	-1945
르트	-1946
일한	-1947
▁소송	-1948
▁위반	-1949
▁한다는	-1950
▁여론조사	-1951
단을	-1952
위원	-1953
이로	-1954
▁같이	-1955
▁발전	-1956
▁스피	-1957
▁총격	-1958
하거나	-1959
▁이름을	-1960
▁생각한다	-1961
대표	-1962
리노	-1963
일을	-1964
▁선정	-1965
▁시즌	-1966
리스트	-1967
▁국무부	-1968
▁곤	-1969
▁먼	-1970
▁싱	-1971
▁칸	-1972
이프	-1973
지로	-1974
해를	-1975
▁동료	-1976
▁명령	-1977
▁보수	-1978
▁전통	-1979
▁지하	-1980
▁평균	-1981
드를	-1982
운동	-1983
▁나토	-1984
▁다양	-1985
▁에드	-1986
▁전시	-1987
▁충분	-1988
▁년부터	-1989
▁사건을	-1990
▁활동을	-1991
▁상원의원은	-1992
안은	-1993
인인	-1994
▁사는	-1995
▁업체	-1996
▁전반	-1997
▁하기	-1998
무장관	-1999
▁관계를	-2000
어나	-2001
지도	-2002
▁마감	-2003
▁실험	-2004
▁정권	-2005
▁지불	-2006
▁취소	-2007
▁경찰에	-2008
▁그녀의	-2009
▁과정에서	-2010
어는	-2011
정이	-2012
▁다르	-2013
▁동의	-2014
▁수출	-2015
▁라디오	-2016
▁사건이	-2017
▁관계자들은	-2018
▁이라크에서	-2019
거래	-2020
됐던	-2021
려는	-2022
앞서	-2023
▁동부	-2024
▁종교	-2025
지니아	-2026
▁바이러	-2027
▁사무총	-2028
▁행정부	-2029
▁미국에서	-2030
가고	-2031
상이	-2032
▁게이	-2033
▁임명	-2034
무부는	-2035
시키고	-2036
▁감독은	-2037
▁내용을	-2038
▁지지를	-2039
▁대통령을	-2040
▁이에앞서	-2041
▁녹	-2042
▁쉽	-2043
▁잉	-2044
▁홀	-2045
장인	-2046
▁벌어	-2047
▁선출	-2048
▁젊은	-2049
▁접근	-2050
▁취임	-2051
▁자회담	-2052
▁프로그램을	-2053
▁왔	-2054
▁나온	-2055
▁단계	-2056
▁마리	-2057
▁아메	-2058
되기	-2059
▁걸쳐	-2060
▁것과	-2061
▁경험	-2062
▁마무	-2063
▁성폭	-2064
▁센터	-2065
▁알리	-2066
▁연료	-2067
▁추진	-2068
지에서	-2069
▁관심을	-2070
▁일까지	-2071
▁대해서는	-2072
오는	-2073
책을	-2074
▁대가	-2075
▁분명	-2076
▁후세	-2077
장관은	-2078
▁대사관	-2079
관계	-2080
기와	-2081
리우	-2082
리핀	-2083
비를	-2084
어도	-2085
회는	-2086
▁넘어	-2087
▁로켓	-2088
▁밖에	-2089
▁보유	-2090
▁비밀	-2091
▁사랑	-2092
▁살인	-2093
▁악화	-2094
▁않아	-2095
▁이래	-2096
▁일에	-2097
▁중에	-2098
▁파견	-2099
▁벌이고	-2100
엘라	-2101
적을	-2102
▁공습	-2103
▁공연	-2104
▁동맹	-2105
▁유죄	-2106
▁있기	-2107
하지만	-2108
▁승리를	-2109
▁총리의	-2110
▁옮	-2111
장과	-2112
▁교황	-2113
▁구제	-2114
▁그래	-2115
▁무역	-2116
▁수석	-2117
▁유로	-2118
▁장기	-2119
▁주재	-2120
▁허용	-2121
▁어머니	-2122
▁합니다	-2123
▁후보는	-2124
▁벤	-2125
▁술	-2126
진을	-2127
▁사퇴	-2128
▁신용	-2129
▁작품	-2130
▁발견된	-2131
▁알려진	-2132
▁기록했다	-2133
▁아직까지	-2134
로는	-2135
▁뜻을	-2136
▁받는	-2137
▁상대	-2138
▁통제	-2139
▁해리	-2140
▁경찰서	-2141
▁텍사스	-2142
▁대상으로	-2143
▁변호사는	-2144
▁밝혔습니다	-2145
▁견	-2146
니스	-2147
진이	-2148
학생	-2149
▁개혁	-2150
▁지켜	-2151
▁파병	-2152
▁벌였다	-2153
▁사람은	-2154
▁사이에	-2155
▁시리아	-2156
▁돈을	-2157
▁만약	-2158
▁배치	-2159
▁사령	-2160
▁사형	-2161
▁선포	-2162
대통령	-2163
시키기	-2164
▁상대로	-2165
리와	-2166
스럽	-2167
워드	-2168
카고	-2169
▁두고	-2170
▁집중	-2171
▁환영	-2172
메라	-2173
었고	-2174
지인	-2175
▁대중	-2176
▁되고	-2177
▁바란	-2178
▁위를	-2179
▁전역	-2180
▁파업	-2181
▁국회의	-2182
▁흥	-2183
회가	-2184
▁그룹	-2185
▁내가	-2186
▁대비	-2187
▁신화	-2188
▁일부터	-2189
▁치료를	-2190
▁사람들을	-2191
끄는	-2192
▁구매	-2193
▁기관	-2194
▁동성	-2195
▁문화	-2196
▁설립	-2197
▁아내	-2198
▁야후	-2199
▁임시	-2200
▁쿠바	-2201
▁크게	-2202
▁검찰은	-2203
▁베네수	-2204
▁수요일	-2205
▁사르코지	-2206
▁찰	-2207
관리	-2208
단이	-2209
도의	-2210
사로	-2211
소의	-2212
▁뉴스	-2213
▁대응	-2214
▁부근	-2215
▁서부	-2216
▁자녀	-2217
▁혼란	-2218
자들과	-2219
▁달러에	-2220
▁목요일	-2221
▁사이트	-2222
▁갑	-2223
번째	-2224
▁개선	-2225
▁로마	-2226
▁조건	-2227
트에서	-2228
▁하마스	-2229
▁핵무기	-2230
▁아니라고	-2231
▁폭력사태	-2232
▁상원의원이	-2233
많은	-2234
진은	-2235
▁경영	-2236
▁이로	-2237
▁좋아	-2238
졌으며	-2239
▁명으로	-2240
▁시카고	-2241
되었다고	-2242
▁십	-2243
르드	-2244
물이	-2245
트의	-2246
▁고용	-2247
▁바다	-2248
▁양국	-2249
▁적이	-2250
▁진술	-2251
▁마이크	-2252
▁있다며	-2253
▁정부에	-2254
▁공격으로	-2255
▁깨	-2256
나지	-2257
명박	-2258
▁남한	-2259
▁논쟁	-2260
▁매년	-2261
▁모델	-2262
▁이집	-2263
▁집권	-2264
▁최악	-2265
▁결정을	-2266
▁시간이	-2267
▁이명박	-2268
▁민주주의	-2269
▁위해서는	-2270
▁윈	-2271
려고	-2272
리즈	-2273
산을	-2274
▁에어	-2275
▁진출	-2276
▁펜실	-2277
▁효과	-2278
▁받아들	-2279
▁비행기	-2280
▁홈	-2281
르게	-2282
선거	-2283
▁같다	-2284
▁따른	-2285
▁표현	-2286
▁계획이다	-2287
▁무장단체	-2288
리지	-2289
밖에	-2290
화가	-2291
▁강한	-2292
▁등의	-2293
▁이틀	-2294
▁일자	-2295
▁전자	-2296
▁주간	-2297
▁해당	-2298
▁해야	-2299
▁자신을	-2300
▁솔	-2301
르타	-2302
차를	-2303
▁근처	-2304
▁마크	-2305
▁분쟁	-2306
▁수익	-2307
▁아랍	-2308
▁아바	-2309
▁연결	-2310
▁자체	-2311
▁포르	-2312
하기도	-2313
▁때까지	-2314
▁못하고	-2315
▁일요일	-2316
▁필리핀	-2317
▁무장세력	-2318
▁베네수엘라	-2319
식이	-2320
▁관해	-2321
▁대만	-2322
▁미래	-2323
▁받게	-2324
▁선박	-2325
▁점을	-2326
▁집행	-2327
▁징역	-2328
▁보고서는	-2329
군과	-2330
회사	-2331
▁복귀	-2332
▁사항	-2333
▁인간	-2334
▁향해	-2335
자에게	-2336
▁강력한	-2337
▁도움이	-2338
▁수많은	-2339
▁고속	-2340
▁고통	-2341
▁구체	-2342
▁긴급	-2343
▁분야	-2344
▁스트	-2345
▁후보를	-2346
▁버지니아	-2347
우주	-2348
이드	-2349
이어	-2350
이의	-2351
▁강제	-2352
▁높아	-2353
▁막기	-2354
▁받지	-2355
▁작년	-2356
였으며	-2357
통신은	-2358
▁그것은	-2359
▁내렸다	-2360
▁프라이머	-2361
프로	-2362
▁검토	-2363
▁광고	-2364
▁누구	-2365
▁아파	-2366
▁이해	-2367
▁입원	-2368
▁숨지고	-2369
▁이끄는	-2370
▁허리케	-2371
▁언급했다	-2372
▁이라크에	-2373
▁주지사는	-2374
▁깊	-2375
▁등을	-2376
▁만명	-2377
▁비슷	-2378
▁승무	-2379
▁압둘	-2380
▁재정	-2381
▁지휘	-2382
▁다양한	-2383
▁북한에	-2384
▁사실이	-2385
▁플레이	-2386
▁요청했다	-2387
▁능	-2388
▁린	-2389
▁컨	-2390
자에	-2391
▁공산	-2392
▁목숨	-2393
▁보좌	-2394
▁소년	-2395
▁지시	-2396
▁착륙	-2397
▁하마	-2398
▁확신	-2399
었지만	-2400
점에서	-2401
▁달하는	-2402
▁시간을	-2403
▁회장은	-2404
▁발견했다	-2405
▁예상된다	-2406
리로	-2407
▁고객	-2408
▁못한	-2409
▁어느	-2410
▁오래	-2411
▁인수	-2412
▁증시	-2413
▁도움을	-2414
▁상황이	-2415
▁적어도	-2416
▁정부와	-2417
▁다이애나	-2418
▁오바마가	-2419
국가	-2420
들어	-2421
상의	-2422
▁관심	-2423
▁예측	-2424
글랜드	-2425
▁다음달	-2426
▁미군이	-2427
▁비난을	-2428
▁영국의	-2429
▁이라크의	-2430
▁득	-2431
▁북핵	-2432
▁제임	-2433
해왔다	-2434
▁되었다	-2435
▁방법을	-2436
▁여부를	-2437
▁이들의	-2438
▁협상을	-2439
방송	-2440
어가	-2441
키는	-2442
▁나머	-2443
▁나와	-2444
▁만큼	-2445
▁빠져	-2446
▁선두	-2447
▁시행	-2448
▁위로	-2449
▁있지	-2450
▁폭풍	-2451
되면서	-2452
스러운	-2453
이라며	-2454
▁가능한	-2455
▁곳에서	-2456
▁밝히지	-2457
▁정도로	-2458
폭탄테러	-2459
▁받았다고	-2460
▁둔	-2461
▁졸	-2462
제가	-2463
직을	-2464
투표	-2465
▁끝에	-2466
▁노조	-2467
▁세르	-2468
▁어떠	-2469
▁제외	-2470
▁후에	-2471
된다고	-2472
▁작업을	-2473
▁발생했다고	-2474
▁잭	-2475
겼다	-2476
자이	-2477
줬다	-2478
▁도쿄	-2479
▁스포	-2480
▁제거	-2481
▁주의	-2482
▁처리	-2483
하였다	-2484
▁말레이	-2485
▁쿠르드	-2486
▁사람들에게	-2487
▁냉	-2488
▁펠	-2489
러는	-2490
배를	-2491
상태	-2492
식에	-2493
친구	-2494
▁근거	-2495
▁마약	-2496
▁수치	-2497
▁위성	-2498
▁목숨을	-2499
▁병력을	-2500
▁사이클	-2501
▁지역을	-2502
롤라이나	-2503
▁쉬	-2504
▁왜	-2505
관을	-2506
다면	-2507
보를	-2508
▁보낸	-2509
▁수니	-2510
▁입고	-2511
▁자치	-2512
▁출마	-2513
▁한반	-2514
▁가졌다	-2515
▁미국을	-2516
▁사건은	-2517
▁오하이	-2518
▁이란의	-2519
▁주장하고	-2520
되었습니다	-2521
▁맺	-2522
결을	-2523
기간	-2524
법을	-2525
즈니	-2526
▁둘러	-2527
▁모른	-2528
▁전략	-2529
▁케이	-2530
됩니다	-2531
전으로	-2532
▁성폭행	-2533
▁올랐다	-2534
▁주민들이	-2535
▁탁	-2536
트가	-2537
▁고등	-2538
▁대회	-2539
▁소재	-2540
▁신고	-2541
▁씨는	-2542
인으로	-2543
▁발생해	-2544
▁사진을	-2545
▁어떠한	-2546
▁여성이	-2547
경을	-2548
데이	-2549
비행	-2550
상에	-2551
율을	-2552
▁넘는	-2553
▁만든	-2554
▁보이	-2555
▁분리	-2556
▁비교	-2557
▁소말	-2558
▁시청	-2559
▁인디	-2560
▁잘못	-2561
가들은	-2562
▁이란이	-2563
▁질문에	-2564
▁최고의	-2565
▁사람들의	-2566
▁소말리아	-2567
▁오하이오	-2568
▁과학자들은	-2569
▁늦	-2570
▁론	-2571
▁묘	-2572
내는	-2573
리기	-2574
사한	-2575
▁노스	-2576
▁아주	-2577
▁오픈	-2578
▁조종	-2579
▁유일한	-2580
▁결정했다	-2581
▁정상회담	-2582
▁찍	-2583
라스	-2584
피아	-2585
▁계약	-2586
▁베컴	-2587
▁세금	-2588
▁시상	-2589
▁자연	-2590
▁했던	-2591
▁국방부	-2592
▁병원에	-2593
▁언론은	-2594
▁여명이	-2595
▁완전히	-2596
▁움직임	-2597
도는	-2598
로를	-2599
생활	-2600
없이	-2601
▁논란	-2602
▁명에	-2603
▁숨진	-2604
▁슈퍼	-2605
▁접촉	-2606
▁사고가	-2607
▁한국은	-2608
▁확인했다	-2609
▁낸	-2610
▁삭	-2611
기지	-2612
단의	-2613
당은	-2614
소가	-2615
스토	-2616
이션	-2617
크는	-2618
▁가량	-2619
▁검사	-2620
▁곳에	-2621
▁되지	-2622
▁불안	-2623
▁예비	-2624
▁정말	-2625
▁출발	-2626
▁하며	-2627
▁대해서	-2628
▁미군은	-2629
▁사고로	-2630
▁카운티	-2631
▁지도자인	-2632
▁빅	-2633
같이	-2634
도에	-2635
롭게	-2636
사고	-2637
인과	-2638
하메	-2639
▁규정	-2640
▁리버	-2641
▁무너	-2642
▁주한	-2643
하라고	-2644
▁이것은	-2645
▁타임즈	-2646
지역에서	-2647
▁않았지만	-2648
베즈	-2649
비치	-2650
소는	-2651
측이	-2652
화에	-2653
▁공공	-2654
▁근무	-2655
▁기후	-2656
▁소녀	-2657
▁스위	-2658
▁아카	-2659
▁압박	-2660
▁위에	-2661
▁이달	-2662
▁인물	-2663
▁즉각	-2664
▁해병	-2665
▁힘들	-2666
했는데	-2667
▁나왔다	-2668
▁내무부	-2669
▁아무런	-2670
▁일리노	-2671
▁중국이	-2672
▁프로젝	-2673
▁습	-2674
티나	-2675
▁거절	-2676
▁들고	-2677
▁등록	-2678
▁말리	-2679
▁아베	-2680
▁의심	-2681
▁이송	-2682
▁적용	-2683
▁증언	-2684
▁카르	-2685
▁트럭	-2686
하지는	-2687
▁대표는	-2688
▁미국에	-2689
▁정책을	-2690
▁차베스	-2691
▁최초의	-2692
▁합의했다	-2693
▁말레이시아	-2694
▁갤	-2695
렀다	-2696
서부	-2697
▁가스	-2698
▁개정	-2699
▁늘어	-2700
▁연속	-2701
▁의혹	-2702
대에서	-2703
▁목표로	-2704
▁우리의	-2705
▁끊	-2706
▁삶	-2707
개발	-2708
량을	-2709
상은	-2710
성의	-2711
▁경매	-2712
▁기상	-2713
▁대기	-2714
▁여왕	-2715
▁올메	-2716
▁코소	-2717
▁규모의	-2718
▁방안을	-2719
▁북한을	-2720
▁우려를	-2721
▁정부를	-2722
▁밝혀지지	-2723
▁묻	-2724
나이	-2725
률이	-2726
위에	-2727
▁가질	-2728
▁것인	-2729
▁경비	-2730
▁기준	-2731
▁년의	-2732
▁바람	-2733
▁샤리	-2734
▁성화	-2735
▁애플	-2736
▁유전	-2737
▁인사	-2738
▁평양	-2739
▁해군	-2740
▁현대	-2741
▁마드리	-2742
▁보여주	-2743
▁숨졌다	-2744
▁이야기	-2745
▁판결을	-2746
▁휴대폰	-2747
캐롤라이나	-2748
동부	-2749
로서	-2750
▁간의	-2751
▁경호	-2752
▁년이	-2753
▁이민	-2754
▁청소	-2755
▁총재	-2756
▁항상	-2757
▁힐튼	-2758
▁게이츠	-2759
▁관련해	-2760
▁서비스	-2761
▁월부터	-2762
▁최악의	-2763
▁숨졌다고	-2764
▁듣	-2765
방을	-2766
웠다	-2767
▁동결	-2768
▁물론	-2769
▁백만	-2770
▁병력	-2771
▁블레	-2772
▁자주	-2773
▁총기	-2774
▁투입	-2775
▁그리스	-2776
▁법안을	-2777
▁판사는	-2778
위원회는	-2779
▁일리노이	-2780
▁잉글랜드	-2781
▁굴	-2782
▁덴	-2783
▁옷	-2784
군을	-2785
로스	-2786
문이	-2787
▁도중	-2788
▁동원	-2789
▁목소	-2790
▁수반	-2791
▁신뢰	-2792
▁아들	-2793
▁전혀	-2794
▁주최	-2795
▁대의원	-2796
▁사무실	-2797
▁수니파	-2798
▁유명한	-2799
였습니다	-2800
▁반대하는	-2801
▁주민들은	-2802
▁듯	-2803
▁좀	-2804
▁품	-2805
위가	-2806
▁고래	-2807
▁마일	-2808
▁머물	-2809
▁싶어	-2810
▁없어	-2811
▁여기	-2812
▁장난	-2813
▁저녁	-2814
▁파손	-2815
▁피터	-2816
하다는	-2817
▁스포츠	-2818
▁카메라	-2819
▁병원으로	-2820
▁걱	-2821
국을	-2822
되며	-2823
르의	-2824
마다	-2825
연구	-2826
▁대형	-2827
▁알렉	-2828
▁자세	-2829
았다고	-2830
▁스피어	-2831
▁잇	-2832
지와	-2833
해진	-2834
▁기억	-2835
▁놓고	-2836
▁세력	-2837
▁신청	-2838
▁억류	-2839
▁청와	-2840
리우드	-2841
일랜드	-2842
▁그에게	-2843
▁시장은	-2844
▁입었다	-2845
▁전까지	-2846
▁세르비아	-2847
▁괴	-2848
▁멸	-2849
▁흡	-2850
그룹	-2851
브라	-2852
아니	-2853
역을	-2854
치의	-2855
평양	-2856
항공	-2857
▁고양	-2858
▁구입	-2859
▁몇몇	-2860
▁상징	-2861
▁임무	-2862
▁작가	-2863
▁작전	-2864
▁저는	-2865
▁직후	-2866
▁클럽	-2867
났다고	-2868
랫동안	-2869
▁있음을	-2870
▁제임스	-2871
▁지수는	-2872
다른	-2873
바는	-2874
안보	-2875
위는	-2876
한을	-2877
▁근로	-2878
▁불과	-2879
▁블랙	-2880
▁산불	-2881
▁순간	-2882
▁야생	-2883
▁약물	-2884
▁집단	-2885
렸다고	-2886
▁만명의	-2887
▁만명이	-2888
▁부시는	-2889
▁관리들은	-2890
▁오랫동안	-2891
▁오바마의	-2892
▁돕	-2893
▁벽	-2894
▁톰	-2895
결과	-2896
데미	-2897
도시	-2898
이기	-2899
▁군인	-2900
▁기본	-2901
▁실업	-2902
▁얼굴	-2903
▁우크	-2904
한다면	-2905
▁방문한	-2906
▁병원에서	-2907
▁선거에서	-2908
▁부상했다고	-2909
▁테러리스트	-2910
▁칠	-2911
민주	-2912
▁것도	-2913
▁공군	-2914
▁낮은	-2915
▁대처	-2916
▁동시	-2917
▁무가	-2918
▁분기	-2919
▁분노	-2920
▁새로	-2921
▁언제	-2922
▁의한	-2923
▁적절	-2924
▁주인	-2925
▁카라	-2926
▁하이	-2927
▁경찰과	-2928
▁나머지	-2929
▁보이는	-2930
▁가능성을	-2931
▁발견됐다	-2932
▁델	-2933
▁땅	-2934
▁밴	-2935
▁빙	-2936
경찰	-2937
대원	-2938
▁겪고	-2939
▁국회	-2940
▁물질	-2941
▁민병	-2942
▁부동	-2943
▁빠른	-2944
▁생물	-2945
▁싱가	-2946
▁존재	-2947
▁주는	-2948
▁지연	-2949
▁찰스	-2950
이지만	-2951
▁소식을	-2952
▁의견을	-2953
▁이들을	-2954
▁이집트	-2955
▁주장을	-2956
▁중이다	-2957
하겠다는	-2958
▁비상사태	-2959
▁크리스토	-2960
▁회담에서	-2961
국인	-2962
기관	-2963
우리	-2964
트리	-2965
▁강타	-2966
▁나가	-2967
▁나이	-2968
▁네덜	-2969
▁느끼	-2970
▁무사	-2971
▁불러	-2972
▁사살	-2973
▁유대	-2974
▁인상	-2975
▁홍보	-2976
▁떨어져	-2977
▁미군의	-2978
▁시작된	-2979
▁연설을	-2980
▁자금을	-2981
▁필요가	-2982
▁하원의	-2983
▁후보에	-2984
▁계속해서	-2985
▁민주당의	-2986
▁부인했다	-2987
▁연설에서	-2988
▁올메르트	-2989
구를	-2990
량이	-2991
복을	-2992
어야	-2993
율이	-2994
협회	-2995
▁맞아	-2996
▁매일	-2997
▁모여	-2998
▁열릴	-2999
▁완화	-3000
▁저항	-3001
▁절반	-3002
▁차기	-3003
▁태어	-3004
▁허가	-3005
으로서	-3006
▁발생할	-3007
▁책임을	-3008
▁헨	-3009
라의	-3010
▁골을	-3011
▁다니	-3012
▁당신	-3013
▁바르	-3014
▁부패	-3015
▁오랜	-3016
▁작성	-3017
▁최신	-3018
▁행정	-3019
아니라	-3020
▁마무리	-3021
▁보이고	-3022
▁원자로	-3023
▁일어난	-3024
들로부터	-3025
▁매케인은	-3026
▁소식통은	-3027
▁전망이다	-3028
▁사망했으며	-3029
당이	-3030
았던	-3031
우고	-3032
정은	-3033
▁나무	-3034
▁노출	-3035
▁라며	-3036
▁목적	-3037
▁박물	-3038
▁배럴	-3039
▁번의	-3040
▁예방	-3041
▁왕세	-3042
▁위기	-3043
▁죽음	-3044
▁지배	-3045
▁집계	-3046
▁태양	-3047
당국은	-3048
라비아	-3049
▁보냈다	-3050
▁의원이	-3051
▁집에서	-3052
▁앉	-3053
▁층	-3054
가스	-3055
내고	-3056
르기	-3057
장관	-3058
▁개봉	-3059
▁그중	-3060
▁끌어	-3061
▁떠나	-3062
▁멸종	-3063
▁법률	-3064
▁알아	-3065
▁크로	-3066
▁흑인	-3067
프리카	-3068
▁대표팀	-3069
▁번째로	-3070
▁월까지	-3071
▁웨스트	-3072
▁우크라이나	-3073
▁척	-3074
▁킬	-3075
▁혹	-3076
▁획	-3077
조직	-3078
트에	-3079
▁개를	-3080
▁기반	-3081
▁리처	-3082
▁망명	-3083
▁엄마	-3084
▁연장	-3085
▁조작	-3086
▁주일	-3087
▁질병	-3088
▁축하	-3089
▁파악	-3090
주에서	-3091
쳤다고	-3092
▁기자는	-3093
▁남성이	-3094
▁말하고	-3095
▁월드컵	-3096
▁위기에	-3097
▁이들이	-3098
▁일부는	-3099
만아니라	-3100
▁아카데미	-3101
▁멀	-3102
유가	-3103
▁결론	-3104
▁고든	-3105
▁내각	-3106
▁노래	-3107
▁두려	-3108
▁방향	-3109
▁사례	-3110
▁상당	-3111
▁조금	-3112
▁처벌	-3113
▁태풍	-3114
▁통합	-3115
▁후반	-3116
▁비슷한	-3117
▁석방을	-3118
▁수백만	-3119
▁스스로	-3120
▁이밖에	-3121
▁최소한	-3122
베이니아	-3123
▁고속도로	-3124
▁메시지를	-3125
▁허리케인	-3126
▁펜실베이니아	-3127
▁쥐	-3128
▁휩	-3129
가인	-3130
디에	-3131
리며	-3132
산업	-3133
▁교체	-3134
▁법정	-3135
▁시신	-3136
▁실제	-3137
▁원조	-3138
▁이혼	-3139
▁진입	-3140
▁파리	-3141
▁한미	-3142
▁경기에	-3143
▁그렇게	-3144
▁기록을	-3145
▁기자가	-3146
▁무가베	-3147
▁사우스	-3148
▁실시된	-3149
▁행동을	-3150
▁확실히	-3151
▁후보로	-3152
▁있었으며	-3153
▁죄	-3154
단한	-3155
소로	-3156
웨이	-3157
포를	-3158
푸르	-3159
▁교수	-3160
▁내린	-3161
▁보장	-3162
▁센트	-3163
▁얻은	-3164
▁음식	-3165
▁주고	-3166
▁총을	-3167
▁핵심	-3168
하메드	-3169
▁대화를	-3170
▁바란다	-3171
▁블레어	-3172
▁아직도	-3173
▁알려져	-3174
▁차지했다	-3175
▁낳	-3176
▁색	-3177
▁혈	-3178
분이	-3179
스테	-3180
점에	-3181
프라	-3182
▁감축	-3183
▁벌인	-3184
▁안정	-3185
▁원자	-3186
▁찬성	-3187
▁파타	-3188
▁표시	-3189
▁해제	-3190
▁확대	-3191
겠지만	-3192
▁경제적	-3193
▁노력을	-3194
▁변호사	-3195
▁스티브	-3196
▁없다는	-3197
▁여명의	-3198
▁위험한	-3199
▁이란은	-3200
▁이용해	-3201
▁테러로	-3202
▁회담은	-3203
▁대통령에게	-3204
▁크리스토퍼	-3205
▁자살폭탄테러	-3206
만한	-3207
보고	-3208
보호	-3209
어로	-3210
증을	-3211
티아	-3212
한이	-3213
▁단지	-3214
▁대체	-3215
▁보험	-3216
▁쇼핑	-3217
▁아기	-3218
▁자료	-3219
▁전력	-3220
▁주로	-3221
인들의	-3222
▁가격이	-3223
▁가까운	-3224
▁기회를	-3225
▁문제는	-3226
▁소프트	-3227
▁아르헨	-3228
▁나타냈다	-3229
▁궁	-3230
▁긍	-3231
▁멜	-3232
▁봤	-3233
▁윤	-3234
드와	-3235
란시	-3236
분을	-3237
슨이	-3238
지게	-3239
▁네팔	-3240
▁당한	-3241
▁며칠	-3242
▁서명	-3243
▁아부	-3244
▁임신	-3245
▁조정	-3246
▁표명	-3247
▁결과가	-3248
▁리처드	-3249
▁법원은	-3250
▁스미스	-3251
▁영화를	-3252
▁일본은	-3253
▁정확한	-3254
▁추가로	-3255
▁코소보	-3256
▁사용하는	-3257
▁자신들이	-3258
실험	-3259
체가	-3260
치로	-3261
하우	-3262
▁가정	-3263
▁그와	-3264
▁기독	-3265
▁내부	-3266
▁놀라	-3267
▁못할	-3268
▁브리	-3269
▁스테	-3270
▁이웃	-3271
원으로	-3272
▁불만을	-3273
▁위해서	-3274
▁임무를	-3275
▁있는데	-3276
▁테러를	-3277
함으로써	-3278
▁대통령에	-3279
▁사무총장은	-3280
▁래	-3281
국에	-3282
바로	-3283
승을	-3284
청은	-3285
항을	-3286
▁국왕	-3287
▁등이	-3288
▁블로	-3289
▁알게	-3290
▁인기	-3291
▁지급	-3292
▁케네	-3293
▁클라	-3294
▁피랍	-3295
▁하게	-3296
됐지만	-3297
드에서	-3298
식으로	-3299
환으로	-3300
▁나섰다	-3301
▁수술을	-3302
▁스티븐	-3303
▁않다고	-3304
▁여행객	-3305
▁용의자	-3306
▁출신의	-3307
▁공화당의	-3308
▁상황에서	-3309
▁끼	-3310
▁랭	-3311
개의	-3312
격이	-3313
르크	-3314
선에	-3315
우는	-3316
티는	-3317
▁가는	-3318
▁대답	-3319
▁라스	-3320
▁말한	-3321
▁북극	-3322
▁비자	-3323
▁속에	-3324
▁손을	-3325
▁순찰	-3326
▁저장	-3327
▁주년	-3328
▁지키	-3329
▁차관	-3330
▁한번	-3331
체스터	-3332
▁검사를	-3333
▁동성애	-3334
▁문제로	-3335
▁사람들	-3336
▁살해한	-3337
▁엘리자	-3338
▁하워드	-3339
▁위원장은	-3340
▁페르베즈	-3341
▁곡	-3342
▁르	-3343
▁셰	-3344
▁숙	-3345
디아	-3346
디어	-3347
비가	-3348
체를	-3349
타임	-3350
▁개입	-3351
▁걱정	-3352
▁뛰어	-3353
▁빨리	-3354
▁사드	-3355
▁입장	-3356
▁점령	-3357
▁페더	-3358
▁해변	-3359
▁확정	-3360
▁관리는	-3361
▁시위대	-3362
▁주에서	-3363
▁줄어들	-3364
▁후보의	-3365
▁사이클론	-3366
▁시작됐다	-3367
▁꺾	-3368
▁염	-3369
니가	-3370
면을	-3371
출을	-3372
▁긍정	-3373
▁기울	-3374
▁시드	-3375
▁애완	-3376
▁즉시	-3377
▁활용	-3378
관계를	-3379
돌리자	-3380
지역에	-3381
▁모스크	-3382
▁시리즈	-3383
▁이번이	-3384
▁참석한	-3385
▁총격을	-3386
▁토요일	-3387
▁후세인	-3388
▁소프트웨	-3389
▁킹	-3390
짜리	-3391
▁기타	-3392
▁되면	-3393
▁바라	-3394
▁분위	-3395
▁쉽게	-3396
▁시에	-3397
▁시티	-3398
▁애틀	-3399
▁장악	-3400
▁증권	-3401
▁화산	-3402
▁흔들	-3403
국으로	-3404
우리는	-3405
이었던	-3406
▁들어가	-3407
▁발언을	-3408
▁얼마나	-3409
▁이전에	-3410
▁테러가	-3411
▁현장에	-3412
▁노대통령	-3413
▁우주비행	-3414
▁이야기를	-3415
▁조사하고	-3416
▁신화통신은	-3417
▁앙	-3418
▁첼	-3419
▁혁	-3420
간다	-3421
경제	-3422
라가	-3423
보가	-3424
비는	-3425
연맹	-3426
▁가택	-3427
▁밀란	-3428
▁반발	-3429
▁복용	-3430
▁연루	-3431
▁오마	-3432
▁이행	-3433
▁주가	-3434
▁집을	-3435
▁추방	-3436
관들은	-3437
자들에	-3438
지면서	-3439
▁구성된	-3440
▁그녀가	-3441
▁기술을	-3442
▁말리키	-3443
▁변화를	-3444
▁상황에	-3445
▁실제로	-3446
▁아바스	-3447
▁보고서를	-3448
▁수천명의	-3449
▁아이들을	-3450
▁약속했다	-3451
▁롤	-3452
가의	-3453
고한	-3454
글라	-3455
기고	-3456
되면	-3457
마크	-3458
스키	-3459
오와	-3460
▁구글	-3461
▁내에	-3462
▁노벨	-3463
▁대화	-3464
▁무시	-3465
▁운행	-3466
▁자택	-3467
▁최저	-3468
질랜드	-3469
▁계획이	-3470
▁드라마	-3471
▁발표할	-3472
▁보이지	-3473
▁얻었다	-3474
▁행위를	-3475
▁구체적인	-3476
▁대부분은	-3477
▁유럽연합	-3478
▁현장에서	-3479
▁꾸	-3480
▁앓	-3481
들린	-3482
라늄	-3483
리언	-3484
부와	-3485
셀로	-3486
이던	-3487
정보	-3488
주를	-3489
하길	-3490
환을	-3491
▁감행	-3492
▁다가	-3493
▁만족	-3494
▁먼저	-3495
▁메이	-3496
▁수퍼	-3497
▁신속	-3498
▁실망	-3499
▁제이	-3500
▁프레	-3501
기에서	-3502
사에서	-3503
하려고	-3504
▁경찰관	-3505
▁기독교	-3506
▁의장은	-3507
▁준비가	-3508
▁차량을	-3509
▁청소년	-3510
▁통신은	-3511
▁투표를	-3512
▁맨체스터	-3513
▁없었다고	-3514
▁요구하는	-3515
▁인터뷰를	-3516
▁콘돌리자	-3517
▁할리우드	-3518
▁이스라엘의	-3519
▁몬	-3520
다가	-3521
르토	-3522
슬러	-3523
제에	-3524
▁곳을	-3525
▁소요	-3526
▁소지	-3527
▁연락	-3528
▁이하	-3529
▁장애	-3530
▁조각	-3531
▁직면	-3532
▁캠프	-3533
▁탈출	-3534
▁형태	-3535
리포터	-3536
▁것처럼	-3537
▁대사는	-3538
▁독립을	-3539
▁실시한	-3540
▁압력을	-3541
▁여행을	-3542
▁외무부	-3543
▁포르투	-3544
▁뉴질랜드	-3545
▁서비스를	-3546
▁아이들이	-3547
▁아르헨티나	-3548
▁콩	-3549
리오	-3550
▁가입	-3551
▁고문	-3552
▁나달	-3553
▁날씨	-3554
▁보석	-3555
▁와인	-3556
▁원유	-3557
▁유니	-3558
▁응답	-3559
▁인종	-3560
▁하원	-3561
때문에	-3562
지수는	-3563
▁거대한	-3564
▁시상식	-3565
▁싱가포	-3566
▁아이를	-3567
▁이르는	-3568
▁테러범	-3569
▁못했다고	-3570
▁않는다고	-3571
▁중이라고	-3572
▁지진으로	-3573
▁필요하다	-3574
▁빼	-3575
▁쌍	-3576
▁웃	-3577
가에	-3578
계에	-3579
디는	-3580
무역	-3581
배우	-3582
재판	-3583
제는	-3584
트남	-3585
호를	-3586
▁글로	-3587
▁끝난	-3588
▁미시	-3589
▁법안	-3590
▁완전	-3591
▁우선	-3592
▁자국	-3593
▁찾기	-3594
▁휘발	-3595
더라도	-3596
▁국가의	-3597
▁리버풀	-3598
▁사건의	-3599
▁역사상	-3600
▁요구한	-3601
▁위협을	-3602
▁전쟁을	-3603
▁테이프	-3604
▁회담이	-3605
▁인정했다	-3606
▁포함되어	-3607
▁하락했다	-3608
▁멋	-3609
▁얘	-3610
▁옆	-3611
▁훌	-3612
고래	-3613
네이	-3614
량의	-3615
미르	-3616
선이	-3617
정책	-3618
호가	-3619
▁""	-3620
▁긴장	-3621
▁몰아	-3622
▁물리	-3623
▁법적	-3624
▁여당	-3625
▁외곽	-3626
▁위안	-3627
▁이재	-3628
▁입양	-3629
▁전기	-3630
▁크루	-3631
▁협조	-3632
▁화장	-3633
사들이	-3634
▁강하게	-3635
▁소송을	-3636
▁속에서	-3637
▁이것이	-3638
▁중에는	-3639
▁했으며	-3640
▁회원국	-3641
란시스코	-3642
▁총선에서	-3643
▁학생들이	-3644
▁빛	-3645
▁섹	-3646
드에	-3647
르가	-3648
워크	-3649
축구	-3650
츠는	-3651
▁가수	-3652
▁김정	-3653
▁방어	-3654
▁브루	-3655
▁소개	-3656
▁예술	-3657
▁요르	-3658
▁장례	-3659
▁철회	-3660
상으로	-3661
왔다고	-3662
하라는	-3663
▁공격이	-3664
▁단체는	-3665
▁불가능	-3666
▁조지아	-3667
▁주인공	-3668
▁체포된	-3669
▁최근의	-3670
▁영국에서	-3671
▁포르투갈	-3672
▁공식적으로	-3673
과는	-3674
랑카	-3675
미터	-3676
시티	-3677
주교	-3678
준다	-3679
팀은	-3680
▁기구	-3681
▁대북	-3682
▁상업	-3683
▁세기	-3684
▁아래	-3685
▁유세	-3686
▁이른	-3687
▁전면	-3688
▁증명	-3689
▁질문	-3690
▁하다	-3691
▁해적	-3692
▁협의	-3693
격으로	-3694
래스카	-3695
사회의	-3696
플레이	-3697
▁베트남	-3698
▁선거를	-3699
▁소비자	-3700
▁요구를	-3701
▁의사를	-3702
▁이상을	-3703
▁있으나	-3704
▁한국과	-3705
▁회담에	-3706
▁요구하고	-3707
▁엘리자베스	-3708
▁덮	-3709
간에	-3710
만의	-3711
수도	-3712
주로	-3713
쪽에	-3714
처를	-3715
통신	-3716
▁내놓	-3717
▁방해	-3718
▁보냈	-3719
▁에는	-3720
▁올랐	-3721
▁외환	-3722
▁육군	-3723
▁음모	-3724
▁접속	-3725
▁좋지	-3726
▁주석	-3727
▁초기	-3728
▁화성	-3729
▁화학	-3730
스럽게	-3731
▁곳으로	-3732
▁년에는	-3733
▁됐다고	-3734
▁않도록	-3735
▁않으면	-3736
▁알려지지	-3737
▁웹사이트에	-3738
▁꿈	-3739
▁훨	-3740
골을	-3741
나와	-3742
동물	-3743
렇게	-3744
리칸	-3745
시각	-3746
십자	-3747
아몬	-3748
아이	-3749
일린	-3750
치지	-3751
▁강경	-3752
▁거짓	-3753
▁답변	-3754
▁로봇	-3755
▁배심	-3756
▁불참	-3757
▁수정	-3758
▁토니	-3759
▁해고	-3760
▁향후	-3761
▁훨씬	-3762
적이고	-3763
▁관리가	-3764
▁벌어진	-3765
▁사용할	-3766
▁야당인	-3767
▁장관이	-3768
▁네덜란드	-3769
▁대부분이	-3770
▁말합니다	-3771
▁입었다고	-3772
▁칭	-3773
령을	-3774
르지	-3775
브는	-3776
수한	-3777
원과	-3778
전의	-3779
주일	-3780
하마	-3781
▁갖추	-3782
▁개국	-3783
▁검색	-3784
▁랭킹	-3785
▁로스	-3786
▁믿고	-3787
▁복제	-3788
▁사기	-3789
▁사법	-3790
▁수영	-3791
▁온난	-3792
▁유혈	-3793
▁일은	-3794
▁콘서	-3795
▁호소	-3796
▁획득	-3797
해졌다	-3798
▁대학의	-3799
▁밖으로	-3800
▁반응을	-3801
▁반정부	-3802
▁부동산	-3803
▁비롯한	-3804
▁사태가	-3805
▁에이즈	-3806
▁영화는	-3807
▁오스트	-3808
▁의회의	-3809
▁이라는	-3810
▁일어나	-3811
▁있는지	-3812
▁한반도	-3813
▁항공사	-3814
▁만들었다	-3815
▁모하메드	-3816
▁예정이며	-3817
▁지지하는	-3818
▁크리스마스	-3819
▁필요하다고	-3820
▁흘	-3821
데타	-3822
슨의	-3823
어스	-3824
프의	-3825
▁거뒀	-3826
▁걸어	-3827
▁관여	-3828
▁리콜	-3829
▁반기	-3830
▁부대	-3831
▁부문	-3832
▁수집	-3833
▁스웨	-3834
▁스코	-3835
▁심리	-3836
▁적극	-3837
▁지목	-3838
▁집에	-3839
▁착용	-3840
▁패배	-3841
었으나	-3842
▁경제학	-3843
▁매들린	-3844
▁방문할	-3845
▁사람을	-3846
▁우승을	-3847
▁정치적인	-3848
▁붉	-3849
▁택	-3850
▁흉	-3851
거리	-3852
금이	-3853
됐고	-3854
실에	-3855
점이	-3856
측의	-3857
터를	-3858
트릭	-3859
▁가득	-3860
▁마카	-3861
▁산타	-3862
▁스리	-3863
▁인하	-3864
▁잠재	-3865
▁헤즈	-3866
에게는	-3867
▁계획에	-3868
▁모습이	-3869
▁사람의	-3870
▁여성은	-3871
▁우라늄	-3872
▁일본이	-3873
▁포함해	-3874
▁핵실험	-3875
▁휘발유	-3876
▁받아들이	-3877
▁않았으며	-3878
▁밑	-3879
▁텔	-3880
대전	-3881
바다	-3882
인에	-3883
측에	-3884
▁국무	-3885
▁문을	-3886
▁변경	-3887
▁삼성	-3888
▁서식	-3889
▁성향	-3890
▁앨범	-3891
▁영변	-3892
▁영어	-3893
▁음반	-3894
▁일로	-3895
▁장을	-3896
▁전개	-3897
▁착수	-3898
▁침해	-3899
▁캠페	-3900
▁탁신	-3901
▁탐사	-3902
▁피트	-3903
▁해산	-3904
스트로	-3905
▁결정은	-3906
▁된다고	-3907
▁불리는	-3908
▁수사를	-3909
▁의회가	-3910
▁쿠데타	-3911
▁페일린	-3912
▁협상이	-3913
▁희생자	-3914
▁거주하는	-3915
▁드러났다	-3916
▁언급하지	-3917
▁현지시각	-3918
프란시스코	-3919
▁발견했다고	-3920
▁혜	-3921
계의	-3922
계획	-3923
단에	-3924
데시	-3925
렬한	-3926
류의	-3927
리드	-3928
리조	-3929
므로	-3930
▁공중	-3931
▁로이	-3932
▁마르	-3933
▁마치	-3934
▁성인	-3935
▁소행	-3936
▁영토	-3937
▁적은	-3938
▁천연	-3939
▁치명	-3940
▁카페	-3941
▁하와	-3942
▁힘든	-3943
나이티	-3944
▁경찰의	-3945
▁김정일	-3946
▁들었다	-3947
▁론스타	-3948
▁반기문	-3949
▁북한과	-3950
▁압둘라	-3951
▁일간의	-3952
▁헤즈볼	-3953
무장관이	-3954
▁때문이다	-3955
▁러시아의	-3956
▁국무장관은	-3957
▁샌프란시스코	-3958
▁봄	-3959
▁뽑	-3960
▁액	-3961
▁캄	-3962
관에	-3963
병을	-3964
업이	-3965
영화	-3966
자기	-3967
차가	-3968
티모	-3969
표를	-3970
함을	-3971
했기	-3972
▁나쁜	-3973
▁네트	-3974
▁달리	-3975
▁대량	-3976
▁방침	-3977
▁법원	-3978
▁소탕	-3979
▁약간	-3980
▁오사	-3981
▁출시	-3982
▁치안	-3983
▁폭우	-3984
▁형성	-3985
틀랜드	-3986
▁권리를	-3987
▁남북한	-3988
▁남자가	-3989
▁당했다	-3990
▁대법원	-3991
▁바라고	-3992
▁발언은	-3993
▁우려가	-3994
▁원하는	-3995
▁이끌어	-3996
▁이번주	-3997
▁크라이	-3998
▁태평양	-3999
▁경선에서	-4000
▁당선인은	-4001
▁대변인인	-4002
▁떨어졌다	-4003
▁방법으로	-4004
▁어려움을	-4005
▁챔피언스	-4006
▁처음이다	-4007
▁체포됐다	-4008
금융	-4009
나가	-4010
담을	-4011
만큼	-4012
치에	-4013
평화	-4014
▁건의	-4015
▁걸릴	-4016
▁권고	-4017
▁그곳	-4018
▁기능	-4019
▁담긴	-4020
▁도달	-4021
▁동반	-4022
▁맞서	-4023
▁무력	-4024
▁무릎	-4025
▁물러	-4026
▁베를	-4027
▁서방	-4028
▁스파	-4029
▁시절	-4030
▁실행	-4031
▁심한	-4032
▁자리	-4033
▁지출	-4034
▁추산	-4035
▁특파	-4036
▁허락	-4037
▁나타나	-4038
▁리비아	-4039
▁신문은	-4040
▁익명의	-4041
▁조사에	-4042
▁주식시	-4043
▁중국과	-4044
▁중국에	-4045
▁최초로	-4046
▁항공기	-4047
▁핵시설	-4048
이지리아	-4049
▁다이아몬	-4050
▁동영상을	-4051
▁사건으로	-4052
▁생각하고	-4053
▁아이오와	-4054
▁예상했다	-4055
▁파키스탄의	-4056
▁든	-4057
▁톤	-4058
류를	-4059
워즈	-4060
음이	-4061
졌던	-4062
▁교회	-4063
▁누군	-4064
▁대다	-4065
▁등장	-4066
▁맨유	-4067
▁붉은	-4068
▁중재	-4069
▁취할	-4070
▁측근	-4071
▁폐기	-4072
▁표를	-4073
사들은	-4074
▁가능성	-4075
▁관계가	-4076
▁그들을	-4077
▁달라이	-4078
▁됩니다	-4079
▁밖에서	-4080
▁벗어나	-4081
▁사건과	-4082
▁선거캠	-4083
▁아이의	-4084
▁올렸다	-4085
▁의회는	-4086
▁충분한	-4087
▁치러진	-4088
▁공개했다	-4089
▁모스크바	-4090
▁사망자가	-4091
▁알래스카	-4092
▁열린우리	-4093
▁이라크전	-4094
▁해리포터	-4095
▁현재까지	-4096
▁달라이라마	-4097
격한	-4098
동이	-4099
바라	-4100
원인	-4101
▁가르	-4102
▁도와	-4103
▁라파	-4104
▁마틴	-4105
▁버마	-4106
▁부총	-4107
▁아스	-4108
▁예산	-4109
▁옮겨	-4110
▁유리	-4111
▁잠시	-4112
▁재산	-4113
▁점점	-4114
▁찾고	-4115
▁학살	-4116
회사인	-4117
▁게임을	-4118
▁금요일	-4119
▁내용이	-4120
▁라운드	-4121
▁밝히고	-4122
▁방글라	-4123
▁시위가	-4124
▁시작한	-4125
▁일주일	-4126
▁작전을	-4127
▁총리와	-4128
▁케네디	-4129
▁하나의	-4130
▁화재가	-4131
▁도착했다	-4132
▁부상했다	-4133
▁성공했다	-4134
▁여자친구	-4135
▁유나이티	-4136
▁의원들은	-4137
▁주장하는	-4138
▁중국에서	-4139
▁해결하기	-4140
▁나이지리아	-4141
▁이스라엘과	-4142
▁빚	-4143
▁켄	-4144
▁흐	-4145
건을	-4146
공화	-4147
됐을	-4148
되자	-4149
리게	-4150
불어	-4151
시에	-4152
져야	-4153
차로	-4154
켰다	-4155
하라	-4156
후드	-4157
▁경계	-4158
▁그루	-4159
▁마흐	-4160
▁만날	-4161
▁보통	-4162
▁수요	-4163
▁일정	-4164
▁자랑	-4165
▁정기	-4166
▁찾는	-4167
▁초대	-4168
▁측은	-4169
▁커피	-4170
▁회견	-4171
▁훌륭	-4172
실에서	-4173
▁관심이	-4174
▁대변인	-4175
▁더불어	-4176
▁루이스	-4177
▁반군이	-4178
▁발표된	-4179
▁요르단	-4180
▁이렇게	-4181
▁제안을	-4182
▁했지만	-4183
함에따라	-4184
▁노력하고	-4185
▁아일랜드	-4186
▁이곳에서	-4187
▁일환으로	-4188
▁추정되는	-4189
""	-4190
▁걷	-4191
▁뿌	-4192
군에	-4193
대학	-4194
도르	-4195
목을	-4196
미디	-4197
양의	-4198
율은	-4199
타나	-4200
▁겨울	-4201
▁권력	-4202
▁나를	-4203
▁나스	-4204
▁대출	-4205
▁도전	-4206
▁맞이	-4207
▁분의	-4208
▁수송	-4209
▁스키	-4210
▁시기	-4211
▁자이	-4212
▁추측	-4213
▁치열	-4214
▁칠레	-4215
▁침체	-4216
▁명령을	-4217
▁시위에	-4218
▁아무도	-4219
▁여성의	-4220
▁자리를	-4221
▁전화를	-4222
▁회사의	-4223
▁회사인	-4224
프로그램	-4225
▁타임즈는	-4226
▁오스트리아	-4227
▁이스라엘이	-4228
▁지도자들은	-4229
▁바그다드에서	-4230
▁균	-4231
▁딜	-4232
▁옥	-4233
나미	-4234
내에	-4235
라덴	-4236
만은	-4237
바키	-4238
용을	-4239
훼손	-4240
▁개막	-4241
▁돌려	-4242
▁보면	-4243
▁봉쇄	-4244
▁불을	-4245
▁산악	-4246
▁새끼	-4247
▁서브	-4248
▁성과	-4249
▁시인	-4250
▁식품	-4251
▁어렵	-4252
▁에도	-4253
▁여겨	-4254
▁의존	-4255
▁출석	-4256
▁콜로	-4257
▁통치	-4258
▁통화	-4259
▁페루	-4260
▁편집	-4261
▁포경	-4262
▁폭락	-4263
▁하늘	-4264
▁합동	-4265
▁호세	-4266
▁가까이	-4267
▁갑자기	-4268
▁것보다	-4269
▁경제가	-4270
▁공격에	-4271
▁년간의	-4272
▁생각을	-4273
▁생활을	-4274
▁시신을	-4275
▁특별한	-4276
▁피해가	-4277
▁계속되고	-4278
▁마이크로	-4279
▁방문했다	-4280
▁보고했다	-4281
▁스리랑카	-4282
▁연구진은	-4283
▁남아프리카	-4284
▁대선후보인	-4285
▁방글라데시	-4286
▁넓	-4287
▁뒷	-4288
▁뮤	-4289
▁짧	-4290
나마	-4291
세가	-4292
세로	-4293
세츠	-4294
스틴	-4295
었을	-4296
지어	-4297
▁끝나	-4298
▁나누	-4299
▁매각	-4300
▁메르	-4301
▁바꾸	-4302
▁보관	-4303
▁부여	-4304
▁사냥	-4305
▁스튜	-4306
▁식당	-4307
▁싶다	-4308
▁업무	-4309
▁연관	-4310
▁오염	-4311
▁음주	-4312
▁이메	-4313
▁이중	-4314
▁지정	-4315
▁파티	-4316
▁풀려	-4317
▁피난	-4318
▁합법	-4319
보다는	-4320
상에서	-4321
으로는	-4322
음에도	-4323
▁그것이	-4324
▁모른다	-4325
▁사태를	-4326
▁스위스	-4327
▁유사한	-4328
▁이재민	-4329
▁장난감	-4330
▁장면을	-4331
▁폭발로	-4332
▁보여주는	-4333
▁시장에서	-4334
▁묵	-4335
▁샘	-4336
▁섭	-4337
▁틀	-4338
▁횡	-4339
로드	-4340
발을	-4341
수와	-4342
제도	-4343
▁가옥	-4344
▁건축	-4345
▁그에	-4346
▁남은	-4347
▁내릴	-4348
▁단순	-4349
▁리히	-4350
▁모인	-4351
▁방영	-4352
▁보조	-4353
▁상품	-4354
▁소환	-4355
▁오브	-4356
▁조합	-4357
▁천만	-4358
▁체니	-4359
▁피고	-4360
작업을	-4361
하고자	-4362
▁강력히	-4363
▁경제에	-4364
▁국제유	-4365
▁남아공	-4366
▁니콜라	-4367
▁문제의	-4368
▁아버지	-4369
▁여객기	-4370
▁외교부	-4371
▁의회에	-4372
▁지진이	-4373
▁진행된	-4374
▁청와대	-4375
▁타격을	-4376
▁회의를	-4377
졌습니다	-4378
▁것이라며	-4379
▁부근에서	-4380
▁조사에서	-4381
▁노스캐롤라이나	-4382
▁멈	-4383
▁쏟	-4384
계가	-4385
루살	-4386
르며	-4387
선은	-4388
수에	-4389
실이	-4390
연금	-4391
이크	-4392
주민	-4393
트너	-4394
판을	-4395
▁검거	-4396
▁광산	-4397
▁담배	-4398
▁대리	-4399
▁도입	-4400
▁득표	-4401
▁부과	-4402
▁설득	-4403
▁이익	-4404
▁자산	-4405
▁작동	-4406
▁잔해	-4407
▁장식	-4408
▁진정	-4409
▁파산	-4410
▁파예	-4411
▁판단	-4412
▁합류	-4413
▁힘을	-4414
는지는	-4415
부에서	-4416
있었다	-4417
▁거래를	-4418
▁국경을	-4419
▁다우존	-4420
▁말하는	-4421
▁모두가	-4422
▁무기를	-4423
▁부상자	-4424
▁빠르게	-4425
▁스웨덴	-4426
▁신원을	-4427
▁알렉산	-4428
▁어려운	-4429
▁운동을	-4430
▁이유를	-4431
▁폭탄이	-4432
▁목적으로	-4433
▁시위대가	-4434
▁싱가포르	-4435
▁아메리칸	-4436
▁일자리를	-4437
▁기자회견을	-4438
▁엑	-4439
국적	-4440
봉송	-4441
상과	-4442
시피	-4443
일리	-4444
즈가	-4445
▁개가	-4446
▁걸친	-4447
▁길을	-4448
▁농축	-4449
▁발굴	-4450
▁버스	-4451
▁복구	-4452
▁사찰	-4453
▁생명	-4454
▁성적	-4455
▁세워	-4456
▁앉아	-4457
▁열대	-4458
▁와의	-4459
▁취재	-4460
▁킬로	-4461
▁폭행	-4462
▁휴전	-4463
아시아	-4464
▁관련이	-4465
▁덴마크	-4466
▁민주화	-4467
▁블로그	-4468
▁않지만	-4469
▁연구를	-4470
▁위험이	-4471
▁이후로	-4472
▁조치가	-4473
▁코미디	-4474
▁다르푸르	-4475
▁이와같은	-4476
▁클린턴이	-4477
▁폭탄테러가	-4478
▁챔피언스리그	-4479
▁숫	-4480
네스	-4481
드시	-4482
라디	-4483
린다	-4484
사추	-4485
선의	-4486
아야	-4487
주에	-4488
하였	-4489
혔다	-4490
▁가구	-4491
▁결선	-4492
▁공무	-4493
▁기존	-4494
▁대책	-4495
▁레드	-4496
▁레알	-4497
▁만한	-4498
▁말라	-4499
▁말해	-4500
▁모르	-4501
▁복잡	-4502
▁비록	-4503
▁사담	-4504
▁신체	-4505
▁아웅	-4506
▁유가	-4507
▁재검	-4508
▁전당	-4509
▁전직	-4510
▁조기	-4511
▁줄기	-4512
▁콩고	-4513
▁트리	-4514
▁특정	-4515
▁하면	-4516
▁헬기	-4517
루살렘	-4518
▁것인지	-4519
▁권력을	-4520
▁그동안	-4521
▁논의할	-4522
▁달러로	-4523
▁승무원	-4524
▁에어버	-4525
▁에후드	-4526
▁정확히	-4527
▁혐의가	-4528
▁회사는	-4529
▁고등학교	-4530
▁국방부는	-4531
▁기다리고	-4532
▁시위대는	-4533
▁위원회는	-4534
▁관계자들이	-4535
▁마지막으로	-4536
▁발생했으며	-4537
▁워싱턴에서	-4538
내기	-4539
냐는	-4540
스톤	-4541
시가	-4542
어의	-4543
유지	-4544
프리	-4545
▁강도	-4546
▁강요	-4547
▁관람	-4548
▁귀국	-4549
▁그림	-4550
▁달성	-4551
▁되찾	-4552
▁명도	-4553
▁상점	-4554
▁소수	-4555
▁아동	-4556
▁원제	-4557
▁인공	-4558
▁자기	-4559
▁자본	-4560
▁중독	-4561
▁추적	-4562
▁커플	-4563
▁패션	-4564
▁헤럴	-4565
▁후임	-4566
국장은	-4567
레이크	-4568
움에서	-4569
▁계약을	-4570
▁계획은	-4571
▁돌아가	-4572
▁레이스	-4573
▁마리가	-4574
▁만드는	-4575
▁소식이	-4576
▁시설을	-4577
▁없으며	-4578
▁유럽의	-4579
▁이유는	-4580
▁적십자	-4581
▁주한미	-4582
▁지금은	-4583
▁해결을	-4584
▁바르셀로	-4585
▁보인다고	-4586
▁선거운동	-4587
▁성화봉송	-4588
▁세계대전	-4589
▁운영하는	-4590
▁제안했다	-4591
▁이스라엘은	-4592
▁전했습니다	-4593
▁록	-4594
▁셀	-4595
▁옐	-4596
대회	-4597
로의	-4598
서에	-4599
세포	-4600
없는	-4601
지기	-4602
진다	-4603
▁감바	-4604
▁고조	-4605
▁고향	-4606
▁구출	-4607
▁년을	-4608
▁농민	-4609
▁독재	-4610
▁리그	-4611
▁모색	-4612
▁무죄	-4613
▁받기	-4614
▁빠진	-4615
▁소설	-4616
▁엘리	-4617
▁의학	-4618
▁잃은	-4619
▁자극	-4620
▁자원	-4621
▁장착	-4622
▁전날	-4623
▁절대	-4624
▁출동	-4625
▁코커	-4626
▁흡연	-4627
했는지	-4628
▁결정에	-4629
▁고통을	-4630
▁국제적	-4631
▁네바다	-4632
▁능력을	-4633
▁따라서	-4634
▁마치고	-4635
▁말까지	-4636
▁반드시	-4637
▁방문을	-4638
▁사실상	-4639
▁언론이	-4640
▁있다면	-4641
▁있었고	-4642
▁적절한	-4643
▁파운드	-4644
사추세츠	-4645
이었다고	-4646
▁대선에서	-4647
▁발생하지	-4648
▁승리했다	-4649
▁자리에서	-4650
▁주지사가	-4651
▁과학자들이	-4652
▁폭탄테러로	-4653
▁쇠	-4654
▁캔	-4655
▁털	-4656
기술	-4657
라미	-4658
러스	-4659
시의	-4660
어버	-4661
위로	-4662
자금	-4663
장한	-4664
질을	-4665
튜브	-4666
▁교착	-4667
▁멋진	-4668
▁명예	-4669
▁민족	-4670
▁배제	-4671
▁배출	-4672
▁선발	-4673
▁승려	-4674
▁쓰러	-4675
▁완벽	-4676
▁클리	-4677
▁텔레	-4678
▁하던	-4679
▁훼손	-4680
달라고	-4681
으면서	-4682
▁가격은	-4683
▁가격을	-4684
▁감독이	-4685
▁마리의	-4686
▁받아야	-4687
▁분명히	-4688
▁사장은	-4689
▁샤리프	-4690
▁실종된	-4691
▁안전한	-4692
▁여부는	-4693
▁위기를	-4694
▁총리를	-4695
▁네트워크	-4696
▁다쳤다고	-4697
▁선언했다	-4698
▁역사적인	-4699
▁우려하고	-4700
▁의회에서	-4701
▁일본에서	-4702
▁증가하고	-4703
▁핵무기를	-4704
▁했습니다	-4705
▁외무장관은	-4706
▁값	-4707
▁쌓	-4708
▁컵	-4709
교도	-4710
닷컴	-4711
서가	-4712
서의	-4713
석을	-4714
수인	-4715
언을	-4716
클라	-4717
탄을	-4718
파로	-4719
▁고대	-4720
▁관객	-4721
▁군중	-4722
▁깊은	-4723
▁대를	-4724
▁마찬	-4725
▁명백	-4726
▁브래	-4727
▁소매	-4728
▁신경	-4729
▁앓고	-4730
▁야기	-4731
▁엄청	-4732
▁운송	-4733
▁은신	-4734
▁이사	-4735
▁이양	-4736
▁인식	-4737
▁입증	-4738
▁자선	-4739
▁재활	-4740
▁주문	-4741
▁주차	-4742
▁철도	-4743
▁청문	-4744
▁추구	-4745
▁화물	-4746
됐으나	-4747
들과의	-4748
▁것이고	-4749
▁결과는	-4750
▁관계자	-4751
▁내용은	-4752
▁대가로	-4753
▁법원이	-4754
▁변화가	-4755
▁보좌관	-4756
▁선거에	-4757
▁의사가	-4758
▁이로써	-4759
▁질문을	-4760
▁타이틀	-4761
▁훈련을	-4762
▁공항에서	-4763
▁마찬가지	-4764
▁시스템을	-4765
▁제공하는	-4766
▁지역으로	-4767
▁맹	-4768
▁뼈	-4769
▁읽	-4770
공항	-4771
네자	-4772
니의	-4773
시장	-4774
정거	-4775
터는	-4776
티스	-4777
화된	-4778
▁가난	-4779
▁거쳐	-4780
▁관영	-4781
▁관찰	-4782
▁교환	-4783
▁군부	-4784
▁급속	-4785
▁기지	-4786
▁나갈	-4787
▁나서	-4788
▁대항	-4789
▁디스	-4790
▁만일	-4791
▁매춘	-4792
▁목록	-4793
▁민감	-4794
▁발간	-4795
▁발병	-4796
▁방지	-4797
▁빈곤	-4798
▁생긴	-4799
▁선물	-4800
▁수의	-4801
▁실질	-4802
▁연행	-4803
▁운항	-4804
▁유력	-4805
▁응급	-4806
▁이주	-4807
▁출판	-4808
▁한때	-4809
가에서	-4810
▁당신이	-4811
▁동티모	-4812
▁방송은	-4813
▁승인을	-4814
▁시장에	-4815
▁시장의	-4816
▁안에서	-4817
▁유엔은	-4818
▁제재를	-4819
▁주지사	-4820
▁총선을	-4821
▁기대하고	-4822
▁러시아는	-4823
▁인디애나	-4824
▁국방장관은	-4825
▁발견됐다고	-4826
나의	-4827
대중	-4828
명은	-4829
전은	-4830
지며	-4831
타민	-4832
트라	-4833
▁극복	-4834
▁근본	-4835
▁나아	-4836
▁노예	-4837
▁논평	-4838
▁달려	-4839
▁명확	-4840
▁보잉	-4841
▁불길	-4842
▁비서	-4843
▁사원	-4844
▁선보	-4845
▁유치	-4846
▁저질	-4847
▁카불	-4848
▁통일	-4849
▁필립	-4850
▁해양	-4851
나지르	-4852
됐었다	-4853
베이거	-4854
업체인	-4855
인들을	-4856
▁개월간	-4857
▁고양이	-4858
▁납치된	-4859
▁내용의	-4860
▁당신은	-4861
▁라이트	-4862
▁명에게	-4863
▁못하는	-4864
▁법원에	-4865
▁수익을	-4866
▁승리한	-4867
▁아마디	-4868
▁애틀랜	-4869
▁여러분	-4870
▁여학생	-4871
▁영화의	-4872
▁자세한	-4873
▁제대로	-4874
▁줄리아	-4875
▁증거를	-4876
▁지역은	-4877
▁첫번째	-4878
▁케이블	-4879
▁태어난	-4880
▁대회에서	-4881
▁베나지르	-4882
▁보안관은	-4883
▁서울에서	-4884
▁수상했다	-4885
▁이라크와	-4886
▁체포했다	-4887
▁학생들은	-4888
▁보고서에서	-4889
▁일반적으로	-4890
▁궤	-4891
▁왼	-4892
▁욕	-4893
▁쫓	-4894
라로	-4895
라를	-4896
령은	-4897
안전	-4898
에선	-4899
택을	-4900
틀러	-4901
▁고립	-4902
▁골드	-4903
▁골프	-4904
▁국정	-4905
▁군은	-4906
▁디지	-4907
▁맞춰	-4908
▁미니	-4909
▁보기	-4910
▁삭제	-4911
▁세트	-4912
▁스탠	-4913
▁스프	-4914
▁신임	-4915
▁연주	-4916
▁조선	-4917
▁중순	-4918
▁철저	-4919
▁코스	-4920
▁폐지	-4921
▁항구	-4922
▁행복	-4923
▁환자	-4924
레스트	-4925
정부는	-4926
하기를	-4927
▁공연을	-4928
▁다국적	-4929
▁상태에	-4930
▁스타디	-4931
▁시드니	-4932
▁일정을	-4933
▁자료를	-4934
▁준비를	-4935
▁파트너	-4936
▁프리미	-4937
아라비아	-4938
▁가능성은	-4939
▁발생하는	-4940
▁보유하고	-4941
▁증가했다	-4942
▁계획이라고	-4943
▁프로그램에	-4944
▁낭	-4945
▁펀	-4946
내지	-4947
상황	-4948
일러	-4949
첨단	-4950
피해	-4951
한지	-4952
함이	-4953
해질	-4954
화로	-4955
▁가슴	-4956
▁개표	-4957
▁거두	-4958
▁곤잘	-4959
▁공유	-4960
▁급등	-4961
▁누가	-4962
▁단어	-4963
▁매니	-4964
▁매장	-4965
▁모건	-4966
▁바뀌	-4967
▁보낼	-4968
▁보는	-4969
▁아름	-4970
▁월의	-4971
▁위조	-4972
▁은퇴	-4973
▁재난	-4974
▁재미	-4975
▁차를	-4976
▁체결	-4977
▁출산	-4978
▁합병	-4979
▁거뒀다	-4980
▁검사는	-4981
▁마카오	-4982
▁못하게	-4983
▁사용한	-4984
▁쓰나미	-4985
▁아니면	-4986
▁여성을	-4987
▁전쟁에	-4988
▁충분히	-4989
▁표했다	-4990
▁현재의	-4991
▁혐의에	-4992
▁회사가	-4993
▁거부했다	-4994
▁백악관은	-4995
▁상승했다	-4996
▁예루살렘	-4997
▁와인하우	-4998
▁라스베이거	-4999
▁사우디아라비아	-5000
▁듀	-5001
▁묶	-5002
▁센	-5003
권이	-5004
대와	-5005
르다	-5006
르도	-5007
물에	-5008
범위	-5009
시를	-5010
이란	-5011
일은	-5012
통상	-5013
학자	-5014
▁간주	-5015
▁강풍	-5016
▁과의	-5017
▁그들	-5018
▁극단	-5019
▁나올	-5020
▁단속	-5021
▁로비	-5022
▁리조	-5023
▁만난	-5024
▁만여	-5025
▁무선	-5026
▁바닥	-5027
▁샤라	-5028
▁손상	-5029
▁수를	-5030
▁스캔	-5031
▁시사	-5032
▁쏟아	-5033
▁알바	-5034
▁앤드	-5035
▁얻어	-5036
▁외무	-5037
▁이산	-5038
▁죽은	-5039
▁중지	-5040
▁출입	-5041
▁통한	-5042
▁트레	-5043
▁펠로	-5044
▁펼쳐	-5045
▁협박	-5046
▁후원	-5047
났으며	-5048
되었고	-5049
생활을	-5050
였지만	-5051
▁가치가	-5052
▁같다고	-5053
▁경제를	-5054
▁공격은	-5055
▁디즈니	-5056
▁베를린	-5057
▁북동부	-5058
▁상당한	-5059
▁세금을	-5060
▁시작할	-5061
▁안전을	-5062
▁오래된	-5063
▁원인을	-5064
▁유권자	-5065
▁집으로	-5066
▁폭탄을	-5067
▁한국에	-5068
▁휴대전	-5069
▁런던에서	-5070
▁바이러스	-5071
▁받았으며	-5072
▁이라크를	-5073
▁진행되고	-5074
▁베이징에서	-5075
▁예정입니다	-5076
▁일리노이주	-5077
▁똑	-5078
▁맛	-5079
▁켈	-5080
나우	-5081
너는	-5082
받고	-5083
봤다	-5084
씨가	-5085
와는	-5086
위의	-5087
주고	-5088
햄프	-5089
▁감사	-5090
▁갖게	-5091
▁개방	-5092
▁그리	-5093
▁기밀	-5094
▁기부	-5095
▁나의	-5096
▁도망	-5097
▁마시	-5098
▁묘사	-5099
▁보복	-5100
▁불능	-5101
▁삶을	-5102
▁시달	-5103
▁아흐	-5104
▁알코	-5105
▁올린	-5106
▁유발	-5107
▁임기	-5108
▁입국	-5109
▁조류	-5110
리조나	-5111
사회는	-5112
선에서	-5113
세력이	-5114
▁그래서	-5115
▁그러한	-5116
▁김대중	-5117
▁나오는	-5118
▁나이트	-5119
▁다니엘	-5120
▁대단한	-5121
▁대학생	-5122
▁두번째	-5123
▁말하며	-5124
▁모기지	-5125
▁바스라	-5126
▁배럴당	-5127
▁벌금을	-5128
▁비용을	-5129
▁비타민	-5130
▁사령관	-5131
▁샤라포	-5132
▁시장이	-5133
▁아웅산	-5134
▁잃었다	-5135
▁자신은	-5136
▁자유를	-5137
▁테스트	-5138
플레이션	-5139
▁국민들은	-5140
▁국민들의	-5141
▁미국과의	-5142
▁생각하는	-5143
▁세계은행	-5144
▁용의자가	-5145
▁카르자이	-5146
▁카스트로	-5147
▁호텔에서	-5148
▁사르코지는	-5149
▁윌리엄스는	-5150
▁전세계적으로	-5151
▁갇	-5152
기업	-5153
노동	-5154
담당	-5155
렌스	-5156
력에	-5157
렸던	-5158
률을	-5159
선수	-5160
수사	-5161
위해	-5162
전문	-5163
중한	-5164
탱크	-5165
▁검문	-5166
▁검은	-5167
▁공정	-5168
▁그러	-5169
▁기쁘	-5170
▁나왔	-5171
▁내내	-5172
▁다윈	-5173
▁막을	-5174
▁몸을	-5175
▁방안	-5176
▁세인	-5177
▁스크	-5178
▁쓰촨	-5179
▁압수	-5180
▁인생	-5181
▁점차	-5182
▁존스	-5183
▁지상	-5184
▁청구	-5185
▁측정	-5186
▁폭격	-5187
▁휩싸	-5188
되었던	-5189
카르타	-5190
햄프셔	-5191
▁결과에	-5192
▁구조대	-5193
▁나스닥	-5194
▁레스토	-5195
▁마쳤다	-5196
▁박물관	-5197
▁블라디	-5198
▁오늘날	-5199
학자들은	-5200
▁결의안을	-5201
▁공식적인	-5202
▁뉴욕에서	-5203
▁마감했다	-5204
▁미사일을	-5205
▁실시되는	-5206
▁아웅산수	-5207
▁있었지만	-5208
▁콜로라도	-5209
▁소프트웨어	-5210
▁보도에따르면	-5211
▁덕	-5212
▁멤	-5213
드라	-5214
슬림	-5215
으려	-5216
졌고	-5217
조차	-5218
체의	-5219
프레	-5220
하에	-5221
호는	-5222
화의	-5223
▁감금	-5224
▁거리	-5225
▁걸려	-5226
▁곳은	-5227
▁과격	-5228
▁과도	-5229
▁구금	-5230
▁기사	-5231
▁노르	-5232
▁무료	-5233
▁분에	-5234
▁상공	-5235
▁시각	-5236
▁시내	-5237
▁시속	-5238
▁앞에	-5239
▁올려	-5240
▁인명	-5241
▁재건	-5242
▁지질	-5243
▁체중	-5244
▁초래	-5245
▁침입	-5246
▁투어	-5247
▁혹은	-5248
갔다고	-5249
단체는	-5250
용으로	-5251
했다며	-5252
▁과정을	-5253
▁리히터	-5254
▁베컴은	-5255
▁비용이	-5256
▁산사태	-5257
▁샌디에	-5258
▁오사마	-5259
▁일으킨	-5260
▁재판을	-5261
▁중국을	-5262
▁폴란드	-5263
▁피해자	-5264
▁한국이	-5265
▁호나우	-5266
▁국무장관	-5267
▁오바마와	-5268
▁외교통상	-5269
▁인터넷을	-5270
▁뿐만아니라	-5271
▁주민들에게	-5272
▁꺼	-5273
▁롬	-5274
▁숀	-5275
▁잊	-5276
▁좁	-5277
▁훔	-5278
▁힌	-5279
경기	-5280
권에	-5281
니오	-5282
리나	-5283
범죄	-5284
스런	-5285
에만	-5286
우스	-5287
준비	-5288
중앙	-5289
포드	-5290
환경	-5291
▁가로	-5292
▁개헌	-5293
▁겨냥	-5294
▁고고	-5295
▁년과	-5296
▁돌파	-5297
▁몰려	-5298
▁베르	-5299
▁북쪽	-5300
▁분열	-5301
▁어디	-5302
▁에게	-5303
▁예를	-5304
▁오토	-5305
▁인류	-5306
▁일찍	-5307
▁전인	-5308
▁체코	-5309
▁충격	-5310
▁프린	-5311
가들이	-5312
공화국	-5313
라이언	-5314
올림픽	-5315
▁국가가	-5316
▁국제원	-5317
▁노동자	-5318
▁논의를	-5319
▁독일의	-5320
▁라이벌	-5321
▁발언에	-5322
▁배심원	-5323
▁사용될	-5324
▁선두를	-5325
▁연구는	-5326
▁일부를	-5327
▁집회를	-5328
▁차량이	-5329
▁책임이	-5330
▁토네이	-5331
▁토마스	-5332
▁폭발이	-5333
되었으며	-5334
▁가능성에	-5335
▁구제금융	-5336
▁국민들이	-5337
▁도시에서	-5338
▁레스토랑	-5339
▁만들어진	-5340
▁말했다고	-5341
▁즉각적인	-5342
▁기자들에게	-5343
▁비상사태를	-5344
▁지도자들이	-5345
▁체포했다고	-5346
▁핵프로그램	-5347
▁아프가니스탄에서	-5348
▁객	-5349
▁딕	-5350
▁텐	-5351
▁헐	-5352
▁흰	-5353
다시	-5354
달을	-5355
릴라	-5356
서양	-5357
성과	-5358
이즈	-5359
팀이	-5360
프가	-5361
▁고발	-5362
▁고소	-5363
▁기회	-5364
▁다루	-5365
▁대결	-5366
▁대로	-5367
▁머리	-5368
▁미술	-5369
▁법을	-5370
▁복무	-5371
▁봉사	-5372
▁불편	-5373
▁블루	-5374
▁산림	-5375
▁상을	-5376
▁알라	-5377
▁얻기	-5378
▁온실	-5379
▁의무	-5380
▁이론	-5381
▁재배	-5382
▁절차	-5383
▁정해	-5384
▁진영	-5385
▁차드	-5386
▁찾을	-5387
▁채널	-5388
▁최루	-5389
▁피닉	-5390
▁항소	-5391
▁헨리	-5392
단에서	-5393
됐다는	-5394
력기구	-5395
받았다	-5396
보장이	-5397
빈라덴	-5398
▁논란이	-5399
▁달러가	-5400
▁두려워	-5401
▁상태로	-5402
▁상하이	-5403
▁약속을	-5404
▁예정된	-5405
▁이산화	-5406
▁익명을	-5407
▁차량에	-5408
▁치열한	-5409
▁현장을	-5410
▁훌륭한	-5411
▁결선투표	-5412
▁다우존스	-5413
▁시민들이	-5414
▁자치정부	-5415
▁주장하며	-5416
▁킬로미터	-5417
▁평가했다	-5418
▁회의에서	-5419
▁꼭	-5420
▁쌀	-5421
끄러	-5422
더는	-5423
라델	-5424
메이	-5425
민족	-5426
수록	-5427
아는	-5428
지자	-5429
타는	-5430
화는	-5431
▁공장	-5432
▁급증	-5433
▁높다	-5434
▁눈이	-5435
▁달간	-5436
▁되기	-5437
▁뒤를	-5438
▁명인	-5439
▁못해	-5440
▁물이	-5441
▁벌여	-5442
▁부부	-5443
▁붙잡	-5444
▁사막	-5445
▁새벽	-5446
▁소득	-5447
▁수만	-5448
▁순방	-5449
▁스턴	-5450
▁오딩	-5451
▁옷을	-5452
▁이르	-5453
▁입을	-5454
▁장소	-5455
▁적합	-5456
▁졸업	-5457
▁중부	-5458
▁촉발	-5459
금으로	-5460
직에서	-5461
▁대학교	-5462
▁두바이	-5463
▁둘러싸	-5464
▁머리를	-5465
▁방법이	-5466
▁법안이	-5467
▁블라고	-5468
▁세계의	-5469
▁소장은	-5470
▁심지어	-5471
▁알코올	-5472
▁올해의	-5473
▁완전한	-5474
▁왕세자	-5475
▁월스트	-5476
▁위험에	-5477
▁이곳에	-5478
▁일본에	-5479
▁일으키	-5480
▁저지른	-5481
▁총장은	-5482
▁페르난	-5483
▁프레스	-5484
▁필라델	-5485
위원회가	-5486
▁미시시피	-5487
▁받아들일	-5488
▁비난하고	-5489
▁실패했다	-5490
▁자신에게	-5491
▁차관보는	-5492
▁국제사회의	-5493
▁블라디미르	-5494
▁스코틀랜드	-5495
▁웹사이트를	-5496
▁합의했다고	-5497
▁오사마빈라덴	-5498
▁쓴	-5499
계는	-5500
레나	-5501
비로	-5502
애미	-5503
중에	-5504
즈의	-5505
▁감지	-5506
▁게재	-5507
▁과반	-5508
▁구멍	-5509
▁날아	-5510
▁눈에	-5511
▁늦게	-5512
▁로한	-5513
▁리차	-5514
▁마음	-5515
▁맞추	-5516
▁메릴	-5517
▁미칠	-5518
▁베어	-5519
▁보상	-5520
▁북미	-5521
▁빈민	-5522
▁세포	-5523
▁수하	-5524
▁쌍둥	-5525
▁열어	-5526
▁의약	-5527
▁잡고	-5528
▁존슨	-5529
▁주연	-5530
▁초반	-5531
▁판사	-5532
▁프랭	-5533
▁해임	-5534
▁홍수	-5535
단체가	-5536
라마바	-5537
있다고	-5538
▁결론을	-5539
▁그렇지	-5540
▁그루지	-5541
▁답했다	-5542
▁디자인	-5543
▁마무드	-5544
▁머물고	-5545
▁방송을	-5546
▁벨기에	-5547
▁보내는	-5548
▁보도를	-5549
▁상태가	-5550
▁영화제	-5551
▁이란에	-5552
▁있어서	-5553
▁젊은이	-5554
▁천주교	-5555
▁통신이	-5556
▁패트릭	-5557
▁평화를	-5558
▁활주로	-5559
▁긍정적인	-5560
▁보여줬다	-5561
▁비판했다	-5562
▁사령관은	-5563
▁수백명의	-5564
▁에드워즈	-5565
▁제기했다	-5566
▁중요하다	-5567
▁진술했다	-5568
▁투표에서	-5569
▁프랑스의	-5570
▁지지자들은	-5571
▁캘리포니아주	-5572
▁낼	-5573
▁짓	-5574
거운	-5575
비와	-5576
비의	-5577
셔츠	-5578
위기	-5579
케이	-5580
활동	-5581
히려	-5582
▁구축	-5583
▁금리	-5584
▁날짜	-5585
▁내정	-5586
▁달라	-5587
▁들여	-5588
▁롤링	-5589
▁맡은	-5590
▁물에	-5591
▁봉송	-5592
▁분류	-5593
▁비극	-5594
▁비틀	-5595
▁성직	-5596
▁소련	-5597
▁소형	-5598
▁신도	-5599
▁심사	-5600
▁압도	-5601
▁왕실	-5602
▁외부	-5603
▁원숭	-5604
▁위의	-5605
▁전염	-5606
▁정착	-5607
▁조성	-5608
▁존중	-5609
▁종합	-5610
▁포드	-5611
▁폭설	-5612
▁폭파	-5613
▁피츠	-5614
▁현실	-5615
▁호랑	-5616
▁후진	-5617
▁흥분	-5618
되어야	-5619
았으며	-5620
조치를	-5621
하겠다	-5622
활동을	-5623
▁국가를	-5624
▁규모가	-5625
▁남동부	-5626
▁다음날	-5627
▁당국의	-5628
▁만들고	-5629
▁보스턴	-5630
▁부부는	-5631
▁사고를	-5632
▁사태에	-5633
▁세력이	-5634
▁시기에	-5635
▁아마도	-5636
▁연구에	-5637
▁위협이	-5638
▁인근에	-5639
▁장면이	-5640
▁주장에	-5641
▁증가한	-5642
▁지하철	-5643
▁참여한	-5644
▁합의를	-5645
▁해결할	-5646
▁홍수로	-5647
▁회담의	-5648
▁휴가를	-5649
위원회의	-5650
▁관리들이	-5651
▁국회의원	-5652
▁내무부는	-5653
▁마이애미	-5654
▁변호사가	-5655
▁블라고예	-5656
▁생각했다	-5657
▁외환은행	-5658
▁참석했다	-5659
▁컴퓨터를	-5660
▁한국에서	-5661
▁알카에다와	-5662
▁이슬라마바	-5663
▁인플레이션	-5664
▁증가했다고	-5665
▁겸	-5666
가로	-5667
기록	-5668
명한	-5669
아나	-5670
움이	-5671
차례	-5672
커는	-5673
타오	-5674
터리	-5675
품이	-5676
해온	-5677
▁가해	-5678
▁거듭	-5679
▁결코	-5680
▁기온	-5681
▁난사	-5682
▁남극	-5683
▁낸시	-5684
▁높이	-5685
▁누리	-5686
▁다섯	-5687
▁대륙	-5688
▁등에	-5689
▁로드	-5690
▁많다	-5691
▁물을	-5692
▁배경	-5693
▁벗어	-5694
▁얻을	-5695
▁얼음	-5696
▁에릭	-5697
▁에베	-5698
▁올리	-5699
▁재임	-5700
▁주목	-5701
▁지붕	-5702
▁차단	-5703
▁채택	-5704
▁축제	-5705
▁클레	-5706
▁탄압	-5707
▁풀어	-5708
▁해수	-5709
렸으며	-5710
소프트	-5711
▁가족과	-5712
▁가즈니	-5713
▁감염된	-5714
▁거리에	-5715
▁공항에	-5716
▁기록한	-5717
▁라이언	-5718
▁방문객	-5719
▁사실은	-5720
▁아들이	-5721
▁언론에	-5722
▁여성과	-5723
▁음식을	-5724
▁인구가	-5725
▁일부가	-5726
▁전부터	-5727
▁정도의	-5728
▁조치는	-5729
▁중대한	-5730
▁키바키	-5731
▁하면서	-5732
▁했다는	-5733
▁화재로	-5734
▁미국으로	-5735
▁보호하기	-5736
▁아메리카	-5737
▁아이들의	-5738
▁여객기가	-5739
▁이에따라	-5740
▁프리미어	-5741
▁목격자들은	-5742
▁미국인들이	-5743
▁필라델피아	-5744
▁갱	-5745
▁닉	-5746
감이	-5747
니어	-5748
라크	-5749
로가	-5750
망을	-5751
먼은	-5752
밀한	-5753
변화	-5754
부양	-5755
업에	-5756
일에	-5757
차별	-5758
책임	-5759
통제	-5760
▁가게	-5761
▁게시	-5762
▁관중	-5763
▁구역	-5764
▁다리	-5765
▁다운	-5766
▁담겨	-5767
▁당부	-5768
▁대립	-5769
▁마라	-5770
▁방콕	-5771
▁상호	-5772
▁선관	-5773
▁순례	-5774
▁연예	-5775
▁영양	-5776
▁유출	-5777
▁의장	-5778
▁이자	-5779
▁입법	-5780
▁전설	-5781
▁촉진	-5782
▁카를	-5783
▁케빈	-5784
▁투쟁	-5785
▁특수	-5786
▁해도	-5787
네자드	-5788
립니다	-5789
법원은	-5790
작전을	-5791
▁거리를	-5792
▁경기가	-5793
▁공개된	-5794
▁그것을	-5795
▁남성은	-5796
▁단어장	-5797
▁돌아다	-5798
▁로이터	-5799
▁북서부	-5800
▁아이폰	-5801
▁아파트	-5802
▁없지만	-5803
▁여사는	-5804
▁유튜브	-5805
▁이같이	-5806
▁인질로	-5807
▁일하는	-5808
▁전역에	-5809
▁주었다	-5810
▁증시는	-5811
▁초점을	-5812
▁최대의	-5813
▁탑승객	-5814
▁파나마	-5815
▁펼쳤다	-5816
▁포함돼	-5817
▁화이트	-5818
회의에서	-5819
▁가택연금	-5820
▁남자친구	-5821
▁보여주고	-5822
▁여성들이	-5823
▁있었으나	-5824
▁진행되는	-5825
▁공개적으로	-5826
▁국민들에게	-5827
▁세계적으로	-5828
▁에베레스트	-5829
▁밥	-5830
각을	-5831
고기	-5832
관의	-5833
구가	-5834
니카	-5835
률은	-5836
모리	-5837
소와	-5838
키퍼	-5839
테네	-5840
해줄	-5841
▁가담	-5842
▁곳의	-5843
▁그레	-5844
▁기각	-5845
▁남동	-5846
▁뉴저	-5847
▁대치	-5848
▁만남	-5849
▁비공	-5850
▁빅토	-5851
▁빙하	-5852
▁사전	-5853
▁살의	-5854
▁선원	-5855
▁수년	-5856
▁쓰레	-5857
▁아난	-5858
▁안타	-5859
▁않게	-5860
▁얘기	-5861
▁에따	-5862
▁영웅	-5863
▁예멘	-5864
▁예전	-5865
▁원칙	-5866
▁일제	-5867
▁임금	-5868
▁작용	-5869
▁주에	-5870
▁최우	-5871
▁추모	-5872
▁흥미	-5873
기라이	-5874
라에서	-5875
자이자	-5876
정부가	-5877
▁가족이	-5878
▁가했다	-5879
▁검찰이	-5880
▁계속될	-5881
▁골키퍼	-5882
▁공산당	-5883
▁그대로	-5884
▁그랜드	-5885
▁기회가	-5886
▁나오지	-5887
▁남서부	-5888
▁년만에	-5889
▁디지털	-5890
▁또다시	-5891
▁무사히	-5892
▁미군과	-5893
▁받으며	-5894
▁브랜드	-5895
▁사회적	-5896
▁아기를	-5897
▁아이가	-5898
▁연루된	-5899
▁예정인	-5900
▁오히려	-5901
▁외교적	-5902
▁원주민	-5903
▁절차를	-5904
▁후보인	-5905
겠습니다	-5906
▁국가안보	-5907
▁논의하기	-5908
▁당선인의	-5909
▁무엇보다	-5910
▁발생하고	-5911
▁세계적인	-5912
▁아이들은	-5913
▁움직임을	-5914
▁지도자가	-5915
▁이루어졌다	-5916
▁지역에서는	-5917
▁사우스캐롤라이나	-5918
▁쓸	-5919
기자	-5920
느냐	-5921
니까	-5922
니에	-5923
동맹	-5924
말을	-5925
복선	-5926
석이	-5927
유럽	-5928
있던	-5929
주가	-5930
치며	-5931
▁가을	-5932
▁골든	-5933
▁공간	-5934
▁공포	-5935
▁규제	-5936
▁근육	-5937
▁날개	-5938
▁내일	-5939
▁눈을	-5940
▁동생	-5941
▁뒤에	-5942
▁로저	-5943
▁방사	-5944
▁배후	-5945
▁보존	-5946
▁부담	-5947
▁분간	-5948
▁비핵	-5949
▁사육	-5950
▁섭취	-5951
▁소집	-5952
▁스카	-5953
▁시나	-5954
▁식료	-5955
▁신규	-5956
▁안토	-5957
▁예선	-5958
▁요원	-5959
▁우울	-5960
▁위인	-5961
▁정의	-5962
▁중간	-5963
▁질환	-5964
▁짧은	-5965
▁차별	-5966
▁침몰	-5967
▁탄핵	-5968
▁태운	-5969
▁화면	-5970
레스를	-5971
안에서	-5972
웨이트	-5973
▁년에서	-5974
▁도로를	-5975
▁물러나	-5976
▁미군을	-5977
▁반군의	-5978
▁발표를	-5979
▁소규모	-5980
▁승리로	-5981
▁아름다	-5982
▁아이디	-5983
▁여당인	-5984
▁여론조	-5985
▁의원의	-5986
▁의혹을	-5987
▁재검토	-5988
▁조종사	-5989
▁증거가	-5990
▁지원할	-5991
▁차례에	-5992
▁최근에	-5993
▁충돌이	-5994
▁트레이	-5995
▁페이스	-5996
시켰다고	-5997
▁경기부양	-5998
▁근처에서	-5999
▁뉴햄프셔	-6000
▁방식으로	-6001
▁사람에게	-6002
▁안전하게	-6003
▁영향력을	-6004
▁오바마를	-6005
▁이미지를	-6006
▁차지하고	-6007
▁행정부가	-6008
▁성공적으로	-6009
▁안전보장이	-6010
▁전문가들이	-6011
▁까	-6012
▁랜	-6013
▁숲	-6014
▁윔	-6015
금지	-6016
성장	-6017
셔널	-6018
야는	-6019
왔던	-6020
월드	-6021
율로	-6022
접한	-6023
코맥	-6024
클리	-6025
튼은	-6026
필드	-6027
행한	-6028
▁각료	-6029
▁갖춘	-6030
▁개체	-6031
▁거대	-6032
▁곳이	-6033
▁공모	-6034
▁광부	-6035
▁구간	-6036
▁뉴올	-6037
▁다행	-6038
▁돌입	-6039
▁라덴	-6040
▁리더	-6041
▁모래	-6042
▁반박	-6043
▁벌금	-6044
▁부딪	-6045
▁부양	-6046
▁상관	-6047
▁손에	-6048
▁수립	-6049
▁앤더	-6050
▁와이	-6051
▁자문	-6052
▁전용	-6053
▁종종	-6054
▁출생	-6055
▁코카	-6056
▁탱크	-6057
▁통계	-6058
▁플래	-6059
▁혁명	-6060
관들이	-6061
무역협	-6062
부르크	-6063
적이며	-6064
점으로	-6065
했음을	-6066
▁경찰청	-6067
▁곳이다	-6068
▁규정을	-6069
▁단체가	-6070
▁달리고	-6071
▁당국에	-6072
▁도착한	-6073
▁둘러싼	-6074
▁리차드	-6075
▁법무부	-6076
▁별다른	-6077
▁부부가	-6078
▁상태다	-6079
▁상황은	-6080
▁안정을	-6081
▁엄청난	-6082
▁우리를	-6083
▁인기를	-6084
▁인질을	-6085
▁일이다	-6086
▁장관의	-6087
▁정책에	-6088
▁제공할	-6089
▁제작한	-6090
▁직원이	-6091
▁차이가	-6092
▁페이지	-6093
▁하나로	-6094
▁하락한	-6095
▁헬기가	-6096
▁확실한	-6097
▁가족들이	-6098
▁것이었다	-6099
▁국가들은	-6100
▁뉴올리언	-6101
▁동티모르	-6102
▁부상으로	-6103
▁북쪽으로	-6104
▁브라이언	-6105
▁알렉산더	-6106
▁오바마에	-6107
▁우리나라	-6108
▁이산화탄	-6109
▁후진타오	-6110
뿐만아니라	-6111
▁샌디에이고	-6112
▁열린우리당	-6113
▁체포됐다고	-6114
▁프라이머리	-6115
▁한나라당은	-6116
▁조사에따르면	-6117
▁옹	-6118
▁폰	-6119
감독	-6120
공격	-6121
받을	-6122
방에	-6123
술을	-6124
스마	-6125
식은	-6126
실은	-6127
위츠	-6128
코는	-6129
타르	-6130
패를	-6131
펠드	-6132
프를	-6133
한번	-6134
▁감옥	-6135
▁갑작	-6136
▁계좌	-6137
▁급락	-6138
▁듣고	-6139
▁등급	-6140
▁로딕	-6141
▁마친	-6142
▁반복	-6143
▁보게	-6144
▁빌딩	-6145
▁상반	-6146
▁세부	-6147
▁송환	-6148
▁수리	-6149
▁스톤	-6150
▁않기	-6151
▁에콰	-6152
▁연쇄	-6153
▁오스	-6154
▁왼쪽	-6155
▁일시	-6156
▁입수	-6157
▁전복	-6158
▁조용	-6159
▁조원	-6160
▁중남	-6161
▁진화	-6162
▁참모	-6163
▁초청	-6164
▁침공	-6165
▁포럼	-6166
▁프라	-6167
▁행진	-6168
▁후지	-6169
국에서	-6170
사회가	-6171
카운티	-6172
▁갖추고	-6173
▁개혁을	-6174
▁것임을	-6175
▁결과로	-6176
▁결혼을	-6177
▁공습을	-6178
▁관계에	-6179
▁광범위	-6180
▁난민촌	-6181
▁뉴욕의	-6182
▁당신의	-6183
▁돌고래	-6184
▁마리아	-6185
▁발견한	-6186
▁벌이는	-6187
▁사고는	-6188
▁사업을	-6189
▁세인트	-6190
▁속도로	-6191
▁시신이	-6192
▁시위는	-6193
▁식료품	-6194
▁위대한	-6195
▁일본인	-6196
▁자신과	-6197
▁정권을	-6198
▁조사가	-6199
▁주도한	-6200
▁주장한	-6201
▁죽음을	-6202
▁중단할	-6203
▁진정한	-6204
▁테러에	-6205
▁패배를	-6206
▁하루에	-6207
▁협상에	-6208
▁혜택을	-6209
▁계속되는	-6210
▁교도소에	-6211
▁국제원자	-6212
▁변호사인	-6213
▁비행기를	-6214
▁사람들과	-6215
▁수석대표	-6216
▁애리조나	-6217
▁연방준비	-6218
▁이용하는	-6219
▁제조업체	-6220
▁주장한다	-6221
▁치명적인	-6222
▁백악관에서	-6223
▁블라고예비치	-6224
▁스타디움에서	-6225
▁마이크로소프트	-6226
▁닥	-6227
▁핀	-6228
결승	-6229
도우	-6230
라며	-6231
라에	-6232
레인	-6233
마는	-6234
블던	-6235
비에	-6236
설을	-6237
안의	-6238
의회	-6239
일이	-6240
점은	-6241
조합	-6242
직에	-6243
팀을	-6244
혹한	-6245
▁걸린	-6246
▁공을	-6247
▁구단	-6248
▁그라	-6249
▁기도	-6250
▁딸이	-6251
▁루아	-6252
▁마사	-6253
▁많아	-6254
▁말이	-6255
▁말할	-6256
▁무게	-6257
▁뮤지	-6258
▁미성	-6259
▁미스	-6260
▁반영	-6261
▁불에	-6262
▁불이	-6263
▁상륙	-6264
▁상영	-6265
▁성추	-6266
▁소위	-6267
▁수배	-6268
▁수비	-6269
▁아는	-6270
▁얻고	-6271
▁일의	-6272
▁전환	-6273
▁정교	-6274
▁정찰	-6275
▁천억	-6276
▁출구	-6277
▁카터	-6278
관에서	-6279
당국이	-6280
도에서	-6281
운동을	-6282
▁가족을	-6283
▁개발을	-6284
▁건물이	-6285
▁경제의	-6286
▁경험이	-6287
▁구호를	-6288
▁근거로	-6289
▁나에게	-6290
▁단체의	-6291
▁메르켈	-6292
▁목표를	-6293
▁무슬림	-6294
▁미시간	-6295
▁미치는	-6296
▁방법은	-6297
▁법안은	-6298
▁승리할	-6299
▁신고를	-6300
▁양측은	-6301
▁언급을	-6302
▁역사적	-6303
▁요청을	-6304
▁윔블던	-6305
▁이용할	-6306
▁잘못된	-6307
▁참석할	-6308
▁총재는	-6309
▁충격을	-6310
▁팬들은	-6311
▁확인할	-6312
▁힐튼은	-6313
▁가족들은	-6314
▁거주하고	-6315
▁공산주의	-6316
▁남부에서	-6317
▁다시한번	-6318
▁브라운은	-6319
▁비난하는	-6320
▁상태이다	-6321
▁않겠다고	-6322
▁운영하고	-6323
▁월요일에	-6324
▁천연가스	-6325
▁쿠웨이트	-6326
▁클린턴의	-6327
▁탈레반은	-6328
▁표명했다	-6329
▁하마스가	-6330
▁해안에서	-6331
▁경찰서장은	-6332
▁보고서에따르면	-6333
▁널	-6334
▁엠	-6335
겨진	-6336
교통	-6337
몬트	-6338
바스	-6339
받은	-6340
뱅크	-6341
보험	-6342
부로	-6343
연방	-6344
오고	-6345
이와	-6346
제재	-6347
즈를	-6348
진과	-6349
티오	-6350
화와	-6351
▁가벼	-6352
▁갔다	-6353
▁개장	-6354
▁관측	-6355
▁다큐	-6356
▁당황	-6357
▁대대	-6358
▁메디	-6359
▁문서	-6360
▁발휘	-6361
▁보일	-6362
▁보지	-6363
▁부서	-6364
▁불어	-6365
▁불쾌	-6366
▁세로	-6367
▁수여	-6368
▁암컷	-6369
▁완료	-6370
▁원래	-6371
▁이륙	-6372
▁일과	-6373
▁저희	-6374
▁적대	-6375
▁적발	-6376
▁제목	-6377
▁축소	-6378
▁친척	-6379
▁캄보	-6380
▁코끼	-6381
▁쿠퍼	-6382
▁테네	-6383
▁팀이	-6384
▁하미	-6385
▁허커	-6386
▁협회	-6387
▁활약	-6388
▁횡령	-6389
되거나	-6390
드리게	-6391
스트는	-6392
식에서	-6393
우주국	-6394
▁교육을	-6395
▁국민의	-6396
▁국장은	-6397
▁남자는	-6398
▁동일한	-6399
▁루이지	-6400
▁매니저	-6401
▁방송의	-6402
▁범인이	-6403
▁부시의	-6404
▁분만에	-6405
▁불가피	-6406
▁상당히	-6407
▁상승한	-6408
▁수상한	-6409
▁시드의	-6410
▁압박을	-6411
▁영국은	-6412
▁우주선	-6413
▁원인이	-6414
▁은행의	-6415
▁이름이	-6416
▁일어났	-6417
▁증시가	-6418
▁지지선	-6419
▁촬영한	-6420
▁출연한	-6421
▁태도를	-6422
▁투표에	-6423
▁하나인	-6424
▁학교에	-6425
▁합의한	-6426
▁했었다	-6427
▁했으나	-6428
▁혼란을	-6429
▁후보와	-6430
인들에게	-6431
했었다고	-6432
▁국가들이	-6433
▁국제공항	-6434
▁드러냈다	-6435
▁마드리드	-6436
▁발표하고	-6437
▁블로그에	-6438
▁소식통이	-6439
▁아버지가	-6440
▁에따르면	-6441
▁예비선거	-6442
▁우리에게	-6443
▁의사들은	-6444
▁캄보디아	-6445
▁분석가들은	-6446
▁아프간에서	-6447
▁링	-6448
▁뭄	-6449
▁옛	-6450
▁팝	-6451
교를	-6452
니와	-6453
니티	-6454
데스	-6455
려진	-6456
물의	-6457
시와	-6458
였고	-6459
임이	-6460
전쟁	-6461
조를	-6462
지원	-6463
질이	-6464
치게	-6465
톨릭	-6466
▁글을	-6467
▁길이	-6468
▁끝날	-6469
▁낙관	-6470
▁낙태	-6471
▁낮추	-6472
▁달린	-6473
▁당초	-6474
▁돕기	-6475
▁따돌	-6476
▁딸을	-6477
▁리드	-6478
▁마돈	-6479
▁마비	-6480
▁매달	-6481
▁복역	-6482
▁부유	-6483
▁부채	-6484
▁비평	-6485
▁샘플	-6486
▁세가	-6487
▁소리	-6488
▁쓰고	-6489
▁알지	-6490
▁옐친	-6491
▁잇따	-6492
▁자제	-6493
▁제트	-6494
▁주전	-6495
▁줄일	-6496
▁책을	-6497
▁출두	-6498
▁탈북	-6499
▁특징	-6500
▁화려	-6501
▁회계	-6502
베니아	-6503
은행은	-6504
지역을	-6505
폴리스	-6506
▁가치를	-6507
▁격렬한	-6508
▁결정할	-6509
▁고위관	-6510
▁기쁘다	-6511
▁나라의	-6512
▁나타난	-6513
▁납치범	-6514
▁다큐멘	-6515
▁대표가	-6516
▁돌아오	-6517
▁동맹국	-6518
▁라파엘	-6519
▁마라톤	-6520
▁목표는	-6521
▁미디어	-6522
▁미성년	-6523
▁민감한	-6524
▁비교적	-6525
▁사드르	-6526
▁사상자	-6527
▁사용해	-6528
▁상당의	-6529
▁상태를	-6530
▁생물학	-6531
▁실시할	-6532
▁양국은	-6533
▁일본과	-6534
▁일어날	-6535
▁있어야	-6536
▁작업에	-6537
▁조사한	-6538
▁종류의	-6539
▁차례의	-6540
▁차이로	-6541
▁충돌로	-6542
▁카트리	-6543
▁파업을	-6544
▁푸틴은	-6545
▁하나는	-6546
▁대의원을	-6547
▁로드리게	-6548
▁발표됐다	-6549
▁밝혔으며	-6550
▁부통령은	-6551
▁성관계를	-6552
▁소유하고	-6553
▁에어버스	-6554
▁예를들어	-6555
▁외무장관	-6556
▁의미한다	-6557
▁인질들을	-6558
▁주둔하고	-6559
▁지도자는	-6560
▁해당하는	-6561
▁알카에다의	-6562
▁월스트리트	-6563
▁전국적으로	-6564
▁닫	-6565
▁뱀	-6566
▁싫	-6567
▁첩	-6568
경은	-6569
나무	-6570
단히	-6571
더스	-6572
등을	-6573
로코	-6574
명에	-6575
밀히	-6576
발전	-6577
비상	-6578
비스	-6579
승희	-6580
식의	-6581
실로	-6582
아버	-6583
입어	-6584
치와	-6585
▁개시	-6586
▁공룡	-6587
▁관료	-6588
▁군이	-6589
▁금연	-6590
▁나눴	-6591
▁나은	-6592
▁내고	-6593
▁내보	-6594
▁되돌	-6595
▁맡고	-6596
▁멤버	-6597
▁부사	-6598
▁북동	-6599
▁선임	-6600
▁섹스	-6601
▁손님	-6602
▁수면	-6603
▁아시	-6604
▁앞둔	-6605
▁양의	-6606
▁없고	-6607
▁에스	-6608
▁위스	-6609
▁유인	-6610
▁일련	-6611
▁자동	-6612
▁종료	-6613
▁청년	-6614
▁캐롤	-6615
▁케리	-6616
▁쿠즈	-6617
▁편의	-6618
▁포로	-6619
▁포착	-6620
▁플루	-6621
▁호르	-6622
▁환호	-6623
▁회장	-6624
당했다	-6625
된다면	-6626
메이트	-6627
사태를	-6628
왔으며	-6629
해야만	-6630
▁가족은	-6631
▁관련한	-6632
▁교도소	-6633
▁교황은	-6634
▁국가로	-6635
▁기업의	-6636
▁놀라운	-6637
▁뉴욕주	-6638
▁대상이	-6639
▁데이터	-6640
▁도시인	-6641
▁떠났다	-6642
▁레이건	-6643
▁마흐디	-6644
▁만났다	-6645
▁만들기	-6646
▁뭄바이	-6647
▁북부에	-6648
▁생명을	-6649
▁성명은	-6650
▁소식에	-6651
▁아들을	-6652
▁않았던	-6653
▁애완견	-6654
▁양국의	-6655
▁원하고	-6656
▁인간의	-6657
▁주가는	-6658
▁케이트	-6659
▁테니스	-6660
▁하와이	-6661
▁행사를	-6662
▁행사에	-6663
▁회의에	-6664
▁회장이	-6665
▁힘입어	-6666
적이라고	-6667
▁공개됐다	-6668
▁교통사고	-6669
▁들어갔다	-6670
▁받아들여	-6671
▁방문하는	-6672
▁사용하지	-6673
▁선포했다	-6674
▁수준으로	-6675
▁심각하게	-6676
▁않는다면	-6677
▁않았으나	-6678
▁없습니다	-6679
▁위치하고	-6680
▁인근에서	-6681
▁일이라고	-6682
▁있었다는	-6683
▁자카르타	-6684
▁자택에서	-6685
▁지원하고	-6686
▁평화유지	-6687
▁대선후보로	-6688
▁루이지애나	-6689
▁매사추세츠	-6690
▁폭력사태가	-6691
▁국제원자력기구	-6692
▁겁	-6693
▁깃	-6694
▁끔	-6695
▁띄	-6696
▁템	-6697
가와	-6698
격히	-6699
관인	-6700
널드	-6701
돼야	-6702
량은	-6703
름을	-6704
리어	-6705
물로	-6706
버리	-6707
슨과	-6708
얼리	-6709
오픈	-6710
일으	-6711
책이	-6712
파라	-6713
할지	-6714
화한	-6715
▁괴한	-6716
▁기여	-6717
▁남겨	-6718
▁담은	-6719
▁데에	-6720
▁도미	-6721
▁도요	-6722
▁되길	-6723
▁발포	-6724
▁본격	-6725
▁본토	-6726
▁부산	-6727
▁부적	-6728
▁부활	-6729
▁북서	-6730
▁선제	-6731
▁선호	-6732
▁솔직	-6733
▁스콜	-6734
▁습격	-6735
▁신조	-6736
▁심문	-6737
▁아라	-6738
▁약화	-6739
▁여섯	-6740
▁연금	-6741
▁의뢰	-6742
▁이식	-6743
▁재직	-6744
▁정거	-6745
▁종결	-6746
▁주유	-6747
▁줄어	-6748
▁직전	-6749
▁징후	-6750
▁축출	-6751
▁탄생	-6752
▁탐험	-6753
▁하에	-6754
▁현장	-6755
▁호흡	-6756
▁혼자	-6757
냈다고	-6758
라스틱	-6759
원들의	-6760
젤레스	-6761
▁가족의	-6762
▁감사의	-6763
▁건강이	-6764
▁군사적	-6765
▁노력이	-6766
▁다리를	-6767
▁데이빗	-6768
▁등으로	-6769
▁마음을	-6770
▁무고한	-6771
▁보도가	-6772
▁보도에	-6773
▁복잡한	-6774
▁생각이	-6775
▁생방송	-6776
▁성향의	-6777
▁수도인	-6778
▁않았고	-6779
▁여부에	-6780
▁영화에	-6781
▁이브라	-6782
▁처벌을	-6783
▁크레이	-6784
▁페더러	-6785
▁프랭크	-6786
▁피닉스	-6787
티오피아	-6788
▁개인적인	-6789
▁국무부는	-6790
▁군인들이	-6791
▁마을에서	-6792
▁바란다고	-6793
▁법원에서	-6794
▁보입니다	-6795
▁불러일으	-6796
▁비행기가	-6797
▁상태에서	-6798
▁용의자로	-6799
▁원자로를	-6800
▁인도주의	-6801
▁전망했다	-6802
▁조건으로	-6803
▁지시했다	-6804
▁지점에서	-6805
▁추정된다	-6806
▁행정부의	-6807
자들로부터	-6808
▁다이아몬드	-6809
▁유권자들이	-6810
▁지지자들이	-6811
▁크라이슬러	-6812
▁꼬	-6813
▁떼	-6814
▁럼	-6815
▁햇	-6816
교육	-6817
도상	-6818
론은	-6819
마디	-6820
물은	-6821
바르	-6822
봉사	-6823
브를	-6824
사람	-6825
심이	-6826
자료	-6827
향을	-6828
호르	-6829
호의	-6830
확인	-6831
▁가상	-6832
▁간에	-6833
▁갈라	-6834
▁갖는	-6835
▁공원	-6836
▁군의	-6837
▁기차	-6838
▁놓여	-6839
▁떠난	-6840
▁러닝	-6841
▁맞는	-6842
▁멀리	-6843
▁백인	-6844
▁부르	-6845
▁상상	-6846
▁설문	-6847
▁아틀	-6848
▁어깨	-6849
▁열고	-6850
▁옹호	-6851
▁용납	-6852
▁일상	-6853
▁잡혀	-6854
▁전사	-6855
▁점거	-6856
▁좀더	-6857
▁주기	-6858
▁주주	-6859
▁침략	-6860
▁캐릭	-6861
▁크레	-6862
▁탄광	-6863
▁탈락	-6864
▁팀을	-6865
▁퍼거	-6866
▁푸에	-6867
▁항생	-6868
▁향상	-6869
▁협정	-6870
▁효율	-6871
▁휩쓸	-6872
만으로	-6873
있으며	-6874
적이다	-6875
타나모	-6876
페이스	-6877
▁공격한	-6878
▁그레이	-6879
▁높다고	-6880
▁뉴저지	-6881
▁대회를	-6882
▁도시의	-6883
▁된다는	-6884
▁디스크	-6885
▁명에서	-6886
▁뮤지컬	-6887
▁보이며	-6888
▁보이콧	-6889
▁비서실	-6890
▁빠져나	-6891
▁사항을	-6892
▁선수가	-6893
▁소식은	-6894
▁손실을	-6895
▁수감자	-6896
▁쓰촨성	-6897
▁아테네	-6898
▁앤드류	-6899
▁영국군	-6900
▁영국인	-6901
▁오클라	-6902
▁원인은	-6903
▁은행에	-6904
▁음악을	-6905
▁이뤄진	-6906
▁이제는	-6907
▁인용해	-6908
▁일으킬	-6909
▁자리에	-6910
▁정권이	-6911
▁조승희	-6912
▁주의를	-6913
▁중남미	-6914
▁중앙일	-6915
▁중이던	-6916
▁지역인	-6917
▁철수를	-6918
▁총상을	-6919
▁테러는	-6920
▁투자가	-6921
▁파바로	-6922
▁피라미	-6923
▁하미드	-6924
▁호주의	-6925
▁희망을	-6926
았습니다	-6927
축구연맹	-6928
▁곤잘레스	-6929
▁관타나모	-6930
▁매케인이	-6931
▁못하도록	-6932
▁무장대원	-6933
▁부정적인	-6934
▁비난하며	-6935
▁아버지는	-6936
▁영화배우	-6937
▁전반적인	-6938
▁중이었다	-6939
▁지지하고	-6940
▁직접적인	-6941
▁페더러는	-6942
▁화요일에	-6943
▁에티오피아	-6944
▁이스라엘에	-6945
▁한나라당의	-6946
▁프리미어리그	-6947
▁밟	-6948
▁퀸	-6949
▁탔	-6950
경에	-6951
공급	-6952
국과	-6953
그로	-6954
당을	-6955
법은	-6956
스티	-6957
용이	-6958
즈와	-6959
진압	-6960
판이	-6961
폴리	-6962
▁개성	-6963
▁개편	-6964
▁고급	-6965
▁군대	-6966
▁금액	-6967
▁기금	-6968
▁놀이	-6969
▁느낀	-6970
▁돼지	-6971
▁되며	-6972
▁벽돌	-6973
▁보급	-6974
▁본부	-6975
▁사설	-6976
▁서서	-6977
▁세비	-6978
▁실무	-6979
▁알제	-6980
▁양곤	-6981
▁양육	-6982
▁없게	-6983
▁에넹	-6984
▁유도	-6985
▁인민	-6986
▁제리	-6987
▁지는	-6988
▁처방	-6989
▁처한	-6990
▁천문	-6991
▁파이	-6992
▁표준	-6993
▁해서	-6994
▁화합	-6995
▁휴가	-6996
때까지	-6997
시스템	-6998
시에서	-6999
자동차	-7000
프라임	-7001
해지고	-7002
▁결의안	-7003
▁광고를	-7004
▁나이가	-7005
▁다음주	-7006
▁대다수	-7007
▁루아얄	-7008
▁마리를	-7009
▁마스터	-7010
▁문제와	-7011
▁반대로	-7012
▁뿐이다	-7013
▁사과를	-7014
▁성장을	-7015
▁시장을	-7016
▁실수를	-7017
▁에이커	-7018
▁열대성	-7019
▁영국과	-7020
▁위험을	-7021
▁이곳은	-7022
▁인도의	-7023
▁일에는	-7024
▁주년을	-7025
▁증가할	-7026
▁참여할	-7027
▁테네시	-7028
▁투자를	-7029
▁펠로시	-7030
▁강전에서	-7031
▁공습으로	-7032
▁기소됐다	-7033
▁동영상이	-7034
▁러시아가	-7035
▁민주당이	-7036
▁사망자는	-7037
▁아니었다	-7038
▁오클라호	-7039
▁좋아하는	-7040
▁지원하는	-7041
▁직원들이	-7042
▁챔피언십	-7043
▁클린턴에	-7044
▁탈레반이	-7045
▁확인됐다	-7046
▁때문이라고	-7047
▁무샤라프는	-7048
▁미국인들은	-7049
▁상원의원의	-7050
▁있었습니다	-7051
▁펜실베니아	-7052
▁발표했습니다	-7053
▁곰	-7054
▁썼	-7055
▁컬	-7056
▁핸	-7057
▁햄	-7058
개를	-7059
내며	-7060
렸고	-7061
로이	-7062
론이	-7063
마자	-7064
슬리	-7065
았을	-7066
에미	-7067
연한	-7068
절을	-7069
체에	-7070
티가	-7071
피스	-7072
하르	-7073
▁가속	-7074
▁건너	-7075
▁계열	-7076
▁공약	-7077
▁끔찍	-7078
▁나선	-7079
▁냈다	-7080
▁넘겨	-7081
▁데려	-7082
▁떠날	-7083
▁떠올	-7084
▁맞고	-7085
▁멈추	-7086
▁미주	-7087
▁미터	-7088
▁발발	-7089
▁부탁	-7090
▁빨간	-7091
▁석을	-7092
▁세속	-7093
▁식민	-7094
▁신중	-7095
▁아닙	-7096
▁양키	-7097
▁억제	-7098
▁연간	-7099
▁연계	-7100
▁연례	-7101
▁옆에	-7102
▁오렌	-7103
▁오르	-7104
▁우고	-7105
▁윤리	-7106
▁잡아	-7107
▁전년	-7108
▁점검	-7109
▁즐기	-7110
▁지고	-7111
▁창출	-7112
▁철군	-7113
▁커뮤	-7114
▁통상	-7115
▁퇴원	-7116
▁투르	-7117
▁팀의	-7118
▁피살	-7119
▁하버	-7120
▁하여	-7121
▁함유	-7122
▁형제	-7123
▁힌두	-7124
당에서	-7125
문에서	-7126
비치는	-7127
았지만	-7128
판결을	-7129
▁건강에	-7130
▁건물에	-7131
▁기소된	-7132
▁나달은	-7133
▁다쳤다	-7134
▁목사는	-7135
▁바라는	-7136
▁받았던	-7137
▁밝혀진	-7138
▁베스트	-7139
▁부토의	-7140
▁브리핑	-7141
▁사실에	-7142
▁수입을	-7143
▁스크린	-7144
▁시간에	-7145
▁않기로	-7146
▁앞서고	-7147
▁약간의	-7148
▁열렸다	-7149
▁오른쪽	-7150
▁완벽한	-7151
▁우주왕	-7152
▁유엔의	-7153
▁이끌고	-7154
▁이용한	-7155
▁이후에	-7156
▁인터폴	-7157
▁자리잡	-7158
▁장군은	-7159
▁조사는	-7160
▁조사할	-7161
▁준결승	-7162
▁폭우로	-7163
▁필요로	-7164
▁향하는	-7165
▁효과가	-7166
아일랜드	-7167
▁나타내는	-7168
▁당했다고	-7169
▁대법원은	-7170
▁방향으로	-7171
▁분리주의	-7172
▁불가리아	-7173
▁사용하고	-7174
▁아프간에	-7175
▁않는다는	-7176
▁에콰도르	-7177
▁올림픽을	-7178
▁외무부는	-7179
▁움직임은	-7180
▁이루어진	-7181
▁이뤄졌다	-7182
▁이와같이	-7183
▁자유롭게	-7184
▁중동평화	-7185
▁참석하지	-7186
▁캠페인을	-7187
▁플라스틱	-7188
▁헌법재판	-7189
▁국제유가가	-7190
▁예정이었다	-7191
▁오클라호마	-7192
▁외교통상부	-7193
▁우주비행사	-7194
▁자유무역협	-7195
▁정상회담을	-7196
▁넬	-7197
▁뜨	-7198
▁턱	-7199
날드	-7200
니야	-7201
미는	-7202
바오	-7203
사항	-7204
세프	-7205
소한	-7206
아가	-7207
작전	-7208
주지	-7209
진의	-7210
체제	-7211
카트	-7212
트와	-7213
평균	-7214
품에	-7215
▁갇혀	-7216
▁계산	-7217
▁고무	-7218
▁노트	-7219
▁느낄	-7220
▁도청	-7221
▁들이	-7222
▁래리	-7223
▁루이	-7224
▁몰고	-7225
▁물건	-7226
▁미첼	-7227
▁박탈	-7228
▁부터	-7229
▁상세	-7230
▁술집	-7231
▁신분	-7232
▁아지	-7233
▁어두	-7234
▁영상	-7235
▁오리	-7236
▁울포	-7237
▁유기	-7238
▁의도	-7239
▁이다	-7240
▁일축	-7241
▁있은	-7242
▁전형	-7243
▁정지	-7244
▁제압	-7245
▁중태	-7246
▁진보	-7247
▁처해	-7248
▁카리	-7249
▁카메	-7250
▁풍부	-7251
▁홈페	-7252
▁황금	-7253
나에서	-7254
되기도	-7255
레스는	-7256
베르토	-7257
스트라	-7258
쳤으며	-7259
타에서	-7260
행위를	-7261
혐의로	-7262
회의를	-7263
▁가벼운	-7264
▁감독의	-7265
▁게릴라	-7266
▁경기침	-7267
▁경쟁을	-7268
▁계속된	-7269
▁나이로	-7270
▁남부에	-7271
▁남편이	-7272
▁논쟁을	-7273
▁단체인	-7274
▁됐으며	-7275
▁들어간	-7276
▁막대한	-7277
▁민병대	-7278
▁방문은	-7279
▁방송에	-7280
▁부분을	-7281
▁사진이	-7282
▁사형을	-7283
▁성공한	-7284
▁언론의	-7285
▁얼마전	-7286
▁에서는	-7287
▁월에는	-7288
▁이란과	-7289
▁이처럼	-7290
▁일하고	-7291
▁정신적	-7292
▁제공한	-7293
▁제외한	-7294
▁중에서	-7295
▁지지자	-7296
▁평화협	-7297
▁포르노	-7298
▁핵개발	-7299
▁활동에	-7300
▁가능성도	-7301
▁가족들과	-7302
▁극단주의	-7303
▁뉴욕타임	-7304
▁대학에서	-7305
▁매케인의	-7306
▁미얀마의	-7307
▁보냈다고	-7308
▁아닙니다	-7309
▁알바니아	-7310
▁앞으로도	-7311
▁유럽에서	-7312
▁유지하고	-7313
▁인터넷에	-7314
▁일어나는	-7315
▁일어났다	-7316
▁전역에서	-7317
▁조지아주	-7318
▁준비하고	-7319
▁추정하고	-7320
▁카메라를	-7321
▁테러조직	-7322
▁통과시켰다	-7323
▁여론조사에서	-7324
▁갔	-7325
▁댄	-7326
▁쏘	-7327
▁앵	-7328
▁얀	-7329
거를	-7330
경영	-7331
관련	-7332
두는	-7333
드베	-7334
래스	-7335
력은	-7336
령이	-7337
리코	-7338
린은	-7339
모스	-7340
문은	-7341
보건	-7342
비넨	-7343
소속	-7344
어요	-7345
연료	-7346
이한	-7347
제네	-7348
졌을	-7349
체는	-7350
클럽	-7351
통을	-7352
향이	-7353
▁가짜	-7354
▁갤런	-7355
▁검증	-7356
▁교전	-7357
▁귀환	-7358
▁기숙	-7359
▁녹음	-7360
▁농업	-7361
▁당사	-7362
▁당의	-7363
▁도심	-7364
▁동남	-7365
▁따뜻	-7366
▁매출	-7367
▁모금	-7368
▁모술	-7369
▁무슨	-7370
▁무승	-7371
▁물고	-7372
▁미네	-7373
▁밀려	-7374
▁방위	-7375
▁배가	-7376
▁법무	-7377
▁분께	-7378
▁블록	-7379
▁빼앗	-7380
▁세탁	-7381
▁술을	-7382
▁숨을	-7383
▁쉽지	-7384
▁실린	-7385
▁아나	-7386
▁아담	-7387
▁알레	-7388
▁였다	-7389
▁영업	-7390
▁유감	-7391
▁조심	-7392
▁준수	-7393
▁중의	-7394
▁채취	-7395
▁취한	-7396
▁카드	-7397
▁콜린	-7398
▁탄도	-7399
▁택시	-7400
▁터널	-7401
▁토로	-7402
▁토크	-7403
▁통행	-7404
▁펼친	-7405
▁플라	-7406
▁형사	-7407
▁후송	-7408
머니는	-7409
상태에	-7410
자금을	-7411
자이너	-7412
장관이	-7413
하마드	-7414
▁강진이	-7415
▁건강한	-7416
▁경기는	-7417
▁경선을	-7418
▁국가에	-7419
▁그녀를	-7420
▁남성의	-7421
▁남편인	-7422
▁남학생	-7423
▁논쟁이	-7424
▁늘어나	-7425
▁대서양	-7426
▁데일리	-7427
▁도착할	-7428
▁들어갈	-7429
▁메드베	-7430
▁모양의	-7431
▁무엇을	-7432
▁미국측	-7433
▁방문해	-7434
▁사임을	-7435
▁생산을	-7436
▁소속의	-7437
▁시라크	-7438
▁신속히	-7439
▁않으며	-7440
▁왕자가	-7441
▁왕자는	-7442
▁위스콘	-7443
▁일으켰	-7444
▁자르다	-7445
▁차관은	-7446
▁터키의	-7447
▁평화와	-7448
▁평화적	-7449
▁포함된	-7450
▁해병대	-7451
▁허가를	-7452
▁현재는	-7453
▁회사를	-7454
들에게는	-7455
▁국가비상	-7456
▁국가에서	-7457
▁국방장관	-7458
▁달러까지	-7459
▁대피했다	-7460
▁밝혔다고	-7461
▁밝혔지만	-7462
▁보고서에	-7463
▁비디오를	-7464
▁선거관리	-7465
▁숨졌으며	-7466
▁시위대를	-7467
▁시작으로	-7468
▁실시했다	-7469
▁요구하며	-7470
▁용의자는	-7471
▁타이틀을	-7472
▁텍사스주	-7473
▁플레이를	-7474
▁학교에서	-7475
▁호소했다	-7476
▁확산되고	-7477
▁무장세력이	-7478
▁상원의원을	-7479
▁시작했다고	-7480
▁뚫	-7481
▁롱	-7482
▁몽	-7483
▁붐	-7484
▁웰	-7485
것은	-7486
괴한	-7487
넬라	-7488
다란	-7489
라드	-7490
라바	-7491
라와	-7492
락을	-7493
력의	-7494
받아	-7495
법원	-7496
사무	-7497
사이	-7498
생산	-7499
쓰고	-7500
어와	-7501
어져	-7502
어질	-7503
연히	-7504
우기	-7505
이번	-7506
종을	-7507
췄다	-7508
터스	-7509
터키	-7510
파가	-7511
판에	-7512
행위	-7513
▁가고	-7514
▁가즈	-7515
▁가치	-7516
▁간부	-7517
▁간호	-7518
▁강에	-7519
▁고안	-7520
▁곳곳	-7521
▁권총	-7522
▁그만	-7523
▁금메	-7524
▁금속	-7525
▁나설	-7526
▁노인	-7527
▁느꼈	-7528
▁단행	-7529
▁도난	-7530
▁도디	-7531
▁도살	-7532
▁때는	-7533
▁만년	-7534
▁망원	-7535
▁매매	-7536
▁면담	-7537
▁모니	-7538
▁바티	-7539
▁부검	-7540
▁비가	-7541
▁살모	-7542
▁선전	-7543
▁스토	-7544
▁실현	-7545
▁야스	-7546
▁양자	-7547
▁완성	-7548
▁요리	-7549
▁원인	-7550
▁유사	-7551
▁일치	-7552
▁자전	-7553
▁제약	-7554
▁진지	-7555
▁차베	-7556
▁취급	-7557
▁테이	-7558
▁파라	-7559
▁포셋	-7560
▁폭동	-7561
▁폭스	-7562
▁호송	-7563
서에서	-7564
시리즈	-7565
시키며	-7566
원들을	-7567
졌지만	-7568
진으로	-7569
▁가난한	-7570
▁강제로	-7571
▁고고학	-7572
▁고이즈	-7573
▁권리가	-7574
▁내려진	-7575
▁노래를	-7576
▁돌아갈	-7577
▁또다른	-7578
▁모르는	-7579
▁받는다	-7580
▁방문에	-7581
▁베네딕	-7582
▁병력이	-7583
▁보고를	-7584
▁보내고	-7585
▁브래드	-7586
▁살아남	-7587
▁서장은	-7588
▁심장마	-7589
▁심하게	-7590
▁아마존	-7591
▁안으로	-7592
▁야후의	-7593
▁여지가	-7594
▁연합군	-7595
▁영국에	-7596
▁영화가	-7597
▁왕자의	-7598
▁위하여	-7599
▁윈도우	-7600
▁유죄를	-7601
▁이뤄질	-7602
▁일간지	-7603
▁전투기	-7604
▁전하고	-7605
▁존스턴	-7606
▁지구에	-7607
▁치러질	-7608
▁탑승한	-7609
▁파파라	-7610
▁판결이	-7611
▁폭력을	-7612
▁할머니	-7613
▁행위에	-7614
▁계획하고	-7615
▁고려하고	-7616
▁광범위한	-7617
▁법정에서	-7618
▁보고서가	-7619
▁위스콘신	-7620
▁위협하고	-7621
▁의원들이	-7622
▁전통적인	-7623
▁주민들을	-7624
▁코소보의	-7625
▁포함하여	-7626
▁결승전에서	-7627
▁결정했다고	-7628
▁민주주의를	-7629
▁발견되었다	-7630
▁서브프라임	-7631
▁않았습니다	-7632
▁자살폭탄테러가	-7633
▁짝	-7634
▁콰	-7635
▁펭	-7636
고가	-7637
글로	-7638
나를	-7639
나에	-7640
단과	-7641
란을	-7642
매매	-7643
블로	-7644
아를	-7645
았고	-7646
조건	-7647
종의	-7648
킥을	-7649
타를	-7650
타의	-7651
타이	-7652
파울	-7653
파의	-7654
해가	-7655
해튼	-7656
▁거론	-7657
▁교사	-7658
▁구류	-7659
▁급습	-7660
▁기계	-7661
▁기원	-7662
▁내지	-7663
▁널리	-7664
▁다수	-7665
▁데뷔	-7666
▁막아	-7667
▁말에	-7668
▁맞은	-7669
▁맥도	-7670
▁모아	-7671
▁모양	-7672
▁모욕	-7673
▁몸에	-7674
▁무렵	-7675
▁발행	-7676
▁부러	-7677
▁붙여	-7678
▁삭감	-7679
▁산책	-7680
▁상의	-7681
▁소장	-7682
▁수족	-7683
▁수컷	-7684
▁시대	-7685
▁신호	-7686
▁심의	-7687
▁양쪽	-7688
▁얻게	-7689
▁업계	-7690
▁열심	-7691
▁외계	-7692
▁유일	-7693
▁음성	-7694
▁의문	-7695
▁자바	-7696
▁잭슨	-7697
▁종식	-7698
▁즐길	-7699
▁진실	-7700
▁차이	-7701
▁총에	-7702
▁치를	-7703
▁크라	-7704
▁퇴임	-7705
▁티벳	-7706
▁파월	-7707
▁하자	-7708
▁해저	-7709
▁향한	-7710
▁허드	-7711
▁활발	-7712
거래소	-7713
겼다고	-7714
국들은	-7715
단체인	-7716
면에서	-7717
스와의	-7718
역에서	-7719
졌으나	-7720
지역의	-7721
크리트	-7722
▁공항을	-7723
▁구호물	-7724
▁국가인	-7725
▁국립공	-7726
▁금리를	-7727
▁내리는	-7728
▁노트북	-7729
▁데리고	-7730
▁맨해튼	-7731
▁반군은	-7732
▁발표는	-7733
▁부대를	-7734
▁비행을	-7735
▁사진은	-7736
▁사퇴를	-7737
▁상파울	-7738
▁성공을	-7739
▁세계적	-7740
▁소년이	-7741
▁수반은	-7742
▁수사에	-7743
▁스타벅	-7744
▁신원이	-7745
▁아이들	-7746
▁알렸다	-7747
▁앞섰다	-7748
▁여러번	-7749
▁오렌지	-7750
▁오스카	-7751
▁위에서	-7752
▁유명인	-7753
▁의사는	-7754
▁의회를	-7755
▁인구의	-7756
▁인사를	-7757
▁일련의	-7758
▁잃어버	-7759
▁자녀를	-7760
▁작업이	-7761
▁제출한	-7762
▁증언을	-7763
▁지역이	-7764
▁최선을	-7765
▁커다란	-7766
▁크기의	-7767
▁토크쇼	-7768
▁거부권을	-7769
▁거절했다	-7770
▁국가들의	-7771
▁국제적인	-7772
▁누군가가	-7773
▁메드베데	-7774
▁모른다고	-7775
▁받아왔다	-7776
▁보여준다	-7777
▁보좌관은	-7778
▁상황이다	-7779
▁않습니다	-7780
▁않았다는	-7781
▁언급하며	-7782
▁여성들은	-7783
▁예상하고	-7784
▁위원장이	-7785
▁이름으로	-7786
▁전해졌다	-7787
▁정부군이	-7788
▁제시했다	-7789
▁제출했다	-7790
▁주민들의	-7791
▁직원들은	-7792
▁치러지는	-7793
▁테이프를	-7794
▁프로젝트	-7795
▁행정부는	-7796
▁시위자들은	-7797
▁연구원들은	-7798
▁옳	-7799
▁츠	-7800
▁팽	-7801
국민	-7802
되길	-7803
력과	-7804
로에	-7805
마를	-7806
시오	-7807
씨의	-7808
아노	-7809
아의	-7810
었기	-7811
유를	-7812
이상	-7813
제르	-7814
지방	-7815
차는	-7816
체로	-7817
카는	-7818
크라	-7819
테르	-7820
토의	-7821
혁명	-7822
히는	-7823
▁가끔	-7824
▁것일	-7825
▁교외	-7826
▁국세	-7827
▁군과	-7828
▁꺾고	-7829
▁낮아	-7830
▁뉴델	-7831
▁라우	-7832
▁만화	-7833
▁맥캔	-7834
▁먹고	-7835
▁미셸	-7836
▁박스	-7837
▁발급	-7838
▁벌써	-7839
▁봤다	-7840
▁불교	-7841
▁사마	-7842
▁서양	-7843
▁세대	-7844
▁수류	-7845
▁시점	-7846
▁실적	-7847
▁씨가	-7848
▁엔터	-7849
▁여권	-7850
▁염려	-7851
▁오를	-7852
▁워너	-7853
▁웨인	-7854
▁위생	-7855
▁유산	-7856
▁임대	-7857
▁잇는	-7858
▁자발	-7859
▁자행	-7860
▁장려	-7861
▁재무	-7862
▁정리	-7863
▁조약	-7864
▁주립	-7865
▁직업	-7866
▁찾지	-7867
▁초에	-7868
▁카지	-7869
▁타밀	-7870
▁통보	-7871
▁트로	-7872
▁판다	-7873
▁했고	-7874
▁협약	-7875
▁화해	-7876
내에서	-7877
럼비아	-7878
렀다고	-7879
에게서	-7880
으므로	-7881
지수가	-7882
트레이	-7883
회의에	-7884
▁감바리	-7885
▁견해를	-7886
▁결정이	-7887
▁경험을	-7888
▁계속할	-7889
▁고위급	-7890
▁규모를	-7891
▁근로자	-7892
▁긴장이	-7893
▁남자를	-7894
▁납치한	-7895
▁내용에	-7896
▁너무나	-7897
▁년으로	-7898
▁동물원	-7899
▁동안의	-7900
▁메이저	-7901
▁못한다	-7902
▁무장한	-7903
▁범죄를	-7904
▁보호를	-7905
▁부분이	-7906
▁사고의	-7907
▁생존자	-7908
▁수행할	-7909
▁스타일	-7910
▁아스날	-7911
▁알렉스	-7912
▁엄격한	-7913
▁역사를	-7914
▁위안부	-7915
▁음주운	-7916
▁이내에	-7917
▁제치고	-7918
▁중이며	-7919
▁진전이	-7920
▁참가한	-7921
▁총기를	-7922
▁최첨단	-7923
▁취하고	-7924
▁클레이	-7925
▁통일부	-7926
▁파이프	-7927
▁퍼거슨	-7928
▁편지를	-7929
▁피하기	-7930
▁하거나	-7931
▁호텔에	-7932
▁회사에	-7933
렸습니다	-7934
시장에서	-7935
에미리트	-7936
▁계속하고	-7937
▁고이즈미	-7938
▁기대한다	-7939
▁남아있는	-7940
▁내렸다고	-7941
▁높아지고	-7942
▁당부했다	-7943
▁당선인이	-7944
▁디자이너	-7945
▁민주당은	-7946
▁반대하고	-7947
▁방송에서	-7948
▁벌어졌다	-7949
▁사용했다	-7950
▁살모넬라	-7951
▁수십명이	-7952
▁승인했다	-7953
▁아니지만	-7954
▁아버지인	-7955
▁에드워드	-7956
▁연구원은	-7957
▁영화에서	-7958
▁위원회의	-7959
▁중단했다	-7960
▁차전에서	-7961
▁창기라이	-7962
▁최고경영	-7963
▁클린턴과	-7964
▁파리에서	-7965
▁평화적인	-7966
▁항의하는	-7967
▁무장세력의	-7968
▁상원의원과	-7969
▁용의자들을	-7970
▁지속적으로	-7971
구의	-7972
그는	-7973
념을	-7974
노조	-7975
는가	-7976
니를	-7977
당인	-7978
대사	-7979
도와	-7980
면에	-7981
병이	-7982
색을	-7983
서치	-7984
석에	-7985
시대	-7986
역에	-7987
절한	-7988
크를	-7989
터가	-7990
토늄	-7991
파인	-7992
플루	-7993
▁가중	-7994
▁높게	-7995
▁느낌	-7996
▁다룬	-7997
▁담고	-7998
▁대전	-7999
▁던져	-8000
▁럼스	-8001
▁마찰	-8002
▁마케	-8003
▁매입	-8004
▁모리	-8005
▁모집	-8006
▁무덤	-8007
▁묻는	-8008
▁밀어	-8009
▁박사	-8010
▁반전	-8011
▁발의	-8012
▁발이	-8013
▁사인	-8014
▁실려	-8015
▁애니	-8016
▁양성	-8017
▁억만	-8018
▁유람	-8019
▁이적	-8020
▁이정	-8021
▁잡지	-8022
▁저렴	-8023
▁진상	-8024
▁치매	-8025
▁코너	-8026
▁코피	-8027
▁표결	-8028
▁행렬	-8029
단체의	-8030
들보다	-8031
등학교	-8032
랜드는	-8033
사태가	-8034
사항을	-8035
에게도	-8036
으려고	-8037
태평양	-8038
▁감정을	-8039
▁경매에	-8040
▁고유가	-8041
▁남성을	-8042
▁넣었다	-8043
▁노동당	-8044
▁다르다	-8045
▁대선에	-8046
▁대책을	-8047
▁돌아와	-8048
▁맡았다	-8049
▁목적을	-8050
▁바티칸	-8051
▁번이나	-8052
▁법안에	-8053
▁법원의	-8054
▁부족한	-8055
▁불능화	-8056
▁사용된	-8057
▁살해된	-8058
▁상대방	-8059
▁상처를	-8060
▁서울시	-8061
▁성과를	-8062
▁수감된	-8063
▁스튜어	-8064
▁시신은	-8065
▁실험을	-8066
▁업무를	-8067
▁에르도	-8068
▁연구가	-8069
▁연기를	-8070
▁연락을	-8071
▁우간다	-8072
▁유럽과	-8073
▁유엔이	-8074
▁의견이	-8075
▁의원을	-8076
▁이란을	-8077
▁이익을	-8078
▁일본을	-8079
▁전략을	-8080
▁제시한	-8081
▁제품을	-8082
▁지수가	-8083
▁진행될	-8084
▁집회에	-8085
▁최우선	-8086
▁친환경	-8087
▁텔레비	-8088
▁투표가	-8089
▁특사는	-8090
▁팬들이	-8091
▁하이브	-8092
▁학생이	-8093
▁합의에	-8094
▁해수면	-8095
▁해안에	-8096
▁행동에	-8097
▁효과를	-8098
▁히틀러	-8099
시키려는	-8100
▁가능하다	-8101
▁거리에서	-8102
▁국민투표	-8103
▁내려졌다	-8104
▁노르웨이	-8105
▁목소리를	-8106
▁병사들이	-8107
▁브레이크	-8108
▁빅토리아	-8109
▁뿐이라고	-8110
▁사이트를	-8111
▁샤리프는	-8112
▁선고했다	-8113
▁시나리오	-8114
▁아니라는	-8115
▁아라비아	-8116
▁이브라힘	-8117
▁출연했다	-8118
▁카를로스	-8119
▁피츠버그	-8120
▁확인되지	-8121
▁대통령으로	-8122
▁소비자들이	-8123
▁유권자들은	-8124
▁파키스탄에	-8125
▁프라이머리에서	-8126
▁굳	-8127
▁꽃	-8128
▁봐	-8129
▁써	-8130
▁융	-8131
▁펄	-8132
기금	-8133
니언	-8134
다이	-8135
디스	-8136
렌은	-8137
렸을	-8138
문제	-8139
받는	-8140
범한	-8141
분에	-8142
사업	-8143
인다	-8144
주와	-8145
케인	-8146
크가	-8147
타다	-8148
탈린	-8149
티에	-8150
프롬	-8151
학과	-8152
해도	-8153
해주	-8154
허가	-8155
확실	-8156
▁나섰	-8157
▁내전	-8158
▁넘게	-8159
▁단독	-8160
▁만료	-8161
▁만이	-8162
▁무자	-8163
▁미리	-8164
▁믿을	-8165
▁바탕	-8166
▁반도	-8167
▁발령	-8168
▁베탕	-8169
▁보스	-8170
▁사절	-8171
▁손해	-8172
▁슬로	-8173
▁슬픔	-8174
▁신발	-8175
▁실직	-8176
▁아빠	-8177
▁안내	-8178
▁애국	-8179
▁약혼	-8180
▁언덕	-8181
▁에너	-8182
▁역임	-8183
▁연극	-8184
▁요즘	-8185
▁요한	-8186
▁위축	-8187
▁유적	-8188
▁유행	-8189
▁이슈	-8190
▁잠수	-8191
▁장벽	-8192
▁전범	-8193
▁정유	-8194
▁조절	-8195
▁주거	-8196
▁총통	-8197
▁측이	-8198
▁치솟	-8199
▁케르	-8200
▁터뜨	-8201
▁통근	-8202
▁피추	-8203
▁한달	-8204
▁해체	-8205
▁현금	-8206
고에서	-8207
문제를	-8208
스럽다	-8209
시하고	-8210
인에게	-8211
정으로	-8212
제도이	-8213
하려던	-8214
▁가져올	-8215
▁간단한	-8216
▁건물을	-8217
▁경고를	-8218
▁공개한	-8219
▁공정한	-8220
▁교전을	-8221
▁글로벌	-8222
▁기분이	-8223
▁돌아올	-8224
▁디트로	-8225
▁마이스	-8226
▁모여들	-8227
▁방법에	-8228
▁변화에	-8229
▁분쟁을	-8230
▁브리트	-8231
▁사용을	-8232
▁세력을	-8233
▁수치는	-8234
▁안전에	-8235
▁열었다	-8236
▁영상을	-8237
▁오늘밤	-8238
▁왔다고	-8239
▁우울증	-8240
▁원자력	-8241
▁원한다	-8242
▁위치해	-8243
▁위협에	-8244
▁유력한	-8245
▁인도분	-8246
▁일제히	-8247
▁자격이	-8248
▁자세히	-8249
▁재무부	-8250
▁전에는	-8251
▁전투를	-8252
▁접촉을	-8253
▁조직을	-8254
▁조치로	-8255
▁주요한	-8256
▁줄이기	-8257
▁출전할	-8258
▁파업에	-8259
▁판결에	-8260
▁평가를	-8261
▁피랍된	-8262
▁한국군	-8263
▁한국을	-8264
▁현상이	-8265
▁화려한	-8266
▁활동이	-8267
대회에서	-8268
아프리카	-8269
위원회에	-8270
▁개발도상	-8271
▁공개하지	-8272
▁국제우주	-8273
▁권고했다	-8274
▁남쪽으로	-8275
▁담당자는	-8276
▁되었다고	-8277
▁베네딕토	-8278
▁부상자가	-8279
▁사과했다	-8280
▁생각하지	-8281
▁샤라포바	-8282
▁선수들이	-8283
▁세속주의	-8284
▁수백명이	-8285
▁아시아의	-8286
▁여객기는	-8287
▁예측했다	-8288
▁울포위츠	-8289
▁의심되는	-8290
▁이메일을	-8291
▁자원봉사	-8292
▁재판에서	-8293
▁정부군과	-8294
▁정부에서	-8295
▁지도자로	-8296
▁징역형을	-8297
▁최고치를	-8298
▁출구조사	-8299
▁출신으로	-8300
▁출전하지	-8301
▁테러와의	-8302
▁포함됐다	-8303
▁프랑스는	-8304
▁하마스는	-8305
▁확신한다	-8306
▁활동하고	-8307
▁디트로이트	-8308
▁수사관들은	-8309
▁요구했다고	-8310
▁유나이티드	-8311
▁이스라엘을	-8312
▁프로그램이	-8313
▁굉	-8314
▁굿	-8315
▁깁	-8316
▁덜	-8317
▁춤	-8318
▁흩	-8319
것도	-8320
널티	-8321
노스	-8322
라면	-8323
런스	-8324
르바	-8325
마르	-8326
미를	-8327
법에	-8328
브가	-8329
빌리	-8330
사령	-8331
시로	-8332
시한	-8333
연을	-8334
인민	-8335
자스	-8336
적의	-8337
제이	-8338
조한	-8339
지대	-8340
처리	-8341
키로	-8342
프에	-8343
피를	-8344
▁가깝	-8345
▁가리	-8346
▁강간	-8347
▁강행	-8348
▁공대	-8349
▁기아	-8350
▁남용	-8351
▁남쪽	-8352
▁내다	-8353
▁내리	-8354
▁내의	-8355
▁놀랄	-8356
▁달아	-8357
▁당해	-8358
▁대우	-8359
▁돌을	-8360
▁모임	-8361
▁무효	-8362
▁물어	-8363
▁미드	-8364
▁발렌	-8365
▁방출	-8366
▁벌일	-8367
▁브랜	-8368
▁비아	-8369
▁산맥	-8370
▁상위	-8371
▁성격	-8372
▁세운	-8373
▁소총	-8374
▁심슨	-8375
▁앨런	-8376
▁없애	-8377
▁영구	-8378
▁유통	-8379
▁절도	-8380
▁점이	-8381
▁접수	-8382
▁정밀	-8383
▁정전	-8384
▁줄리	-8385
▁줄을	-8386
▁증강	-8387
▁지점	-8388
▁찍은	-8389
▁체류	-8390
▁카스	-8391
▁투명	-8392
▁파편	-8393
▁포트	-8394
▁하드	-8395
▁학대	-8396
▁헬리	-8397
▁화가	-8398
▁화염	-8399
▁회수	-8400
경찰이	-8401
구에서	-8402
까지는	-8403
들이다	-8404
력으로	-8405
병으로	-8406
센터는	-8407
정에서	-8408
중이다	-8409
총리는	-8410
▁거부한	-8411
▁경계를	-8412
▁기능을	-8413
▁기사를	-8414
▁긴장을	-8415
▁끔찍한	-8416
▁느끼고	-8417
▁늘어날	-8418
▁다니는	-8419
▁다행히	-8420
▁대선주	-8421
▁디스커	-8422
▁라호르	-8423
▁머레이	-8424
▁명이다	-8425
▁무죄를	-8426
▁미래에	-8427
▁방향을	-8428
▁분노를	-8429
▁분야에	-8430
▁불확실	-8431
▁산불이	-8432
▁생각해	-8433
▁서신을	-8434
▁석방된	-8435
▁선거가	-8436
▁선거는	-8437
▁세웠다	-8438
▁수사가	-8439
▁안보를	-8440
▁알리는	-8441
▁압바스	-8442
▁억만장	-8443
▁언급한	-8444
▁연구소	-8445
▁외쳤다	-8446
▁위치를	-8447
▁유세를	-8448
▁유전자	-8449
▁의문을	-8450
▁이곳을	-8451
▁이메일	-8452
▁있기를	-8453
▁자국의	-8454
▁장관과	-8455
▁정치인	-8456
▁중단을	-8457
▁출신인	-8458
▁항공은	-8459
▁협력을	-8460
▁환자가	-8461
▁가즈프롬	-8462
▁거래됐다	-8463
▁결정적인	-8464
▁결혼식을	-8465
▁공격했다	-8466
▁관계자의	-8467
▁동성애자	-8468
▁메릴랜드	-8469
▁모두에게	-8470
▁못했지만	-8471
▁발견되지	-8472
▁수천명이	-8473
▁아름다운	-8474
▁연구결과	-8475
▁예정되어	-8476
▁용의자를	-8477
▁윌리엄스	-8478
▁이라크는	-8479
▁일으켰다	-8480
▁자동차를	-8481
▁전합니다	-8482
▁줄기세포	-8483
▁테러단체	-8484
▁하마스의	-8485
▁핵실험을	-8486
▁힐러리가	-8487
▁가족들에게	-8488
▁개인적으로	-8489
▁교도소에서	-8490
▁러닝메이트	-8491
▁알카에다가	-8492
▁유죄판결을	-8493
▁정기적으로	-8494
▁폭력사태로	-8495
▁프랑스에서	-8496
▁프로그램은	-8497
▁하이브리드	-8498
▁아랍에미리트	-8499
▁지지자들에게	-8500
▁댈	-8501
▁덩	-8502
▁램	-8503
▁렌	-8504
▁쟁	-8505
▁쳐	-8506
▁큐	-8507
골로	-8508
과학	-8509
구조	-8510
기기	-8511
까요	-8512
나게	-8513
니고	-8514
되던	-8515
려야	-8516
름이	-8517
먼트	-8518
법이	-8519
병은	-8520
심한	-8521
입을	-8522
정상	-8523
조약	-8524
치인	-8525
커스	-8526
클로	-8527
토는	-8528
▁결합	-8529
▁고어	-8530
▁교섭	-8531
▁금년	-8532
▁급진	-8533
▁끊임	-8534
▁나눠	-8535
▁남서	-8536
▁노던	-8537
▁다비	-8538
▁다소	-8539
▁당일	-8540
▁던진	-8541
▁덴버	-8542
▁도핑	-8543
▁동계	-8544
▁동굴	-8545
▁매몰	-8546
▁먹는	-8547
▁모험	-8548
▁바꿀	-8549
▁반등	-8550
▁버냉	-8551
▁벌이	-8552
▁부결	-8553
▁부실	-8554
▁부작	-8555
▁산하	-8556
▁소니	-8557
▁솔로	-8558
▁숙박	-8559
▁스노	-8560
▁신사	-8561
▁씨의	-8562
▁안드	-8563
▁약탈	-8564
▁여명	-8565
▁연출	-8566
▁예언	-8567
▁왜곡	-8568
▁우편	-8569
▁워렌	-8570
▁워터	-8571
▁유수	-8572
▁음료	-8573
▁전격	-8574
▁제정	-8575
▁좌절	-8576
▁주당	-8577
▁징계	-8578
▁첩보	-8579
▁첫날	-8580
▁카자	-8581
▁크리	-8582
▁키드	-8583
▁포장	-8584
▁포획	-8585
▁품목	-8586
▁피신	-8587
▁피할	-8588
▁호날	-8589
▁호전	-8590
공격을	-8591
그러나	-8592
까지도	-8593
냈으며	-8594
대학교	-8595
아티아	-8596
었는지	-8597
위에서	-8598
은행이	-8599
정부의	-8600
플루엔	-8601
화되고	-8602
▁개표가	-8603
▁것인가	-8604
▁경기장	-8605
▁교전이	-8606
▁국회에	-8607
▁남부의	-8608
▁남성과	-8609
▁높이의	-8610
▁누구도	-8611
▁다수의	-8612
▁단순히	-8613
▁대비해	-8614
▁대테러	-8615
▁대회에	-8616
▁된다면	-8617
▁런던의	-8618
▁미래를	-8619
▁바하마	-8620
▁베이루	-8621
▁보유한	-8622
▁사생활	-8623
▁선수로	-8624
▁세계를	-8625
▁소리를	-8626
▁손상을	-8627
▁실시될	-8628
▁실패한	-8629
▁얼굴을	-8630
▁없다며	-8631
▁연기가	-8632
▁연료를	-8633
▁열심히	-8634
▁유대인	-8635
▁이르기	-8636
▁이유가	-8637
▁인상을	-8638
▁작품을	-8639
▁재판이	-8640
▁적합한	-8641
▁전체가	-8642
▁존스는	-8643
▁주식을	-8644
▁중심에	-8645
▁즐기는	-8646
▁지수도	-8647
▁출연해	-8648
▁켄터키	-8649
▁테일러	-8650
▁포스트	-8651
▁하도록	-8652
▁행진을	-8653
▁호랑이	-8654
됨에따라	-8655
왔습니다	-8656
▁근본주의	-8657
▁대표하는	-8658
▁벌였다고	-8659
▁베어스턴	-8660
▁부인하고	-8661
▁북한과의	-8662
▁불법으로	-8663
▁사상자가	-8664
▁선수들은	-8665
▁시인했다	-8666
▁시티그룹	-8667
▁연구소의	-8668
▁요르단강	-8669
▁이들에게	-8670
▁이라크로	-8671
▁인질들이	-8672
▁전달했다	-8673
▁제외하고	-8674
▁주한미군	-8675
▁차지하는	-8676
▁타임즈가	-8677
▁표시했다	-8678
▁호주오픈	-8679
▁홈페이지	-8680
▁확인하기	-8681
▁가자지구를	-8682
▁다우지수는	-8683
▁동영상에서	-8684
▁적극적으로	-8685
▁학생들에게	-8686
▁국제우주정거	-8687
▁라스베이거스	-8688
▁상승했습니다	-8689
▁아마디네자드	-8690
▁인도네시아의	-8691
▁뮌	-8692
▁킨	-8693
▁험	-8694
가족	-8695
검사	-8696
근혜	-8697
길을	-8698
놓고	-8699
당국	-8700
드러	-8701
들인	-8702
림을	-8703
마의	-8704
만간	-8705
모를	-8706
무드	-8707
미한	-8708
본부	-8709
세는	-8710
스파	-8711
야의	-8712
업자	-8713
우며	-8714
우석	-8715
제품	-8716
차량	-8717
청이	-8718
카드	-8719
타운	-8720
통합	-8721
티의	-8722
학을	-8723
▁각국	-8724
▁감정	-8725
▁게리	-8726
▁고장	-8727
▁구경	-8728
▁기분	-8729
▁기뻐	-8730
▁내로	-8731
▁네이	-8732
▁당원	-8733
▁대폭	-8734
▁델타	-8735
▁도울	-8736
▁동북	-8737
▁드는	-8738
▁득점	-8739
▁딸의	-8740
▁라울	-8741
▁마침	-8742
▁만장	-8743
▁매도	-8744
▁모의	-8745
▁무산	-8746
▁무크	-8747
▁박격	-8748
▁반미	-8749
▁방화	-8750
▁버크	-8751
▁번호	-8752
▁분경	-8753
▁선진	-8754
▁소아	-8755
▁손실	-8756
▁수락	-8757
▁승점	-8758
▁신원	-8759
▁아민	-8760
▁암호	-8761
▁양측	-8762
▁얻지	-8763
▁엔지	-8764
▁오프	-8765
▁운반	-8766
▁원내	-8767
▁유괴	-8768
▁유조	-8769
▁음란	-8770
▁이득	-8771
▁이외	-8772
▁인내	-8773
▁인형	-8774
▁일고	-8775
▁장교	-8776
▁전부	-8777
▁전파	-8778
▁절약	-8779
▁점유	-8780
▁제네	-8781
▁제일	-8782
▁종파	-8783
▁중도	-8784
▁지분	-8785
▁차가	-8786
▁채가	-8787
▁체계	-8788
▁추천	-8789
▁취해	-8790
▁친선	-8791
▁침묵	-8792
▁카디	-8793
▁칼라	-8794
▁칼리	-8795
▁토마	-8796
▁톤의	-8797
▁페이	-8798
갔으며	-8799
스러워	-8800
시키지	-8801
어졌다	-8802
어지는	-8803
웠다고	-8804
제네거	-8805
지역인	-8806
학자인	-8807
▁가량의	-8808
▁강타한	-8809
▁강화할	-8810
▁겨냥한	-8811
▁급격히	-8812
▁기반을	-8813
▁기준금	-8814
▁기지를	-8815
▁나라를	-8816
▁나와즈	-8817
▁남자의	-8818
▁노력할	-8819
▁뉴욕에	-8820
▁느끼는	-8821
▁담배를	-8822
▁들어온	-8823
▁들어와	-8824
▁라이브	-8825
▁명백한	-8826
▁물건을	-8827
▁미시건	-8828
▁미주리	-8829
▁바닥에	-8830
▁바람이	-8831
▁박근혜	-8832
▁범인은	-8833
▁보다는	-8834
▁보여준	-8835
▁부토는	-8836
▁분쟁이	-8837
▁사이버	-8838
▁사회에	-8839
▁새롭게	-8840
▁서울에	-8841
▁선택할	-8842
▁슈퍼볼	-8843
▁시간의	-8844
▁시위로	-8845
▁시작될	-8846
▁신호를	-8847
▁야당이	-8848
▁예정이	-8849
▁올라가	-8850
▁은신처	-8851
▁의미가	-8852
▁의장이	-8853
▁이름의	-8854
▁인기가	-8855
▁일자리	-8856
▁임기가	-8857
▁임기를	-8858
▁자금이	-8859
▁재판에	-8860
▁전쟁이	-8861
▁총리로	-8862
▁추락한	-8863
▁태우고	-8864
▁통해서	-8865
▁한다면	-8866
▁행동이	-8867
▁헬리콥	-8868
▁협정을	-8869
▁히드로	-8870
스토니아	-8871
에서부터	-8872
위원장은	-8873
▁경쟁자인	-8874
▁관련하여	-8875
▁대사관은	-8876
▁대표단은	-8877
▁동의했다	-8878
▁럼스펠드	-8879
▁레이스를	-8880
▁밝혔었다	-8881
▁밝혔으나	-8882
▁북부에서	-8883
▁분위기를	-8884
▁상승세를	-8885
▁시민들은	-8886
▁실질적인	-8887
▁연구에서	-8888
▁예상되고	-8889
▁워싱턴의	-8890
▁인명피해	-8891
▁자동차업	-8892
▁증가하는	-8893
▁총리에게	-8894
▁취소했다	-8895
▁플루토늄	-8896
▁확신했다	-8897
▁확인하고	-8898
▁회견에서	-8899
▁가자지구에	-8900
▁관광객들이	-8901
▁노대통령은	-8902
▁때문입니다	-8903
▁받아들이지	-8904
▁상원의원에	-8905
▁우주왕복선	-8906
▁지지선언을	-8907
▁크로아티아	-8908
▁프로그램의	-8909
▁팔레스타인의	-8910
▁깔	-8911
▁닐	-8912
▁닭	-8913
▁촛	-8914
▁팜	-8915
가디	-8916
개월	-8917
게도	-8918
견을	-8919
괜찮	-8920
기부	-8921
당에	-8922
대책	-8923
데버	-8924
두를	-8925
란색	-8926
롭고	-8927
말라	-8928
물인	-8929
물질	-8930
바흐	-8931
받침	-8932
방이	-8933
백을	-8934
보로	-8935
복지	-8936
본을	-8937
브레	-8938
석은	-8939
선과	-8940
성한	-8941
스포	-8942
심의	-8943
애틀	-8944
올로	-8945
이면	-8946
있을	-8947
지다	-8948
지수	-8949
클린	-8950
평가	-8951
해에	-8952
▁가동	-8953
▁각종	-8954
▁거친	-8955
▁고의	-8956
▁공사	-8957
▁규칙	-8958
▁깊이	-8959
▁나빠	-8960
▁내세	-8961
▁년전	-8962
▁돈이	-8963
▁동참	-8964
▁머무	-8965
▁면접	-8966
▁믿는	-8967
▁바쿠	-8968
▁발매	-8969
▁발효	-8970
▁배포	-8971
▁복원	-8972
▁부처	-8973
▁북측	-8974
▁블룸	-8975
▁상처	-8976
▁송금	-8977
▁숨어	-8978
▁슈워	-8979
▁시골	-8980
▁쓰는	-8981
▁아칸	-8982
▁앞선	-8983
▁얼룩	-8984
▁연말	-8985
▁예배	-8986
▁예약	-8987
▁울프	-8988
▁원정	-8989
▁유시	-8990
▁이바	-8991
▁입어	-8992
▁작곡	-8993
▁제프	-8994
▁조짐	-8995
▁중반	-8996
▁진전	-8997
▁치른	-8998
▁타계	-8999
▁파크	-9000
▁펭귄	-9001
▁플레	-9002
▁필수	-9003
▁혈액	-9004
▁호킹	-9005
▁확장	-9006
▁회동	-9007
사회에	-9008
상태를	-9009
스타인	-9010
시키려	-9011
시킨다	-9012
었는데	-9013
이라면	-9014
이트를	-9015
할만한	-9016
▁감독을	-9017
▁개발한	-9018
▁거리로	-9019
▁관람객	-9020
▁근처에	-9021
▁기대를	-9022
▁기자의	-9023
▁끝나는	-9024
▁내리고	-9025
▁내셔널	-9026
▁노력의	-9027
▁뉴욕시	-9028
▁뉴욕증	-9029
▁단체를	-9030
▁대한민	-9031
▁도시를	-9032
▁때마다	-9033
▁라모스	-9034
▁로스앤	-9035
▁로켓포	-9036
▁못했던	-9037
▁무소속	-9038
▁문서를	-9039
▁미국산	-9040
▁미끄러	-9041
▁반군을	-9042
▁베탕쿠	-9043
▁보안관	-9044
▁분량의	-9045
▁붕괴된	-9046
▁브리티	-9047
▁사라진	-9048
▁사례가	-9049
▁사태의	-9050
▁사회의	-9051
▁선박이	-9052
▁세에서	-9053
▁소유한	-9054
▁수업을	-9055
▁스탈린	-9056
▁스프링	-9057
▁시까지	-9058
▁쌍둥이	-9059
▁쓰레기	-9060
▁아이는	-9061
▁애틀란	-9062
▁야당은	-9063
▁양측이	-9064
▁언제나	-9065
▁여사가	-9066
▁외무성	-9067
▁원숭이	-9068
▁유지할	-9069
▁이래로	-9070
▁이스트	-9071
▁인근서	-9072
▁일에도	-9073
▁입수한	-9074
▁자격을	-9075
▁전체에	-9076
▁정보가	-9077
▁정치범	-9078
▁제작된	-9079
▁조직의	-9080
▁죽음에	-9081
▁차량은	-9082
▁차이나	-9083
▁철저히	-9084
▁취했다	-9085
▁카라치	-9086
▁카지노	-9087
▁테러의	-9088
▁토대로	-9089
▁하는데	-9090
▁하버드	-9091
▁행위는	-9092
▁형태로	-9093
▁황우석	-9094
▁휴스턴	-9095
되었지만	-9096
시키는데	-9097
▁검토하고	-9098
▁국방부가	-9099
▁당선자는	-9100
▁둘러싸고	-9101
▁명이라고	-9102
▁무승부를	-9103
▁법적으로	-9104
▁보였다고	-9105
▁분석했다	-9106
▁사망자를	-9107
▁사용되는	-9108
▁생산하는	-9109
▁슈퍼대의	-9110
▁아무것도	-9111
▁안토니오	-9112
▁억달러의	-9113
▁에르도간	-9114
▁영국으로	-9115
▁온실가스	-9116
▁움직임이	-9117
▁이어졌다	-9118
▁입었으며	-9119
▁전대통령	-9120
▁전쟁으로	-9121
▁증언했다	-9122
▁진출했다	-9123
▁추산했다	-9124
▁클린턴을	-9125
▁페이스북	-9126
▁호주에서	-9127
▁감소했다고	-9128
▁국무장관이	-9129
▁되었습니다	-9130
▁디스커버리	-9131
▁미국에서는	-9132
▁에스토니아	-9133
▁오하이오주	-9134
▁재무장관은	-9135
▁정치적으로	-9136
▁지지한다고	-9137
▁로스앤젤레스	-9138
▁연방준비제도이	-9139
▁슛	-9140
▁튀	-9141
▁헝	-9142
감은	-9143
그라	-9144
내려	-9145
당과	-9146
독한	-9147
드폰	-9148
듯이	-9149
디가	-9150
례를	-9151
로우	-9152
르카	-9153
박한	-9154
받지	-9155
생물	-9156
세에	-9157
세와	-9158
스텔	-9159
스프	-9160
열에	-9161
운을	-9162
웠던	-9163
인도	-9164
청의	-9165
총장	-9166
캐슬	-9167
타가	-9168
퍼드	-9169
▁가한	-9170
▁감기	-9171
▁거머	-9172
▁고수	-9173
▁광장	-9174
▁괜찮	-9175
▁권리	-9176
▁기습	-9177
▁기증	-9178
▁김선	-9179
▁끌고	-9180
▁느껴	-9181
▁대니	-9182
▁대략	-9183
▁듣지	-9184
▁레빈	-9185
▁로맨	-9186
▁리오	-9187
▁맞붙	-9188
▁메리	-9189
▁모으	-9190
▁몸무	-9191
▁물가	-9192
▁물품	-9193
▁뮌헨	-9194
▁배급	-9195
▁배를	-9196
▁버진	-9197
▁병에	-9198
▁사카	-9199
▁생겨	-9200
▁소실	-9201
▁시의	-9202
▁신의	-9203
▁실수	-9204
▁실은	-9205
▁싶지	-9206
▁안락	-9207
▁야구	-9208
▁역대	-9209
▁연안	-9210
▁연임	-9211
▁영원	-9212
▁영장	-9213
▁유해	-9214
▁의석	-9215
▁이나	-9216
▁이룩	-9217
▁자사	-9218
▁장비	-9219
▁전송	-9220
▁조항	-9221
▁주미	-9222
▁지낸	-9223
▁진흙	-9224
▁참전	-9225
▁채의	-9226
▁처형	-9227
▁측에	-9228
▁침수	-9229
▁침팬	-9230
▁칭찬	-9231
▁칸다	-9232
▁클로	-9233
▁타협	-9234
▁퇴역	-9235
▁포터	-9236
▁피부	-9237
▁하산	-9238
▁하얀	-9239
▁해상	-9240
▁해소	-9241
▁했을	-9242
▁활성	-9243
▁휴먼	-9244
▁히트	-9245
가디슈	-9246
거리는	-9247
관계가	-9248
달라는	-9249
돼있다	-9250
메이션	-9251
바에서	-9252
시켜야	-9253
시했다	-9254
자였던	-9255
작업이	-9256
통신이	-9257
해에서	-9258
▁개발에	-9259
▁개선을	-9260
▁것이기	-9261
▁공급이	-9262
▁과정에	-9263
▁그곳에	-9264
▁기술이	-9265
▁끝까지	-9266
▁남편은	-9267
▁남한의	-9268
▁뉴캐슬	-9269
▁다리가	-9270
▁당국과	-9271
▁대만의	-9272
▁덕분에	-9273
▁동반한	-9274
▁뒷받침	-9275
▁리조트	-9276
▁마라도	-9277
▁만명을	-9278
▁모두를	-9279
▁모로코	-9280
▁목적이	-9281
▁무엇이	-9282
▁미군에	-9283
▁박사가	-9284
▁반체제	-9285
▁밝히며	-9286
▁버마의	-9287
▁보도한	-9288
▁본부를	-9289
▁부르는	-9290
▁부모가	-9291
▁부인인	-9292
▁브로드	-9293
▁비난한	-9294
▁사원을	-9295
▁사태는	-9296
▁사항은	-9297
▁속도를	-9298
▁스파이	-9299
▁시애틀	-9300
▁신문에	-9301
▁아이돌	-9302
▁열차가	-9303
▁올리는	-9304
▁요청한	-9305
▁요청할	-9306
▁위기가	-9307
▁유감을	-9308
▁의석을	-9309
▁있었기	-9310
▁자살을	-9311
▁자신에	-9312
▁자이언	-9313
▁재개할	-9314
▁전력을	-9315
▁제출할	-9316
▁주가가	-9317
▁주장은	-9318
▁줄이는	-9319
▁지구의	-9320
▁지방의	-9321
▁차례로	-9322
▁차지한	-9323
▁취하지	-9324
▁친구가	-9325
▁캐릭터	-9326
▁코스피	-9327
▁크루즈	-9328
▁터키군	-9329
▁폭발물	-9330
▁하나가	-9331
▁해왔다	-9332
▁행사가	-9333
▁행사할	-9334
▁헬기를	-9335
▁협력할	-9336
▁형태의	-9337
▁회의가	-9338
났습니다	-9339
하였으며	-9340
▁강화하고	-9341
▁교전으로	-9342
▁국회에서	-9343
▁군인들은	-9344
▁그곳에서	-9345
▁그들에게	-9346
▁기록하며	-9347
▁기자들이	-9348
▁데이비스	-9349
▁들어가는	-9350
▁라이벌인	-9351
▁리처드슨	-9352
▁모가디슈	-9353
▁목요일에	-9354
▁문제들을	-9355
▁반박했다	-9356
▁부통령이	-9357
▁사라졌다	-9358
▁사무실을	-9359
▁스미스의	-9360
▁스튜디오	-9361
▁스페인의	-9362
▁시달리고	-9363
▁야생동물	-9364
▁어머니가	-9365
▁엘리베이	-9366
▁원자바오	-9367
▁이라크내	-9368
▁이슬람교	-9369
▁인질들의	-9370
▁일반적인	-9371
▁일어나지	-9372
▁장소에서	-9373
▁재무장관	-9374
▁저항세력	-9375
▁정해지지	-9376
▁제공하고	-9377
▁주최측은	-9378
▁추정했다	-9379
▁탈레반과	-9380
▁폭풍으로	-9381
▁헤즈볼라	-9382
▁회사들이	-9383
▁후보들은	-9384
▁휴대전화	-9385
▁스피어스는	-9386
▁웹사이트는	-9387
▁이르기까지	-9388
▁이탈리아의	-9389
▁주장했지만	-9390
▁플로리다주	-9391
▁항공우주국	-9392
▁가자지구에서	-9393
▁닌	-9394
▁뚜	-9395
▁랄	-9396
▁챙	-9397
가격	-9398
개혁	-9399
데일	-9400
라리	-9401
론을	-9402
류가	-9403
마트	-9404
메르	-9405
미널	-9406
법의	-9407
보안	-9408
브리	-9409
비한	-9410
세이	-9411
션을	-9412
소득	-9413
쉬는	-9414
악한	-9415
우로	-9416
질유	-9417
치기	-9418
켓을	-9419
쿠니	-9420
표가	-9421
하러	-9422
협력	-9423
호에	-9424
화될	-9425
▁가라	-9426
▁가죽	-9427
▁가할	-9428
▁개설	-9429
▁결심	-9430
▁광우	-9431
▁국토	-9432
▁균형	-9433
▁깨끗	-9434
▁다녀	-9435
▁대지	-9436
▁도덕	-9437
▁두개	-9438
▁들을	-9439
▁딜러	-9440
▁로빈	-9441
▁마스	-9442
▁막고	-9443
▁매주	-9444
▁메인	-9445
▁모바	-9446
▁발레	-9447
▁발을	-9448
▁배상	-9449
▁보증	-9450
▁복합	-9451
▁불만	-9452
▁불황	-9453
▁사면	-9454
▁삶의	-9455
▁상담	-9456
▁상어	-9457
▁생일	-9458
▁서쪽	-9459
▁선을	-9460
▁세를	-9461
▁세우	-9462
▁소화	-9463
▁수수	-9464
▁쉬운	-9465
▁시일	-9466
▁싸움	-9467
▁영광	-9468
▁오고	-9469
▁오케	-9470
▁우방	-9471
▁유용	-9472
▁은하	-9473
▁자크	-9474
▁적응	-9475
▁전임	-9476
▁정식	-9477
▁제가	-9478
▁제니	-9479
▁조명	-9480
▁조속	-9481
▁종사	-9482
▁종이	-9483
▁좋다	-9484
▁중계	-9485
▁집필	-9486
▁집회	-9487
▁차로	-9488
▁창설	-9489
▁충족	-9490
▁취득	-9491
▁크고	-9492
▁트라	-9493
▁패한	-9494
▁포괄	-9495
▁폭로	-9496
▁하트	-9497
▁행성	-9498
▁헤이	-9499
관으로	-9500
국들이	-9501
대표는	-9502
들에서	-9503
사건에	-9504
사건을	-9505
시위를	-9506
작으로	-9507
조사를	-9508
지기도	-9509
하는지	-9510
하자는	-9511
해주는	-9512
흐스탄	-9513
▁계획한	-9514
▁공급을	-9515
▁관계는	-9516
▁국가는	-9517
▁국가주	-9518
▁국민을	-9519
▁국민이	-9520
▁기간을	-9521
▁나눴다	-9522
▁나오고	-9523
▁누르고	-9524
▁답변을	-9525
▁돌아온	-9526
▁동물을	-9527
▁떨어질	-9528
▁레이저	-9529
▁만명에	-9530
▁맞았다	-9531
▁머리에	-9532
▁머리카	-9533
▁명백히	-9534
▁발사를	-9535
▁버냉키	-9536
▁버스를	-9537
▁부분은	-9538
▁북극곰	-9539
▁북부의	-9540
▁분위기	-9541
▁사고에	-9542
▁서울의	-9543
▁선거의	-9544
▁성추행	-9545
▁셰이크	-9546
▁쇼핑몰	-9547
▁신뢰를	-9548
▁아니며	-9549
▁아들인	-9550
▁안보리	-9551
▁않아도	-9552
▁알제리	-9553
▁야당의	-9554
▁약속한	-9555
▁없었던	-9556
▁여왕은	-9557
▁여왕의	-9558
▁오마르	-9559
▁요구에	-9560
▁우리베	-9561
▁운동가	-9562
▁운행을	-9563
▁의미를	-9564
▁일으켜	-9565
▁일정이	-9566
▁임무는	-9567
▁자살한	-9568
▁자세를	-9569
▁장비를	-9570
▁재활용	-9571
▁접전을	-9572
▁정도가	-9573
▁제조업	-9574
▁조건을	-9575
▁조만간	-9576
▁주인이	-9577
▁지키고	-9578
▁최고위	-9579
▁티셔츠	-9580
▁판매를	-9581
▁패리스	-9582
▁향하고	-9583
▁확인된	-9584
▁환자의	-9585
지역으로	-9586
▁같습니다	-9587
▁거짓말을	-9588
▁경제성장	-9589
▁금지하고	-9590
▁기상청은	-9591
▁네바다주	-9592
▁도로에서	-9593
▁도미니카	-9594
▁드립니다	-9595
▁명령했다	-9596
▁목격자는	-9597
▁무장괴한	-9598
▁받았지만	-9599
▁밝혀냈다	-9600
▁방지하기	-9601
▁백악관에	-9602
▁벌어지고	-9603
▁분야에서	-9604
▁비행기에	-9605
▁사임했다	-9606
▁상파울루	-9607
▁세트에서	-9608
▁수상자인	-9609
▁스트레스	-9610
▁않겠다는	-9611
▁어머니와	-9612
▁연방수사	-9613
▁오픈에서	-9614
▁인정하지	-9615
▁일어나고	-9616
▁전쟁에서	-9617
▁조사하기	-9618
▁중단하고	-9619
▁중요성을	-9620
▁착수했다	-9621
▁쿠데타로	-9622
▁크리스마	-9623
▁테러지원	-9624
▁프랑스와	-9625
▁학생들의	-9626
트레이어스	-9627
▁국제유가는	-9628
▁다이애나가	-9629
▁버지니아주	-9630
▁상원의원인	-9631
▁애니메이션	-9632
▁지도자들을	-9633
▁투자자들이	-9634
▁파키스탄에서	-9635
▁댓	-9636
▁줬	-9637
▁즈	-9638
▁쪽	-9639
▁쿼	-9640
경비	-9641
권은	-9642
그래	-9643
금은	-9644
나귀	-9645
냄새	-9646
너럴	-9647
너스	-9648
라노	-9649
론의	-9650
미가	-9651
밴드	-9652
베리	-9653
보좌	-9654
산층	-9655
선한	-9656
수감	-9657
수준	-9658
숙한	-9659
습을	-9660
시즌	-9661
아메	-9662
액은	-9663
예를	-9664
오염	-9665
장애	-9666
적은	-9667
전략	-9668
정의	-9669
제의	-9670
조치	-9671
주기	-9672
지면	-9673
직한	-9674
참모	-9675
츠의	-9676
커가	-9677
탄과	-9678
행이	-9679
▁가던	-9680
▁각자	-9681
▁거둔	-9682
▁겨우	-9683
▁격돌	-9684
▁고민	-9685
▁공기	-9686
▁관절	-9687
▁군함	-9688
▁기획	-9689
▁나란	-9690
▁날이	-9691
▁내게	-9692
▁뇌물	-9693
▁도메	-9694
▁드물	-9695
▁떠오	-9696
▁라시	-9697
▁러드	-9698
▁레오	-9699
▁로페	-9700
▁롬니	-9701
▁리우	-9702
▁마호	-9703
▁만찬	-9704
▁매머	-9705
▁맥주	-9706
▁맺고	-9707
▁메일	-9708
▁명칭	-9709
▁모터	-9710
▁무대	-9711
▁미친	-9712
▁바위	-9713
▁방치	-9714
▁부속	-9715
▁분실	-9716
▁생성	-9717
▁설정	-9718
▁성사	-9719
▁스콧	-9720
▁승부	-9721
▁승용	-9722
▁쓰여	-9723
▁아닐	-9724
▁아크	-9725
▁안젤	-9726
▁알파	-9727
▁언어	-9728
▁연대	-9729
▁연휴	-9730
▁오키	-9731
▁원치	-9732
▁응원	-9733
▁잃고	-9734
▁임상	-9735
▁재고	-9736
▁저널	-9737
▁제의	-9738
▁종말	-9739
▁종신	-9740
▁주교	-9741
▁지중	-9742
▁진단	-9743
▁탄소	-9744
▁통증	-9745
▁펀드	-9746
▁편안	-9747
▁평방	-9748
▁폭등	-9749
▁피로	-9750
▁학년	-9751
▁한층	-9752
▁해를	-9753
▁현행	-9754
▁휴양	-9755
▁흘러	-9756
▁흰색	-9757
기간을	-9758
블랜드	-9759
세력을	-9760
연상을	-9761
의사를	-9762
주의자	-9763
테리아	-9764
화하는	-9765
▁감사를	-9766
▁겪었다	-9767
▁경제는	-9768
▁공공장	-9769
▁나가는	-9770
▁년에도	-9771
▁년형을	-9772
▁노력에	-9773
▁단계에	-9774
▁대주교	-9775
▁동유럽	-9776
▁드라이	-9777
▁로한은	-9778
▁마케팅	-9779
▁말라고	-9780
▁말아야	-9781
▁명단에	-9782
▁명확히	-9783
▁모았다	-9784
▁목적은	-9785
▁무장대	-9786
▁물었다	-9787
▁방식을	-9788
▁범죄에	-9789
▁베컴이	-9790
▁보상을	-9791
▁복귀할	-9792
▁부부의	-9793
▁비공식	-9794
▁빠졌다	-9795
▁산불로	-9796
▁설치된	-9797
▁센터의	-9798
▁소녀가	-9799
▁손해를	-9800
▁쇠고기	-9801
▁수치다	-9802
▁수치를	-9803
▁시즌을	-9804
▁심문을	-9805
▁싶다고	-9806
▁아칸소	-9807
▁아흐메	-9808
▁야후는	-9809
▁언급은	-9810
▁엘바라	-9811
▁영감을	-9812
▁영향력	-9813
▁오딩가	-9814
▁우리당	-9815
▁원하지	-9816
▁의지를	-9817
▁이것을	-9818
▁이어질	-9819
▁있거나	-9820
▁자산을	-9821
▁장거리	-9822
▁전망이	-9823
▁정신과	-9824
▁주장이	-9825
▁중국인	-9826
▁중산층	-9827
▁지나지	-9828
▁지속될	-9829
▁지진은	-9830
▁찾았다	-9831
▁총선에	-9832
▁축구팬	-9833
▁태국의	-9834
▁판결은	-9835
▁필요할	-9836
▁할아버	-9837
▁합의가	-9838
▁합의는	-9839
▁호텔을	-9840
▁화상을	-9841
▁확보할	-9842
▁환경에	-9843
▁회견을	-9844
▁후지모	-9845
경기에서	-9846
되었다는	-9847
센터에서	-9848
▁공동으로	-9849
▁구조대원	-9850
▁국민들을	-9851
▁국회의사	-9852
▁기록하고	-9853
▁니콜라스	-9854
▁단체들은	-9855
▁대답했다	-9856
▁대대적인	-9857
▁러시아와	-9858
▁명단에서	-9859
▁모습으로	-9860
▁보호하고	-9861
▁보호하는	-9862
▁본선에서	-9863
▁브리트니	-9864
▁사람들도	-9865
▁사이트에	-9866
▁상공에서	-9867
▁시스템이	-9868
▁예상되는	-9869
▁예상보다	-9870
▁우주정거	-9871
▁위협하는	-9872
▁유일하게	-9873
▁이라크가	-9874
▁이라크인	-9875
▁이용하고	-9876
▁이재민이	-9877
▁일으키는	-9878
▁자신감을	-9879
▁전세계에	-9880
▁지구에서	-9881
▁지도부는	-9882
▁지방에서	-9883
▁지지율을	-9884
▁지지율이	-9885
▁차베스는	-9886
▁차원에서	-9887
▁총격으로	-9888
▁카트리나	-9889
▁컴퓨터가	-9890
▁크리스티	-9891
▁탈레반의	-9892
▁티베트의	-9893
▁판결했다	-9894
▁플레이어	-9895
▁해결책을	-9896
▁행사에서	-9897
▁회사들은	-9898
▁대통령과의	-9899
▁시위자들이	-9900
▁아이디어를	-9901
▁어린이들이	-9902
▁엘바라데이	-9903
▁의원들에게	-9904
▁지도자들과	-9905
▁짐바브웨의	-9906
▁카자흐스탄	-9907
▁투자자들은	-9908
▁파키스탄이	-9909
▁폭력사태를	-9910
▁폭탄테러를	-9911
▁확인했다고	-9912
▁경찰에따르면	-9913
▁마이스페이스	-9914
▁모스크바에서	-9915
▁사망했습니다	-9916
▁아프가니스탄에	-9917
▁아프가니스탄의	-9918
▁남아프리카공화국	-9919
▁밸	-9920
▁짜	-9921
▁툴	-9922
감시	-9923
관과	-9924
누엘	-9925
들리	-9926
디의	-9927
락은	-9928
려면	-9929
리한	-9930
마이	-9931
문과	-9932
병에	-9933
병의	-9934
보장	-9935
봉을	-9936
부모	-9937
브스	-9938
색의	-9939
세기	-9940
소시	-9941
야만	-9942
유의	-9943
인수	-9944
자유	-9945
재를	-9946
카르	-9947
타와	-9948
트맨	-9949
팀의	-9950
▁가축	-9951
▁감추	-9952
▁격리	-9953
▁교과	-9954
▁구의	-9955
▁구형	-9956
▁군데	-9957
▁끌려	-9958
▁남녀	-9959
▁내는	-9960
▁내비	-9961
▁단일	-9962
▁당혹	-9963
▁도주	-9964
▁독자	-9965
▁되풀	-9966
▁뒤집	-9967
▁따를	-9968
▁라크	-9969
▁리치	-9970
▁만났	-9971
▁말로	-9972
▁면역	-9973
▁면제	-9974
▁몸이	-9975
▁반환	-9976
▁발달	-9977
▁밝힐	-9978
▁밤새	-9979
▁배아	-9980
▁뱅크	-9981
▁복사	-9982
▁본다	-9983
▁브로	-9984
▁비영	-9985
▁빛을	-9986
▁생중	-9987
▁생태	-9988
▁신장	-9989
▁실어	-9990
▁싶은	-9991
▁아사	-9992
▁악영	-9993
▁여년	-9994
▁역전	-9995
▁연령	-9996
▁영부	-9997
▁오피	-9998
▁요새	-9999
▁우호	-10000
▁월과	-10001
▁월터	-10002
▁유타	-10003
▁유효	-10004
▁인계	-10005
▁자서	-10006
▁잠을	-10007
▁잡은	-10008
▁재경	-10009
▁재벌	-10010
▁전과	-10011
▁절감	-10012
▁정오	-10013
▁제도	-10014
▁제패	-10015
▁존경	-10016
▁줄여	-10017
▁즐거	-10018
▁차에	-10019
▁착취	-10020
▁첨단	-10021
▁촛불	-10022
▁총알	-10023
▁추종	-10024
▁추출	-10025
▁코네	-10026
▁콘텐	-10027
▁콜레	-10028
▁클루	-10029
▁타결	-10030
▁털어	-10031
▁테리	-10032
▁파르	-10033
▁평론	-10034
▁포위	-10035
▁포츠	-10036
▁피셔	-10037
▁피의	-10038
▁피플	-10039
▁하리	-10040
▁해킹	-10041
▁허블	-10042
▁히스	-10043
▁힘이	-10044
되지만	-10045
된다는	-10046
베리아	-10047
장치를	-10048
판에서	-10049
하기는	-10050
해서는	-10051
▁가격에	-10052
▁가져다	-10053
▁갤런당	-10054
▁걸렸다	-10055
▁경기의	-10056
▁경보를	-10057
▁계획의	-10058
▁공항은	-10059
▁공화국	-10060
▁국세청	-10061
▁군대가	-10062
▁군부가	-10063
▁규모는	-10064
▁글래스	-10065
▁김선일	-10066
▁나토군	-10067
▁논의가	-10068
▁뉴스는	-10069
▁느낀다	-10070
▁니케이	-10071
▁다음과	-10072
▁당나귀	-10073
▁도시로	-10074
▁되돌아	-10075
▁들어오	-10076
▁런던에	-10077
▁만개의	-10078
▁메모리	-10079
▁몸무게	-10080
▁무너져	-10081
▁무너진	-10082
▁무엇인	-10083
▁바다로	-10084
▁방문이	-10085
▁병원을	-10086
▁부상당	-10087
▁사이언	-10088
▁사임할	-10089
▁생산할	-10090
▁성직자	-10091
▁소리가	-10092
▁수개월	-10093
▁수십억	-10094
▁수용할	-10095
▁실업수	-10096
▁아기가	-10097
▁아기의	-10098
▁아스널	-10099
▁아이티	-10100
▁어두운	-10101
▁어려움	-10102
▁여사와	-10103
▁영장을	-10104
▁오프라	-10105
▁올리고	-10106
▁음모를	-10107
▁이름은	-10108
▁이었다	-10109
▁인정한	-10110
▁인정할	-10111
▁일정은	-10112
▁있을지	-10113
▁자메이	-10114
▁작성한	-10115
▁잡았다	-10116
▁재정적	-10117
▁전기가	-10118
▁정상화	-10119
▁조치에	-10120
▁종교적	-10121
▁주말에	-10122
▁주어진	-10123
▁증시의	-10124
▁진술을	-10125
▁진전을	-10126
▁차이를	-10127
▁출마할	-10128
▁타이완	-10129
▁토론을	-10130
▁트라볼	-10131
▁판단을	-10132
▁판사가	-10133
▁페널티	-10134
▁페트로	-10135
▁풍부한	-10136
▁하나를	-10137
▁한다며	-10138
▁행사는	-10139
▁혼란에	-10140
▁환경을	-10141
▁후에도	-10142
▁힐튼이	-10143
▁힘들다	-10144
단체들은	-10145
선거에서	-10146
▁가족에게	-10147
▁경제적인	-10148
▁국가정보	-10149
▁금지하는	-10150
▁기본적인	-10151
▁기소했다	-10152
▁당국자는	-10153
▁대통령도	-10154
▁동영상은	-10155
▁라이스는	-10156
▁민주당과	-10157
▁민주변화	-10158
▁받았으나	-10159
▁상원에서	-10160
▁수요일에	-10161
▁수퍼대의	-10162
▁스미스는	-10163
▁스피어스	-10164
▁승객들이	-10165
▁아버지의	-10166
▁애완동물	-10167
▁야스쿠니	-10168
▁연구팀은	-10169
▁연기했다	-10170
▁용의자의	-10171
▁웨스트버	-10172
▁유권자의	-10173
▁자리잡고	-10174
▁전국적인	-10175
▁정상들은	-10176
▁정상적인	-10177
▁지역이다	-10178
▁참여하는	-10179
▁참여했다	-10180
▁촉구하는	-10181
▁추가적인	-10182
▁커뮤니티	-10183
▁쿠르드족	-10184
▁퍼센트의	-10185
▁피추시킨	-10186
▁필요성을	-10187
▁하락세를	-10188
▁헤럴드는	-10189
▁확실하지	-10190
▁후세인의	-10191
▁힐러리는	-10192
▁관광객들은	-10193
▁무샤라프의	-10194
▁바이러스에	-10195
▁보도합니다	-10196
▁사망자수가	-10197
▁사무총장이	-10198
▁샤라포바는	-10199
▁수감자들을	-10200
▁시카고에서	-10201
▁아시아에서	-10202
▁아이들에게	-10203
▁이라크전에	-10204
▁인도주의적	-10205
▁한나라당이	-10206
▁하락했습니다	-10207
▁꼽	-10208
▁딘	-10209
▁렉	-10210
▁앗	-10211
▁앰	-10212
▁웬	-10213
▁칩	-10214
건설	-10215
겔라	-10216
경이	-10217
국제	-10218
길에	-10219
놓은	-10220
놨다	-10221
뉴스	-10222
덩이	-10223
돌이	-10224
동생	-10225
디언	-10226
로로	-10227
뤘다	-10228
류에	-10229
망이	-10230
부족	-10231
분야	-10232
비엘	-10233
사면	-10234
식과	-10235
여행	-10236
열을	-10237
오프	-10238
워터	-10239
음악	-10240
있고	-10241
저널	-10242
전선	-10243
조로	-10244
조정	-10245
죄로	-10246
진에	-10247
카스	-10248
평을	-10249
포트	-10250
형에	-10251
▁가결	-10252
▁가기	-10253
▁강의	-10254
▁거세	-10255
▁검시	-10256
▁경신	-10257
▁공학	-10258
▁교내	-10259
▁군용	-10260
▁그럼	-10261
▁나쁘	-10262
▁넓은	-10263
▁농부	-10264
▁놓은	-10265
▁닉슨	-10266
▁단식	-10267
▁당이	-10268
▁대에	-10269
▁독감	-10270
▁동일	-10271
▁동점	-10272
▁두뇌	-10273
▁뒤따	-10274
▁디에	-10275
▁때가	-10276
▁라왈	-10277
▁러셀	-10278
▁레저	-10279
▁마가	-10280
▁몰래	-10281
▁몸값	-10282
▁문자	-10283
▁바꿔	-10284
▁바나	-10285
▁바퀴	-10286
▁반란	-10287
▁배나	-10288
▁배로	-10289
▁밴드	-10290
▁불공	-10291
▁불매	-10292
▁비유	-10293
▁빠뜨	-10294
▁사탕	-10295
▁산소	-10296
▁서버	-10297
▁서안	-10298
▁설계	-10299
▁세실	-10300
▁속한	-10301
▁시경	-10302
▁식이	-10303
▁아끼	-10304
▁악어	-10305
▁않자	-10306
▁앞당	-10307
▁애도	-10308
▁에디	-10309
▁에버	-10310
▁예보	-10311
▁오징	-10312
▁올바	-10313
▁완공	-10314
▁위태	-10315
▁유입	-10316
▁인신	-10317
▁인치	-10318
▁일명	-10319
▁일째	-10320
▁입학	-10321
▁자백	-10322
▁저택	-10323
▁전비	-10324
▁전원	-10325
▁정통	-10326
▁조셉	-10327
▁조장	-10328
▁주를	-10329
▁죽어	-10330
▁줄이	-10331
▁지침	-10332
▁집무	-10333
▁차림	-10334
▁창조	-10335
▁채워	-10336
▁취약	-10337
▁침착	-10338
▁카우	-10339
▁캠벨	-10340
▁크기	-10341
▁크다	-10342
▁키스	-10343
▁타입	-10344
▁테마	-10345
▁평소	-10346
▁폴리	-10347
▁할지	-10348
▁현상	-10349
▁회부	-10350
▁회색	-10351
는지에	-10352
방에서	-10353
사건이	-10354
스탄불	-10355
시간을	-10356
었다는	-10357
연구소	-10358
이라크	-10359
이트는	-10360
자리에	-10361
총장은	-10362
혔다고	-10363
▁가하고	-10364
▁거래가	-10365
▁겁니다	-10366
▁경우가	-10367
▁경제와	-10368
▁경찰을	-10369
▁경호원	-10370
▁고향인	-10371
▁공항의	-10372
▁과거의	-10373
▁군대를	-10374
▁규제를	-10375
▁그런가	-10376
▁기온이	-10377
▁남편과	-10378
▁네덜란	-10379
▁눈물을	-10380
▁뉴스의	-10381
▁단순한	-10382
▁단어를	-10383
▁달라고	-10384
▁대기업	-10385
▁대사가	-10386
▁대선을	-10387
▁던졌다	-10388
▁독일인	-10389
▁로딕은	-10390
▁마련할	-10391
▁마을에	-10392
▁맡았던	-10393
▁모바일	-10394
▁미래의	-10395
▁박격포	-10396
▁발전을	-10397
▁발표에	-10398
▁방사능	-10399
▁법정에	-10400
▁보여줄	-10401
▁보호할	-10402
▁본사를	-10403
▁사업에	-10404
▁생일을	-10405
▁생중계	-10406
▁석방할	-10407
▁선언한	-10408
▁선출된	-10409
▁세트를	-10410
▁수위가	-10411
▁수준의	-10412
▁스피처	-10413
▁시도를	-10414
▁신발을	-10415
▁아내와	-10416
▁않겠다	-10417
▁알았다	-10418
▁알자와	-10419
▁암살된	-10420
▁양국간	-10421
▁양국이	-10422
▁어디서	-10423
▁언제든	-10424
▁얼음이	-10425
▁여파로	-10426
▁연구의	-10427
▁연승을	-10428
▁연합은	-10429
▁유니버	-10430
▁의료진	-10431
▁의식을	-10432
▁이틀간	-10433
▁입국을	-10434
▁있었을	-10435
▁장관을	-10436
▁장악한	-10437
▁장치를	-10438
▁재판은	-10439
▁재확인	-10440
▁잭슨은	-10441
▁정책은	-10442
▁줄이고	-10443
▁지키기	-10444
▁진단을	-10445
▁질환을	-10446
▁참석해	-10447
▁취임한	-10448
▁캔자스	-10449
▁커지고	-10450
▁크라우	-10451
▁토론토	-10452
▁투표는	-10453
▁투표할	-10454
▁판매할	-10455
▁패스를	-10456
▁폐쇄를	-10457
▁필요는	-10458
▁헌법을	-10459
▁화장실	-10460
▁확인한	-10461
▁회동을	-10462
되었는데	-10463
적이었다	-10464
▁경찰서에	-10465
▁관점에서	-10466
▁국영방송	-10467
▁금메달을	-10468
▁남아있다	-10469
▁뉴멕시코	-10470
▁대부분을	-10471
▁독일에서	-10472
▁동쪽으로	-10473
▁마흐무드	-10474
▁말하면서	-10475
▁무시하고	-10476
▁부상자는	-10477
▁부족으로	-10478
▁북한에서	-10479
▁브리티시	-10480
▁블룸버그	-10481
▁사망하는	-10482
▁사용되고	-10483
▁사회주의	-10484
▁산사태로	-10485
▁상승으로	-10486
▁상태라고	-10487
▁선수들의	-10488
▁선정됐다	-10489
▁세계보건	-10490
▁수하르토	-10491
▁시스템은	-10492
▁시위대와	-10493
▁싶어한다	-10494
▁아버지와	-10495
▁왔습니다	-10496
▁위협했다	-10497
▁유명하다	-10498
▁이스탄불	-10499
▁일축했다	-10500
▁자메이카	-10501
▁장난감을	-10502
▁제공했다	-10503
▁중심으로	-10504
▁중앙정보	-10505
▁진행중인	-10506
▁참가했다	-10507
▁충격으로	-10508
▁칸다하르	-10509
▁케르비엘	-10510
▁팔레스타	-10511
▁팬들에게	-10512
▁하락하며	-10513
▁학생들과	-10514
▁환영했다	-10515
▁활동하는	-10516
▁교통사고로	-10517
▁내무장관은	-10518
▁무샤라프가	-10519
▁살해했다고	-10520
▁시상식에서	-10521
▁이산화탄소	-10522
▁토네이도가	-10523
▁파키스탄은	-10524
▁프로젝트를	-10525
▁베네수엘라의	-10526
▁사이클론으로	-10527
▁유럽축구연맹	-10528
▁연방준비제도이사회	-10529
▁끈	-10530
▁닿	-10531
▁엉	-10532
▁탓	-10533
▁했	-10534
개가	-10535
거는	-10536
건은	-10537
극을	-10538
긴다	-10539
냐고	-10540
두에	-10541
머는	-10542
보기	-10543
보의	-10544
부대	-10545
비용	-10546
산이	-10547
서도	-10548
센은	-10549
오가	-10550
요원	-10551
웨어	-10552
자르	-10553
작업	-10554
장치	-10555
재가	-10556
종일	-10557
주인	-10558
중국	-10559
지리	-10560
지않	-10561
착륙	-10562
체와	-10563
턴은	-10564
테인	-10565
티드	-10566
퍼스	-10567
호한	-10568
히고	-10569
▁건립	-10570
▁걷는	-10571
▁격추	-10572
▁결함	-10573
▁계곡	-10574
▁공략	-10575
▁교토	-10576
▁구할	-10577
▁그때	-10578
▁그랜	-10579
▁기권	-10580
▁기조	-10581
▁길에	-10582
▁남미	-10583
▁냄새	-10584
▁냉동	-10585
▁넣어	-10586
▁녹색	-10587
▁농작	-10588
▁대와	-10589
▁도발	-10590
▁독점	-10591
▁들은	-10592
▁듯한	-10593
▁말은	-10594
▁맞게	-10595
▁매력	-10596
▁메가	-10597
▁몸집	-10598
▁미망	-10599
▁미셀	-10600
▁바에	-10601
▁바오	-10602
▁배럭	-10603
▁백신	-10604
▁번역	-10605
▁부른	-10606
▁부품	-10607
▁비준	-10608
▁살이	-10609
▁세균	-10610
▁속옷	-10611
▁수업	-10612
▁싫어	-10613
▁안나	-10614
▁압력	-10615
▁앗아	-10616
▁에미	-10617
▁여부	-10618
▁역설	-10619
▁연립	-10620
▁오차	-10621
▁옥스	-10622
▁왕자	-10623
▁요하	-10624
▁용인	-10625
▁운하	-10626
▁의식	-10627
▁이례	-10628
▁일단	-10629
▁장갑	-10630
▁장치	-10631
▁조코	-10632
▁종업	-10633
▁종의	-10634
▁죽을	-10635
▁짝짓	-10636
▁찾은	-10637
▁초과	-10638
▁최후	-10639
▁출범	-10640
▁침투	-10641
▁타지	-10642
▁토양	-10643
▁틀림	-10644
▁펠리	-10645
▁호화	-10646
▁혼합	-10647
▁홈런	-10648
▁화석	-10649
▁후쿠	-10650
▁흥행	-10651
겼으며	-10652
대사는	-10653
되지는	-10654
러시아	-10655
렸지만	-10656
로서는	-10657
면으로	-10658
문제에	-10659
버렸다	-10660
스트롱	-10661
슬러는	-10662
시설을	-10663
언했다	-10664
였으나	-10665
위기에	-10666
적이지	-10667
정책을	-10668
파운드	-10669
하다며	-10670
회장은	-10671
▁가정에	-10672
▁각국의	-10673
▁개국이	-10674
▁걸었다	-10675
▁검찰에	-10676
▁검찰의	-10677
▁고려해	-10678
▁곧바로	-10679
▁구스마	-10680
▁구하기	-10681
▁국왕이	-10682
▁그린피	-10683
▁급속히	-10684
▁기간에	-10685
▁기도를	-10686
▁기술은	-10687
▁기준을	-10688
▁나란히	-10689
▁나타낸	-10690
▁날씨가	-10691
▁노리에	-10692
▁단체에	-10693
▁달한다	-10694
▁대결을	-10695
▁대중의	-10696
▁대학은	-10697
▁도널드	-10698
▁도시에	-10699
▁돌려보	-10700
▁동물의	-10701
▁되풀이	-10702
▁뒤에서	-10703
▁라이프	-10704
▁마약을	-10705
▁마침내	-10706
▁마호메	-10707
▁만장일	-10708
▁매코맥	-10709
▁맥코맥	-10710
▁메시지	-10711
▁모니터	-10712
▁무책임	-10713
▁문제다	-10714
▁바바라	-10715
▁반군에	-10716
▁버몬트	-10717
▁보내기	-10718
▁보안을	-10719
▁부근에	-10720
▁불렀다	-10721
▁불안한	-10722
▁비교해	-10723
▁비무장	-10724
▁비판을	-10725
▁사람과	-10726
▁사이로	-10727
▁사형집	-10728
▁시도한	-10729
▁시장과	-10730
▁아들은	-10731
▁아이슬	-10732
▁아틀란	-10733
▁양측의	-10734
▁여명을	-10735
▁열렸던	-10736
▁영국이	-10737
▁외교관	-10738
▁운전을	-10739
▁월에도	-10740
▁유가족	-10741
▁유럽을	-10742
▁유수프	-10743
▁유엔과	-10744
▁의약품	-10745
▁의혹에	-10746
▁인도와	-10747
▁일만에	-10748
▁자유의	-10749
▁장관급	-10750
▁장소로	-10751
▁저렴한	-10752
▁저희는	-10753
▁전원이	-10754
▁정당이	-10755
▁정책이	-10756
▁제이미	-10757
▁제품에	-10758
▁제프리	-10759
▁존드로	-10760
▁주민이	-10761
▁주석은	-10762
▁주치의	-10763
▁중상을	-10764
▁지지율	-10765
▁차례나	-10766
▁참가할	-10767
▁총기난	-10768
▁총리에	-10769
▁출전을	-10770
▁출전한	-10771
▁코끼리	-10772
▁크로커	-10773
▁탈라바	-10774
▁터미널	-10775
▁특이한	-10776
▁판정을	-10777
▁페리노	-10778
▁평범한	-10779
▁프로듀	-10780
▁학대를	-10781
▁협조를	-10782
▁확률이	-10783
▁확인해	-10784
통합민주	-10785
해달라고	-10786
▁건물에서	-10787
▁것이지만	-10788
▁결의안에	-10789
▁경찰관은	-10790
▁골든글로	-10791
▁공원에서	-10792
▁그라운드	-10793
▁기반으로	-10794
▁기자들의	-10795
▁내무부가	-10796
▁다음으로	-10797
▁데이터를	-10798
▁돌아왔다	-10799
▁들어있는	-10800
▁만달러를	-10801
▁말했으며	-10802
▁말했지만	-10803
▁박테리아	-10804
▁배제하지	-10805
▁본격적인	-10806
▁부총리는	-10807
▁비밀리에	-10808
▁상관없이	-10809
▁시작되는	-10810
▁시점에서	-10811
▁악영향을	-10812
▁알자와히	-10813
▁암스트롱	-10814
▁애틀랜타	-10815
▁어린이를	-10816
▁어머니는	-10817
▁엔지니어	-10818
▁오토바이	-10819
▁오피니언	-10820
▁우주선이	-10821
▁의료진이	-10822
▁이용하여	-10823
▁인도에서	-10824
▁인디아나	-10825
▁일정으로	-10826
▁자회담에	-10827
▁재정경제	-10828
▁전문가인	-10829
▁중단됐다	-10830
▁지목했다	-10831
▁착용하고	-10832
▁참여하지	-10833
▁책임자인	-10834
▁추진하고	-10835
▁크레이그	-10836
▁평양에서	-10837
▁폭발물을	-10838
▁하겠다고	-10839
▁확인하는	-10840
▁환경보호	-10841
▁후보들이	-10842
▁후보에게	-10843
위원회에서	-10844
▁관계당국은	-10845
▁관계자들과	-10846
▁라운드에서	-10847
▁사살했다고	-10848
▁선거운동을	-10849
▁수색작업을	-10850
▁슈워제네거	-10851
▁스피어스가	-10852
▁아웅산수치	-10853
▁알카에다를	-10854
▁월드시리즈	-10855
▁이스라엘군	-10856
▁이슬람교도	-10857
▁일부에서는	-10858
▁중요하다고	-10859
▁결과에따르면	-10860
▁구조대원들이	-10861
▁세계보건기구	-10862
▁정상회담에서	-10863
▁웨스트버지니아	-10864
▁닷	-10865
▁댐	-10866
▁란	-10867
▁람	-10868
▁류	-10869
▁빗	-10870
▁빵	-10871
▁첨	-10872
▁캥	-10873
▁톱	-10874
▁틸	-10875
강한	-10876
개로	-10877
거루	-10878
검찰	-10879
계관	-10880
공사	-10881
구로	-10882
구에	-10883
권의	-10884
냈던	-10885
다코	-10886
레아	-10887
레즈	-10888
마리	-10889
문의	-10890
보면	-10891
분간	-10892
세대	-10893
세요	-10894
수술	-10895
시바	-10896
심은	-10897
얄라	-10898
엄한	-10899
였을	-10900
와이	-10901
욕을	-10902
운트	-10903
의원	-10904
익을	-10905
인권	-10906
일라	-10907
일인	-10908
있지	-10909
자민	-10910
자원	-10911
잡을	-10912
재로	-10913
지길	-10914
지스	-10915
질러	-10916
톤의	-10917
튼의	-10918
티컷	-10919
필더	-10920
▁가뭄	-10921
▁가서	-10922
▁간섭	-10923
▁감량	-10924
▁갤럭	-10925
▁검출	-10926
▁결렬	-10927
▁결별	-10928
▁골로	-10929
▁공통	-10930
▁구름	-10931
▁구사	-10932
▁군복	-10933
▁그날	-10934
▁근교	-10935
▁기쁨	-10936
▁낙찰	-10937
▁납세	-10938
▁내장	-10939
▁농산	-10940
▁누드	-10941
▁다녔	-10942
▁다뤄	-10943
▁다짐	-10944
▁달에	-10945
▁대면	-10946
▁도서	-10947
▁독도	-10948
▁돕고	-10949
▁둘째	-10950
▁딸인	-10951
▁땅을	-10952
▁라틴	-10953
▁마닐	-10954
▁많지	-10955
▁말고	-10956
▁매수	-10957
▁미트	-10958
▁미하	-10959
▁밀리	-10960
▁베리	-10961
▁별로	-10962
▁보드	-10963
▁비싼	-10964
▁성경	-10965
▁세이	-10966
▁셔츠	-10967
▁수마	-10968
▁수잔	-10969
▁숫자	-10970
▁스케	-10971
▁시판	-10972
▁심판	-10973
▁아우	-10974
▁악성	-10975
▁안겨	-10976
▁얻는	-10977
▁예로	-10978
▁오락	-10979
▁오직	-10980
▁요격	-10981
▁원격	-10982
▁월경	-10983
▁웨이	-10984
▁유혹	-10985
▁이내	-10986
▁이며	-10987
▁일년	-10988
▁일방	-10989
▁잔디	-10990
▁정규	-10991
▁정한	-10992
▁조카	-10993
▁좋게	-10994
▁좌파	-10995
▁주류	-10996
▁지내	-10997
▁지미	-10998
▁지수	-10999
▁지킬	-11000
▁직장	-11001
▁집어	-11002
▁차전	-11003
▁체스	-11004
▁체제	-11005
▁초고	-11006
▁출국	-11007
▁출장	-11008
▁치고	-11009
▁켈리	-11010
▁크누	-11011
▁특사	-11012
▁티모	-11013
▁펼칠	-11014
▁포유	-11015
▁폴슨	-11016
▁해석	-11017
▁헤르	-11018
▁혁신	-11019
▁호의	-11020
▁확고	-11021
▁회피	-11022
▁후퇴	-11023
▁휴일	-11024
경기에	-11025
기록을	-11026
기적인	-11027
났지만	-11028
라이프	-11029
렸다는	-11030
법원에	-11031
서비스	-11032
선으로	-11033
성으로	-11034
세포를	-11035
소시에	-11036
웨스트	-11037
으려는	-11038
인들과	-11039
자들도	-11040
탈리아	-11041
하려면	-11042
회담을	-11043
▁갖는다	-11044
▁개월이	-11045
▁경영진	-11046
▁경향이	-11047
▁고립된	-11048
▁공개할	-11049
▁공격의	-11050
▁공격할	-11051
▁공군기	-11052
▁공군은	-11053
▁공장을	-11054
▁구멍을	-11055
▁구체적	-11056
▁국왕은	-11057
▁권한을	-11058
▁그룹의	-11059
▁그린스	-11060
▁극적인	-11061
▁남편을	-11062
▁뇌물을	-11063
▁동안에	-11064
▁린제이	-11065
▁맥케인	-11066
▁맨유는	-11067
▁목격한	-11068
▁목소리	-11069
▁무기한	-11070
▁미국발	-11071
▁미네소	-11072
▁발견돼	-11073
▁보고는	-11074
▁봤다고	-11075
▁부상한	-11076
▁부인과	-11077
▁부토가	-11078
▁분석가	-11079
▁브루스	-11080
▁비영리	-11081
▁빠르면	-11082
▁사랑에	-11083
▁사적인	-11084
▁살해할	-11085
▁새끼를	-11086
▁선거법	-11087
▁선데이	-11088
▁소방관	-11089
▁스카이	-11090
▁식민지	-11091
▁안타깝	-11092
▁않다는	-11093
▁애쓰고	-11094
▁에드워	-11095
▁에서도	-11096
▁에이미	-11097
▁엔데버	-11098
▁여동생	-11099
▁여배우	-11100
▁여진이	-11101
▁오늘은	-11102
▁오리건	-11103
▁요구할	-11104
▁우승한	-11105
▁위기로	-11106
▁위치에	-11107
▁은행이	-11108
▁이른바	-11109
▁이베이	-11110
▁이사회	-11111
▁이상한	-11112
▁이씨는	-11113
▁이의를	-11114
▁인접한	-11115
▁작업은	-11116
▁작품은	-11117
▁재개될	-11118
▁재산을	-11119
▁전망을	-11120
▁전역의	-11121
▁정보부	-11122
▁정상에	-11123
▁제너럴	-11124
▁제니퍼	-11125
▁제도를	-11126
▁주식은	-11127
▁준장은	-11128
▁지명을	-11129
▁지중해	-11130
▁진행할	-11131
▁초대형	-11132
▁초래할	-11133
▁출동한	-11134
▁카리스	-11135
▁캥거루	-11136
▁코커스	-11137
▁콘서트	-11138
▁타임스	-11139
▁태양열	-11140
▁터키는	-11141
▁토론회	-11142
▁파견된	-11143
▁파병을	-11144
▁프레드	-11145
▁하여금	-11146
▁하원은	-11147
▁항소할	-11148
▁해군은	-11149
▁행동은	-11150
▁행위가	-11151
▁호르몬	-11152
▁홍수가	-11153
과정에서	-11154
지리스탄	-11155
▁가능하게	-11156
▁개최되는	-11157
▁규정하고	-11158
▁그루지아	-11159
▁글래스고	-11160
▁나타내고	-11161
▁논의하고	-11162
▁담겨있다	-11163
▁도착했을	-11164
▁떨어지는	-11165
▁매케인에	-11166
▁모르겠다	-11167
▁모하마드	-11168
▁목소리로	-11169
▁미드필더	-11170
▁미얀마를	-11171
▁민간인이	-11172
▁발생했던	-11173
▁부문에서	-11174
▁사용한다	-11175
▁사원에서	-11176
▁성폭행을	-11177
▁수만명의	-11178
▁수사관은	-11179
▁스파이스	-11180
▁승려들이	-11181
▁아이들과	-11182
▁알베르토	-11183
▁억달러를	-11184
▁연합군은	-11185
▁연합군이	-11186
▁예정대로	-11187
▁오키나와	-11188
▁우주에서	-11189
▁움직이고	-11190
▁원인으로	-11191
▁응답자의	-11192
▁의료진은	-11193
▁이상으로	-11194
▁이자율을	-11195
▁인종차별	-11196
▁장기적인	-11197
▁재판관은	-11198
▁전적으로	-11199
▁전형적인	-11200
▁좋아한다	-11201
▁주도하는	-11202
▁줄어들고	-11203
▁지속적인	-11204
▁지지율로	-11205
▁초등학교	-11206
▁터키군은	-11207
▁특파원이	-11208
▁포함하고	-11209
▁표현했다	-11210
▁하나이다	-11211
▁하원의원	-11212
▁해외에서	-11213
▁핵시설을	-11214
▁희망하고	-11215
들에따르면	-11216
▁경기부양책	-11217
▁기록했다고	-11218
▁다큐멘터리	-11219
▁메사추세츠	-11220
▁바그다드의	-11221
▁바이러스가	-11222
▁소식입니다	-11223
▁전반적으로	-11224
▁정상적으로	-11225
▁체포되었다	-11226
▁크리스티나	-11227
▁크리스티아	-11228
▁클리블랜드	-11229
▁테러지원국	-11230
▁평화적으로	-11231
▁희생자들을	-11232
▁미국인들에게	-11233
▁살해하겠다고	-11234
▁웹사이트에서	-11235
▁자유무역협정	-11236
▁굶	-11237
▁꽤	-11238
▁룸	-11239
▁릭	-11240
▁쉐	-11241
▁쉴	-11242
▁팩	-11243
▁퓨	-11244
각이	-11245
관광	-11246
능을	-11247
되게	-11248
두가	-11249
등한	-11250
마에	-11251
머스	-11252
멘토	-11253
베르	-11254
비오	-11255
사절	-11256
살상	-11257
상업	-11258
석방	-11259
수수	-11260
수출	-11261
요한	-11262
이저	-11263
인데	-11264
작을	-11265
잡지	-11266
쟁을	-11267
종이	-11268
주며	-11269
즈에	-11270
츠를	-11271
크로	-11272
크의	-11273
통화	-11274
페이	-11275
폭력	-11276
프와	-11277
한은	-11278
해져	-11279
헤드	-11280
▁가볍	-11281
▁갈등	-11282
▁개별	-11283
▁격려	-11284
▁경보	-11285
▁계절	-11286
▁고마	-11287
▁고심	-11288
▁고아	-11289
▁과테	-11290
▁구타	-11291
▁그냥	-11292
▁기가	-11293
▁기초	-11294
▁꿈을	-11295
▁나노	-11296
▁나치	-11297
▁년도	-11298
▁뇌졸	-11299
▁닌텐	-11300
▁닥터	-11301
▁단백	-11302
▁당뇨	-11303
▁덩어	-11304
▁뒤로	-11305
▁로라	-11306
▁리트	-11307
▁마텔	-11308
▁맹세	-11309
▁메뉴	-11310
▁모토	-11311
▁무어	-11312
▁뮤직	-11313
▁밀림	-11314
▁밀집	-11315
▁바가	-11316
▁받던	-11317
▁방북	-11318
▁배터	-11319
▁복지	-11320
▁볼리	-11321
▁부추	-11322
▁비만	-11323
▁비즈	-11324
▁뽑아	-11325
▁뿌리	-11326
▁사제	-11327
▁새해	-11328
▁색깔	-11329
▁서신	-11330
▁세는	-11331
▁쇼에	-11332
▁수지	-11333
▁시범	-11334
▁아미	-11335
▁안고	-11336
▁알렌	-11337
▁열려	-11338
▁열쇠	-11339
▁올드	-11340
▁요인	-11341
▁위장	-11342
▁윈프	-11343
▁유골	-11344
▁유태	-11345
▁이겨	-11346
▁인지	-11347
▁임산	-11348
▁입지	-11349
▁자라	-11350
▁잠정	-11351
▁재생	-11352
▁저격	-11353
▁저작	-11354
▁전례	-11355
▁정글	-11356
▁정체	-11357
▁종양	-11358
▁좌익	-11359
▁주관	-11360
▁준다	-11361
▁줬다	-11362
▁지닌	-11363
▁지저	-11364
▁지폐	-11365
▁추격	-11366
▁침범	-11367
▁카나	-11368
▁캐리	-11369
▁코트	-11370
▁클래	-11371
▁키우	-11372
▁타는	-11373
▁타운	-11374
▁탐지	-11375
▁터치	-11376
▁파울	-11377
▁평생	-11378
▁폴란	-11379
▁하반	-11380
▁해방	-11381
▁허위	-11382
▁호수	-11383
거리가	-11384
경기를	-11385
계에서	-11386
그들은	-11387
는지를	-11388
되도록	-11389
명으로	-11390
문제가	-11391
보다도	-11392
사고가	-11393
심으로	-11394
안으로	-11395
였다는	-11396
이라도	-11397
자들로	-11398
장에게	-11399
테니스	-11400
해진다	-11401
행위에	-11402
▁감옥에	-11403
▁강에서	-11404
▁개최된	-11405
▁거라고	-11406
▁건강을	-11407
▁결혼식	-11408
▁경관은	-11409
▁경선이	-11410
▁고려할	-11411
▁고문을	-11412
▁공습이	-11413
▁과도한	-11414
▁과반수	-11415
▁국가들	-11416
▁그래미	-11417
▁근소한	-11418
▁끝났다	-11419
▁높이고	-11420
▁당분간	-11421
▁당수는	-11422
▁당신을	-11423
▁대단히	-11424
▁대체할	-11425
▁도로가	-11426
▁도로에	-11427
▁때로는	-11428
▁뛰어난	-11429
▁레이더	-11430
▁로한이	-11431
▁리서치	-11432
▁리얼리	-11433
▁만남을	-11434
▁명성을	-11435
▁모르고	-11436
▁물러날	-11437
▁물질을	-11438
▁믿는다	-11439
▁밀란은	-11440
▁바스크	-11441
▁받았고	-11442
▁방송이	-11443
▁배터리	-11444
▁범행을	-11445
▁보고가	-11446
▁부인이	-11447
▁부족을	-11448
▁불길이	-11449
▁비롯해	-11450
▁비행사	-11451
▁사인을	-11452
▁사카쉬	-11453
▁샘플을	-11454
▁서로를	-11455
▁성관계	-11456
▁성범죄	-11457
▁소감을	-11458
▁소년의	-11459
▁소방대	-11460
▁소수의	-11461
▁수요가	-11462
▁수익이	-11463
▁숨지게	-11464
▁시기를	-11465
▁시작해	-11466
▁신청을	-11467
▁실종자	-11468
▁아끼지	-11469
▁아니고	-11470
▁아들의	-11471
▁앙겔라	-11472
▁에넹은	-11473
▁역사가	-11474
▁예산을	-11475
▁오르며	-11476
▁오스틴	-11477
▁요구가	-11478
▁원장은	-11479
▁위반한	-11480
▁의무를	-11481
▁이하의	-11482
▁이해할	-11483
▁인권을	-11484
▁일기로	-11485
▁임명된	-11486
▁입원한	-11487
▁작전에	-11488
▁장기간	-11489
▁장착된	-11490
▁재배치	-11491
▁저질렀	-11492
▁전기를	-11493
▁전하며	-11494
▁전화로	-11495
▁접근을	-11496
▁정부청	-11497
▁정치에	-11498
▁제안에	-11499
▁조언을	-11500
▁지니고	-11501
▁지원에	-11502
▁지원한	-11503
▁지위를	-11504
▁지점에	-11505
▁질병을	-11506
▁창문을	-11507
▁천명의	-11508
▁최선의	-11509
▁카톨릭	-11510
▁케이시	-11511
▁특별히	-11512
▁파업이	-11513
▁펼치고	-11514
▁포스터	-11515
▁폭발은	-11516
▁프랑크	-11517
▁피난민	-11518
▁해결에	-11519
▁해주는	-11520
▁홍콩의	-11521
▁활용할	-11522
▁회장의	-11523
했는지는	-11524
▁것인지에	-11525
▁결의안은	-11526
▁공개되지	-11527
▁공격하는	-11528
▁공장에서	-11529
▁관광객이	-11530
▁국방위원	-11531
▁기념하기	-11532
▁기다리는	-11533
▁기업들이	-11534
▁나타나고	-11535
▁다운로드	-11536
▁담당하고	-11537
▁대중교통	-11538
▁대표들은	-11539
▁매케인을	-11540
▁백악관의	-11541
▁법무장관	-11542
▁보건복지	-11543
▁보스니아	-11544
▁보여주기	-11545
▁부정선거	-11546
▁브라질의	-11547
▁비즈니스	-11548
▁사랑하는	-11549
▁사망했고	-11550
▁사상자는	-11551
▁사용하기	-11552
▁산타클로	-11553
▁선택했다	-11554
▁세실리아	-11555
▁소개했다	-11556
▁승리하며	-11557
▁신용카드	-11558
▁앤더슨은	-11559
▁여기에는	-11560
▁여성들을	-11561
▁올랐으며	-11562
▁원한다고	-11563
▁유세에서	-11564
▁유지하는	-11565
▁유혈사태	-11566
▁이란에서	-11567
▁인플루엔	-11568
▁자선단체	-11569
▁자신들을	-11570
▁정보기관	-11571
▁주지사의	-11572
▁지나치게	-11573
▁지원하기	-11574
▁참석하기	-11575
▁총격전이	-11576
▁컬럼비아	-11577
▁쿠데타를	-11578
▁탈라바니	-11579
▁파파라치	-11580
▁페르난도	-11581
▁프리메라	-11582
▁하더라도	-11583
▁하마스와	-11584
▁학생들을	-11585
▁항공사는	-11586
▁확보했다	-11587
▁휴대폰을	-11588
▁동계올림픽	-11589
▁러시아에서	-11590
▁만장일치로	-11591
▁바그다드에	-11592
▁발견했으며	-11593
▁사무실에서	-11594
▁상태입니다	-11595
▁생각합니다	-11596
▁생방송으로	-11597
▁스피어스의	-11598
▁시작되었다	-11599
▁어린이들을	-11600
▁엘리베이터	-11601
▁전통적으로	-11602
▁정부로부터	-11603
▁한국인들이	-11604
▁달라이라마는	-11605
▁이라크에서의	-11606
▁이스라엘군은	-11607
▁천문학자들은	-11608
▁퍼트레이어스	-11609
▁깜	-11610
▁됐	-11611
▁룰	-11612
▁섞	-11613
▁옵	-11614
▁족	-11615
▁쾌	-11616
▁펌	-11617
▁힉	-11618
건강	-11619
고의	-11620
기상	-11621
놀드	-11622
느라	-11623
담한	-11624
데르	-11625
돌프	-11626
라나	-11627
란다	-11628
레바	-11629
로지	-11630
뤼셀	-11631
무니	-11632
브로	-11633
상승	-11634
소연	-11635
속에	-11636
시다	-11637
시스	-11638
신문	-11639
알라	-11640
온난	-11641
우가	-11642
유로	-11643
인한	-11644
있게	-11645
자고	-11646
자지	-11647
자치	-11648
장도	-11649
장암	-11650
제인	-11651
줘야	-11652
처에	-11653
총리	-11654
층을	-11655
컨드	-11656
테랑	-11657
티를	-11658
편이	-11659
피크	-11660
해준	-11661
행정	-11662
혐오	-11663
▁갤러	-11664
▁격분	-11665
▁고생	-11666
▁고정	-11667
▁고집	-11668
▁과다	-11669
▁군수	-11670
▁군을	-11671
▁궁극	-11672
▁궁금	-11673
▁그로	-11674
▁극장	-11675
▁급파	-11676
▁기번	-11677
▁김경	-11678
▁꾸준	-11679
▁나뉘	-11680
▁나자	-11681
▁넣은	-11682
▁노왁	-11683
▁농촌	-11684
▁돕는	-11685
▁동쪽	-11686
▁두자	-11687
▁뒤덮	-11688
▁드문	-11689
▁디아	-11690
▁레논	-11691
▁레젭	-11692
▁루마	-11693
▁마주	-11694
▁막는	-11695
▁만의	-11696
▁맡게	-11697
▁머피	-11698
▁모닝	-11699
▁무려	-11700
▁무리	-11701
▁미들	-11702
▁밀매	-11703
▁밖의	-11704
▁발부	-11705
▁밝은	-11706
▁배에	-11707
▁백화	-11708
▁번에	-11709
▁범행	-11710
▁베니	-11711
▁보류	-11712
▁본래	-11713
▁분출	-11714
▁브란	-11715
▁빠질	-11716
▁서약	-11717
▁선생	-11718
▁수염	-11719
▁스틸	-11720
▁썼다	-11721
▁아리	-11722
▁앨라	-11723
▁야간	-11724
▁얀코	-11725
▁양보	-11726
▁어울	-11727
▁억압	-11728
▁언더	-11729
▁에탄	-11730
▁영사	-11731
▁예일	-11732
▁올랜	-11733
▁올릴	-11734
▁와서	-11735
▁원화	-11736
▁유동	-11737
▁유포	-11738
▁육상	-11739
▁이벤	-11740
▁잃지	-11741
▁자부	-11742
▁장의	-11743
▁재해	-11744
▁전미	-11745
▁접한	-11746
▁조그	-11747
▁죄수	-11748
▁중소	-11749
▁집이	-11750
▁쫓겨	-11751
▁참배	-11752
▁책정	-11753
▁체인	-11754
▁컨퍼	-11755
▁톰슨	-11756
▁편지	-11757
▁푸켓	-11758
▁피오	-11759
▁하려	-11760
▁한쪽	-11761
▁합참	-11762
▁홀리	-11763
가스를	-11764
내용을	-11765
뉴스는	-11766
레스테	-11767
르에서	-11768
법안을	-11769
법으로	-11770
상태가	-11771
에다는	-11772
은행의	-11773
작업에	-11774
지었다	-11775
카드를	-11776
터바흐	-11777
▁가톨릭	-11778
▁감소를	-11779
▁같았다	-11780
▁거머쥐	-11781
▁건물로	-11782
▁격차로	-11783
▁결정한	-11784
▁경기도	-11785
▁고래를	-11786
▁공무원	-11787
▁과학적	-11788
▁광장에	-11789
▁구매할	-11790
▁군복을	-11791
▁기술의	-11792
▁끌어들	-11793
▁끝내고	-11794
▁나가고	-11795
▁남자아	-11796
▁뉴스를	-11797
▁다르게	-11798
▁달러화	-11799
▁대표인	-11800
▁대학살	-11801
▁더이상	-11802
▁데니스	-11803
▁동부에	-11804
▁되면서	-11805
▁뛰어들	-11806
▁라왈핀	-11807
▁마을을	-11808
▁면담을	-11809
▁무차별	-11810
▁미치지	-11811
▁반군과	-11812
▁발표가	-11813
▁법적인	-11814
▁변화의	-11815
▁부당한	-11816
▁부딪혀	-11817
▁분명한	-11818
▁비자를	-11819
▁비핵화	-11820
▁사전에	-11821
▁상승할	-11822
▁상품을	-11823
▁생각은	-11824
▁세계에	-11825
▁세력의	-11826
▁세컨드	-11827
▁소방서	-11828
▁수류탄	-11829
▁수준을	-11830
▁수행한	-11831
▁순례객	-11832
▁승객을	-11833
▁승부를	-11834
▁시설에	-11835
▁시한을	-11836
▁식량을	-11837
▁식사를	-11838
▁심슨은	-11839
▁싱가폴	-11840
▁아내가	-11841
▁안타까	-11842
▁않았을	-11843
▁알리기	-11844
▁애플은	-11845
▁어려울	-11846
▁어려워	-11847
▁어렵다	-11848
▁업체인	-11849
▁여자아	-11850
▁연관된	-11851
▁열린다	-11852
▁영화로	-11853
▁올바른	-11854
▁외치며	-11855
▁우려로	-11856
▁유리한	-11857
▁은행은	-11858
▁응답자	-11859
▁이들에	-11860
▁이정인	-11861
▁일에서	-11862
▁임신한	-11863
▁작전이	-11864
▁장소를	-11865
▁전달한	-11866
▁전쟁의	-11867
▁전체를	-11868
▁제기한	-11869
▁제안한	-11870
▁주목을	-11871
▁주유소	-11872
▁중점을	-11873
▁증거는	-11874
▁지구로	-11875
▁지원이	-11876
▁지정된	-11877
▁진실을	-11878
▁처음에	-11879
▁철저한	-11880
▁첼시는	-11881
▁첼시의	-11882
▁추수감	-11883
▁치르는	-11884
▁케냐의	-11885
▁쿠바의	-11886
▁터키가	-11887
▁터키를	-11888
▁토마토	-11889
▁통과한	-11890
▁평화상	-11891
▁폭발해	-11892
▁표적이	-11893
▁학교를	-11894
▁학교의	-11895
▁해안을	-11896
▁행위로	-11897
▁향했다	-11898
▁허커비	-11899
▁협상은	-11900
▁협회는	-11901
▁호르타	-11902
▁휴대용	-11903
기때문에	-11904
리우드의	-11905
▁가자시티	-11906
▁강조하고	-11907
▁개월간의	-11908
▁거부하고	-11909
▁결승에서	-11910
▁공급하는	-11911
▁공항으로	-11912
▁교회에서	-11913
▁구호품을	-11914
▁국가대표	-11915
▁국민에게	-11916
▁국제유가	-11917
▁그렇다면	-11918
▁그린스펀	-11919
▁끊임없이	-11920
▁나머지는	-11921
▁내용이다	-11922
▁논의했다	-11923
▁대량살상	-11924
▁대처하기	-11925
▁대표단이	-11926
▁루마니아	-11927
▁만달러의	-11928
▁말입니다	-11929
▁모르지만	-11930
▁무크타다	-11931
▁반대했다	-11932
▁받았다는	-11933
▁발생한지	-11934
▁발표하지	-11935
▁부사장은	-11936
▁불과했다	-11937
▁비행기는	-11938
▁사람들에	-11939
▁살해했다	-11940
▁상징적인	-11941
▁서쪽으로	-11942
▁선수들을	-11943
▁소수민족	-11944
▁소지하고	-11945
▁아흐마디	-11946
▁앞으로의	-11947
▁없었지만	-11948
▁엔터테인	-11949
▁여객기를	-11950
▁여객기의	-11951
▁여성에게	-11952
▁연속으로	-11953
▁움직이는	-11954
▁의원들의	-11955
▁잃었다고	-11956
▁장악하고	-11957
▁전투에서	-11958
▁조사했다	-11959
▁주지사와	-11960
▁증권거래	-11961
▁최저치를	-11962
▁친구들과	-11963
▁콘서트를	-11964
▁콘크리트	-11965
▁테스트를	-11966
▁페일린은	-11967
▁포함된다	-11968
▁풀려났다	-11969
▁한국으로	-11970
▁한반도의	-11971
▁행동으로	-11972
▁허용하는	-11973
▁협상에서	-11974
▁환자들이	-11975
▁효과적인	-11976
으로부터의	-11977
통합민주신	-11978
▁가자지구의	-11979
▁고위관리는	-11980
▁노동자들이	-11981
▁도착했다고	-11982
▁라우터바흐	-11983
▁바이러스는	-11984
▁부상했으며	-11985
▁살모넬라균	-11986
▁생각한다고	-11987
▁용의자들이	-11988
▁유권자들의	-11989
▁이라크전을	-11990
▁이루어지고	-11991
▁자회담에서	-11992
▁참가자들은	-11993
▁파키스탄과	-11994
▁파키스탄을	-11995
▁희생자들의	-11996
▁희생자들이	-11997
▁대통합민주신	-11998
▁보도했습니다	-11999
▁유권자들에게	-12000
▁관계자에따르면	-12001
▁갓	-12002
▁겐	-12003
▁꿀	-12004
▁낫	-12005
▁닮	-12006
▁삽	-12007
▁싣	-12008
▁쏜	-12009
▁웅	-12010
▁젖	-12011
▁짙	-12012
▁켐	-12013
▁팰	-12014
▁횟	-12015
결혼	-12016
구역	-12017
노는	-12018
달라	-12019
둘러	-12020
라트	-12021
락이	-12022
레드	-12023
렐은	-12024
리야	-12025
링턴	-12026
마가	-12027
마드	-12028
마켓	-12029
맨은	-12030
모는	-12031
물과	-12032
버트	-12033
변을	-12034
스케	-12035
슬램	-12036
시미	-12037
시픽	-12038
씨를	-12039
여야	-12040
연설	-12041
예방	-12042
웰은	-12043
이익	-12044
인해	-12045
잡이	-12046
지오	-12047
직원	-12048
층의	-12049
해왔	-12050
▁가두	-12051
▁간첩	-12052
▁객실	-12053
▁걸프	-12054
▁검정	-12055
▁공안	-12056
▁공조	-12057
▁괴롭	-12058
▁국적	-12059
▁글렌	-12060
▁기둥	-12061
▁나간	-12062
▁날을	-12063
▁남지	-12064
▁남측	-12065
▁낭비	-12066
▁냉각	-12067
▁녹아	-12068
▁누설	-12069
▁다툼	-12070
▁당장	-12071
▁대조	-12072
▁더블	-12073
▁데비	-12074
▁동행	-12075
▁두목	-12076
▁랜드	-12077
▁로열	-12078
▁맞을	-12079
▁맡아	-12080
▁매치	-12081
▁맺은	-12082
▁면서	-12083
▁목에	-12084
▁몰디	-12085
▁발자	-12086
▁배달	-12087
▁범람	-12088
▁법에	-12089
▁병을	-12090
▁보트	-12091
▁보행	-12092
▁복부	-12093
▁부각	-12094
▁부당	-12095
▁불행	-12096
▁비로	-12097
▁산토	-12098
▁살펴	-12099
▁삼림	-12100
▁선적	-12101
▁성당	-12102
▁성전	-12103
▁세라	-12104
▁수습	-12105
▁순회	-12106
▁술에	-12107
▁십년	-12108
▁십만	-12109
▁싱글	-12110
▁언색	-12111
▁에밀	-12112
▁온천	-12113
▁요소	-12114
▁우세	-12115
▁운이	-12116
▁웨일	-12117
▁유네	-12118
▁이길	-12119
▁이룬	-12120
▁인부	-12121
▁일할	-12122
▁입찰	-12123
▁잊지	-12124
▁자위	-12125
▁장군	-12126
▁장이	-12127
▁정비	-12128
▁질식	-12129
▁창립	-12130
▁척이	-12131
▁초콜	-12132
▁추도	-12133
▁쿼터	-12134
▁터진	-12135
▁테크	-12136
▁토끼	-12137
▁퇴장	-12138
▁팀은	-12139
▁팔루	-12140
▁페퍼	-12141
▁펼쳤	-12142
▁피델	-12143
▁해가	-12144
▁호위	-12145
▁황교	-12146
▁후계	-12147
고했다	-12148
릴랜드	-12149
선고를	-12150
수술을	-12151
스트를	-12152
았으나	-12153
에서만	-12154
우리가	-12155
월드컵	-12156
지거나	-12157
혁명군	-12158
▁가볍게	-12159
▁가스를	-12160
▁가슴에	-12161
▁강경한	-12162
▁거두며	-12163
▁결정된	-12164
▁결정될	-12165
▁경력을	-12166
▁경보가	-12167
▁경우는	-12168
▁경우에	-12169
▁경의를	-12170
▁계기가	-12171
▁균형을	-12172
▁그쳤다	-12173
▁기간이	-12174
▁길이의	-12175
▁김계관	-12176
▁끌어올	-12177
▁날짜를	-12178
▁노선을	-12179
▁논란을	-12180
▁논쟁의	-12181
▁논평을	-12182
▁높였다	-12183
▁대답을	-12184
▁대도시	-12185
▁대사를	-12186
▁동원해	-12187
▁되어야	-12188
▁들어보	-12189
▁로맨틱	-12190
▁마르코	-12191
▁마을의	-12192
▁맥도날	-12193
▁모델을	-12194
▁몬타나	-12195
▁물러난	-12196
▁미국내	-12197
▁바이오	-12198
▁발사된	-12199
▁버시바	-12200
▁베테랑	-12201
▁벤자민	-12202
▁변화는	-12203
▁별도로	-12204
▁보낸다	-12205
▁부대가	-12206
▁부모는	-12207
▁부시와	-12208
▁부유한	-12209
▁분기에	-12210
▁브뤼셀	-12211
▁블로거	-12212
▁사람도	-12213
▁상반기	-12214
▁서부의	-12215
▁선수는	-12216
▁세번째	-12217
▁세상을	-12218
▁손해배	-12219
▁솔로몬	-12220
▁수반이	-12221
▁시기가	-12222
▁식으로	-12223
▁신경을	-12224
▁신속한	-12225
▁악화될	-12226
▁앨라배	-12227
▁앨범을	-12228
▁야후가	-12229
▁엄마가	-12230
▁여권을	-12231
▁연이어	-12232
▁열렬한	-12233
▁열차는	-12234
▁오르는	-12235
▁왔으며	-12236
▁우비넨	-12237
▁우주로	-12238
▁우즈는	-12239
▁운전사	-12240
▁운행이	-12241
▁위성을	-12242
▁유가가	-12243
▁의원과	-12244
▁이동할	-12245
▁이사는	-12246
▁이소연	-12247
▁이유에	-12248
▁인디언	-12249
▁인식을	-12250
▁자금은	-12251
▁자신도	-12252
▁작용할	-12253
▁전에도	-12254
▁전투가	-12255
▁점수를	-12256
▁정권은	-12257
▁정보에	-12258
▁제조사	-12259
▁주도의	-12260
▁주변을	-12261
▁중단된	-12262
▁중서부	-12263
▁증거로	-12264
▁지난밤	-12265
▁지켜보	-12266
▁지하드	-12267
▁직면한	-12268
▁집행유	-12269
▁차량의	-12270
▁차지할	-12271
▁촬영을	-12272
▁최대한	-12273
▁커피를	-12274
▁코스타	-12275
▁크리켓	-12276
▁타블로	-12277
▁통신에	-12278
▁투쟁을	-12279
▁파업은	-12280
▁퍼레이	-12281
▁포기할	-12282
▁폴라로	-12283
▁피아노	-12284
▁하기도	-12285
▁하기로	-12286
▁해결책	-12287
▁해제할	-12288
▁헤럴드	-12289
▁협의를	-12290
▁화재는	-12291
▁확신을	-12292
▁활성화	-12293
▁휴식을	-12294
이었으며	-12295
적으로는	-12296
했음에도	-12297
▁가했다고	-12298
▁강화했다	-12299
▁게임에서	-12300
▁그루지야	-12301
▁근무하는	-12302
▁기록적인	-12303
▁기울이고	-12304
▁나오면서	-12305
▁내비쳤다	-12306
▁내전으로	-12307
▁노력했다	-12308
▁뉴욕상업	-12309
▁답변했다	-12310
▁도움으로	-12311
▁동부에서	-12312
▁득표율을	-12313
▁들어오는	-12314
▁리얼리티	-12315
▁마련했다	-12316
▁미국인의	-12317
▁베탕쿠르	-12318
▁보수주의	-12319
▁불과하다	-12320
▁살아있는	-12321
▁서명했다	-12322
▁석방됐다	-12323
▁선거캠프	-12324
▁선관위는	-12325
▁수행하고	-12326
▁수행하는	-12327
▁시간으로	-12328
▁시민들의	-12329
▁시스템에	-12330
▁시위대에	-12331
▁신고했다	-12332
▁신속하게	-12333
▁싶어하는	-12334
▁아이디어	-12335
▁어려움이	-12336
▁여객기에	-12337
▁여겨지고	-12338
▁여겨지는	-12339
▁외교부는	-12340
▁용의자인	-12341
▁워싱턴에	-12342
▁이뤄지지	-12343
▁이송됐다	-12344
▁이야기는	-12345
▁인정하고	-12346
▁일자리가	-12347
▁입장이다	-12348
▁자살폭탄	-12349
▁자유로운	-12350
▁전설적인	-12351
▁전해지고	-12352
▁정식으로	-12353
▁조선중앙	-12354
▁중태라고	-12355
▁진행됐다	-12356
▁추구하는	-12357
▁클럽에서	-12358
▁클레이코	-12359
▁테네시주	-12360
▁파업으로	-12361
▁판매하는	-12362
▁푸에르토	-12363
▁희생자가	-12364
▁구체적으로	-12365
▁국경지역에	-12366
▁기록했으며	-12367
▁당국자들은	-12368
▁대량살상무	-12369
▁대선주자인	-12370
▁떨어졌다고	-12371
▁리히터규모	-12372
▁메드베데프	-12373
▁목격했다고	-12374
▁바르셀로나	-12375
▁받아들였다	-12376
▁받았습니다	-12377
▁선거캠프는	-12378
▁실종됐다고	-12379
▁아웅산수지	-12380
▁아파트에서	-12381
▁에드워즈는	-12382
▁여론조사를	-12383
▁예상된다고	-12384
▁올림픽에서	-12385
▁요청했다고	-12386
▁주식시장이	-12387
▁타블로이드	-12388
▁한국인들은	-12389
▁현지경찰이	-12390
▁프리메라리가	-12391
▁인도네시아에서	-12392
▁곁	-12393
▁놔	-12394
▁멘	-12395
▁샀	-12396
▁숭	-12397
▁왈	-12398
▁첸	-12399
▁컸	-12400
▁틈	-12401
▁픽	-12402
▁핑	-12403
▁훈	-12404
▁휠	-12405
가게	-12406
가리	-12407
감과	-12408
것을	-12409
과이	-12410
델타	-12411
동영	-12412
라니	-12413
린이	-12414
문서	-12415
바의	-12416
받게	-12417
방위	-12418
버는	-12419
벌리	-12420
변에	-12421
사진	-12422
샤는	-12423
세탁	-12424
씨와	-12425
아리	-12426
액을	-12427
액이	-12428
야가	-12429
어에	-12430
에트	-12431
용의	-12432
의약	-12433
일로	-12434
임에	-12435
자나	-12436
전과	-12437
주택	-12438
줄기	-12439
중독	-12440
차이	-12441
층이	-12442
통이	-12443
투스	-12444
트만	-12445
파르	-12446
파에	-12447
팍스	-12448
폴로	-12449
해의	-12450
헤란	-12451
▁감면	-12452
▁감안	-12453
▁감원	-12454
▁강아	-12455
▁고백	-12456
▁곡물	-12457
▁곤돌	-12458
▁공직	-12459
▁공표	-12460
▁과잉	-12461
▁구를	-12462
▁기름	-12463
▁깨달	-12464
▁남을	-12465
▁납부	-12466
▁내달	-12467
▁내야	-12468
▁녹화	-12469
▁놀랍	-12470
▁단기	-12471
▁달할	-12472
▁대원	-12473
▁동요	-12474
▁땅에	-12475
▁때에	-12476
▁라인	-12477
▁라자	-12478
▁리브	-12479
▁만델	-12480
▁맥코	-12481
▁맨하	-12482
▁명명	-12483
▁모자	-12484
▁무관	-12485
▁무서	-12486
▁바시	-12487
▁반다	-12488
▁방한	-12489
▁버린	-12490
▁볼튼	-12491
▁부의	-12492
▁불태	-12493
▁붙어	-12494
▁비싸	-12495
▁사직	-12496
▁생후	-12497
▁서열	-12498
▁선동	-12499
▁섬에	-12500
▁순교	-12501
▁시께	-12502
▁시키	-12503
▁시합	-12504
▁십대	-12505
▁싸울	-12506
▁아브	-12507
▁악의	-12508
▁안심	-12509
▁애널	-12510
▁앤디	-12511
▁앵커	-12512
▁여덟	-12513
▁역을	-12514
▁영입	-12515
▁예수	-12516
▁외신	-12517
▁울머	-12518
▁월말	-12519
▁유아	-12520
▁육성	-12521
▁의구	-12522
▁이끈	-12523
▁이브	-12524
▁인적	-12525
▁일기	-12526
▁임원	-12527
▁자격	-12528
▁자란	-12529
▁잡스	-12530
▁잡을	-12531
▁재발	-12532
▁전의	-12533
▁점은	-12534
▁제라	-12535
▁제보	-12536
▁조달	-12537
▁조세	-12538
▁조차	-12539
▁졸릭	-12540
▁주된	-12541
▁주력	-12542
▁지뢰	-12543
▁지에	-12544
▁지표	-12545
▁진공	-12546
▁진원	-12547
▁채권	-12548
▁처럼	-12549
▁천여	-12550
▁청중	-12551
▁치르	-12552
▁키티	-12553
▁팀에	-12554
▁팔려	-12555
▁포옹	-12556
▁해협	-12557
▁행한	-12558
▁호킨	-12559
▁환수	-12560
▁흡수	-12561
감으로	-12562
거래를	-12563
계획을	-12564
국들의	-12565
나갔다	-12566
레이트	-12567
렌스탐	-12568
렸으나	-12569
바이를	-12570
방으로	-12571
버그는	-12572
사건의	-12573
사들의	-12574
사진을	-12575
연하게	-12576
원서를	-12577
자로서	-12578
텍사스	-12579
▁가방을	-12580
▁가석방	-12581
▁가속화	-12582
▁가이드	-12583
▁가졌던	-12584
▁감추지	-12585
▁강세를	-12586
▁건설을	-12587
▁게임에	-12588
▁경기후	-12589
▁공동성	-12590
▁교황의	-12591
▁국기를	-12592
▁국정원	-12593
▁군정은	-12594
▁군정이	-12595
▁권한이	-12596
▁궤도를	-12597
▁그룹은	-12598
▁그림을	-12599
▁극심한	-12600
▁금융시	-12601
▁기금을	-12602
▁기술에	-12603
▁기자를	-12604
▁깃발을	-12605
▁남겼다	-12606
▁남편의	-12607
▁내년에	-12608
▁내리지	-12609
▁노조가	-12610
▁노조는	-12611
▁놓았다	-12612
▁누구든	-12613
▁늘어난	-12614
▁니스텔	-12615
▁독일은	-12616
▁두려움	-12617
▁등에서	-12618
▁뜨거운	-12619
▁라일라	-12620
▁리더십	-12621
▁마련된	-12622
▁마음이	-12623
▁마찰을	-12624
▁만나는	-12625
▁면에서	-12626
▁못하면	-12627
▁무료로	-12628
▁발견은	-12629
▁발사한	-12630
▁발전소	-12631
▁밝히기	-12632
▁버스는	-12633
▁병력은	-12634
▁병원의	-12635
▁복용한	-12636
▁비정부	-12637
▁사냥꾼	-12638
▁사태로	-12639
▁산업이	-12640
▁살짜리	-12641
▁상세한	-12642
▁상승을	-12643
▁생각할	-12644
▁생활에	-12645
▁선박에	-12646
▁선택을	-12647
▁선택한	-12648
▁선포한	-12649
▁센터는	-12650
▁소유의	-12651
▁속으로	-12652
▁수색을	-12653
▁수용소	-12654
▁시에서	-12655
▁시점에	-12656
▁식이요	-12657
▁실수로	-12658
▁심리학	-12659
▁싸움을	-12660
▁아놀드	-12661
▁아직은	-12662
▁얘기를	-12663
▁여사의	-12664
▁열리고	-12665
▁예수의	-12666
▁오래전	-12667
▁올해는	-12668
▁요인이	-12669
▁우려해	-12670
▁원조를	-12671
▁유람선	-12672
▁의견에	-12673
▁이른다	-12674
▁이바노	-12675
▁일정에	-12676
▁자사의	-12677
▁장면은	-12678
▁저녁식	-12679
▁전통을	-12680
▁점이다	-12681
▁접근할	-12682
▁접어들	-12683
▁정권의	-12684
▁정동영	-12685
▁정보는	-12686
▁정책의	-12687
▁제공해	-12688
▁제시할	-12689
▁줄어든	-12690
▁지구를	-12691
▁지내고	-12692
▁지속된	-12693
▁지진의	-12694
▁지키지	-12695
▁직면해	-12696
▁착륙을	-12697
▁철수할	-12698
▁초부터	-12699
▁친구와	-12700
▁친구인	-12701
▁탁신은	-12702
▁터무니	-12703
▁텔레콤	-12704
▁통과할	-12705
▁페인트	-12706
▁폐쇄할	-12707
▁폭격기	-12708
▁폭설로	-12709
▁표한다	-12710
▁프라임	-12711
▁피해는	-12712
▁하에서	-12713
▁학생들	-12714
▁한번도	-12715
▁해리왕	-12716
▁향하던	-12717
▁협정에	-12718
▁호주는	-12719
▁확산을	-12720
▁확실시	-12721
▁후보자	-12722
레스테롤	-12723
잉글랜드	-12724
회견에서	-12725
▁가졌다고	-12726
▁가졌으며	-12727
▁게이츠는	-12728
▁결의안이	-12729
▁경고하고	-12730
▁경쟁에서	-12731
▁경찰관이	-12732
▁경찰에게	-12733
▁고양이를	-12734
▁관광산업	-12735
▁구조대가	-12736
▁구호단체	-12737
▁국가보안	-12738
▁국제사면	-12739
▁금융제재	-12740
▁기업들은	-12741
▁내다봤다	-12742
▁노력으로	-12743
▁대한민국	-12744
▁도쿄에서	-12745
▁돌아갔다	-12746
▁동물들이	-12747
▁드레스를	-12748
▁모른다는	-12749
▁무너졌다	-12750
▁미네소타	-12751
▁미얀마에	-12752
▁방침이다	-12753
▁베이징에	-12754
▁변호사를	-12755
▁보수적인	-12756
▁보였지만	-12757
▁북한으로	-12758
▁사건에서	-12759
▁사령관이	-12760
▁상태였다	-12761
▁서식하는	-12762
▁선보였다	-12763
▁성공적인	-12764
▁소속으로	-12765
▁수단으로	-12766
▁수마트라	-12767
▁승리하는	-12768
▁시민들을	-12769
▁실종됐다	-12770
▁에너지를	-12771
▁여러가지	-12772
▁오케스트	-12773
▁올해들어	-12774
▁요원들이	-12775
▁요하네스	-12776
▁우승자인	-12777
▁움직임에	-12778
▁위원회가	-12779
▁유지하기	-12780
▁의미하는	-12781
▁이끌었던	-12782
▁이야기가	-12783
▁인용하여	-12784
▁전투기가	-12785
▁정권인수	-12786
▁줄리아니	-12787
▁중앙은행	-12788
▁지구온난	-12789
▁지도자를	-12790
▁지켜보는	-12791
▁참가하는	-12792
▁총격전을	-12793
▁최루탄을	-12794
▁추락했다	-12795
▁코네티컷	-12796
▁코미디언	-12797
▁탈레반에	-12798
▁탑승하고	-12799
▁태국에서	-12800
▁토로했다	-12801
▁폐쇄하고	-12802
▁포기하지	-12803
▁포틀랜드	-12804
▁프랑스가	-12805
▁하마스를	-12806
▁항공기가	-12807
▁해안경비	-12808
▁헬리콥터	-12809
▁희망한다	-12810
▁그랜드슬램	-12811
▁무장단체가	-12812
▁미국인들의	-12813
▁상대적으로	-12814
▁승무원들은	-12815
▁시작됐으며	-12816
▁아니었다고	-12817
▁알카에다는	-12818
▁여론조사는	-12819
▁오바마에게	-12820
▁와지리스탄	-12821
▁주차장에서	-12822
▁프로젝트에	-12823
▁효과적으로	-12824
▁크라이슬러는	-12825
▁프라이머리를	-12826
▁국가비상사태를	-12827
▁낡	-12828
▁럭	-12829
▁뭉	-12830
▁뭔	-12831
▁잦	-12832
▁콤	-12833
▁퀴	-12834
▁펴	-12835
강을	-12836
경색	-12837
고는	-12838
고문	-12839
구는	-12840
그리	-12841
기념	-12842
기증	-12843
나르	-12844
니크	-12845
려져	-12846
렬히	-12847
로써	-12848
만약	-12849
만인	-12850
먼이	-12851
모어	-12852
몬드	-12853
문화	-12854
버스	-12855
번에	-12856
보나	-12857
분의	-12858
빌에	-12859
세스	-12860
셀러	-12861
식량	-12862
신저	-12863
운영	-12864
자키	-12865
적일	-12866
조에	-12867
중력	-12868
지나	-12869
치료	-12870
쿠버	-12871
타스	-12872
튼을	-12873
파이	-12874
판은	-12875
편에	-12876
폰테	-12877
협상	-12878
▁가금	-12879
▁가이	-12880
▁각기	-12881
▁간접	-12882
▁갱신	-12883
▁거센	-12884
▁걸고	-12885
▁경유	-12886
▁권유	-12887
▁귀를	-12888
▁극히	-12889
▁나체	-12890
▁낳은	-12891
▁넬슨	-12892
▁노선	-12893
▁노엘	-12894
▁눈보	-12895
▁당첨	-12896
▁대공	-12897
▁더글	-12898
▁도박	-12899
▁도피	-12900
▁동해	-12901
▁됐던	-12902
▁될지	-12903
▁드림	-12904
▁땅콩	-12905
▁라싸	-12906
▁로보	-12907
▁롱고	-12908
▁리사	-12909
▁리터	-12910
▁링컨	-12911
▁마루	-12912
▁마샤	-12913
▁맞출	-12914
▁매체	-12915
▁먹을	-12916
▁멜리	-12917
▁몬테	-12918
▁물려	-12919
▁미수	-12920
▁미치	-12921
▁바바	-12922
▁발명	-12923
▁발송	-12924
▁밤을	-12925
▁배정	-12926
▁번영	-12927
▁벽에	-12928
▁병이	-12929
▁보아	-12930
▁본거	-12931
▁북경	-12932
▁불거	-12933
▁불명	-12934
▁브레	-12935
▁비어	-12936
▁빈번	-12937
▁산유	-12938
▁상속	-12939
▁생기	-12940
▁샤론	-12941
▁서류	-12942
▁세에	-12943
▁속해	-12944
▁스텔	-12945
▁스필	-12946
▁시체	-12947
▁심어	-12948
▁안다	-12949
▁야자	-12950
▁양은	-12951
▁어리	-12952
▁얼어	-12953
▁없기	-12954
▁연상	-12955
▁연애	-12956
▁온건	-12957
▁옮기	-12958
▁왕궁	-12959
▁외딴	-12960
▁위법	-12961
▁유물	-12962
▁유예	-12963
▁은폐	-12964
▁이반	-12965
▁인원	-12966
▁일삼	-12967
▁잃게	-12968
▁임박	-12969
▁있길	-12970
▁자루	-12971
▁자매	-12972
▁작별	-12973
▁잡기	-12974
▁잡힌	-12975
▁재계	-12976
▁재단	-12977
▁적게	-12978
▁적힌	-12979
▁전세	-12980
▁제주	-12981
▁주어	-12982
▁중년	-12983
▁진료	-12984
▁척추	-12985
▁첫째	-12986
▁체첸	-12987
▁측의	-12988
▁카림	-12989
▁카펠	-12990
▁칼로	-12991
▁탄약	-12992
▁토드	-12993
▁통역	-12994
▁투항	-12995
▁트랜	-12996
▁판명	-12997
▁팔아	-12998
▁패널	-12999
▁퍼뜨	-13000
▁폭넓	-13001
▁폭도	-13002
▁표면	-13003
▁피어	-13004
▁하퍼	-13005
▁해명	-13006
▁혐오	-13007
▁혼다	-13008
▁후속	-13009
객들이	-13010
미사일	-13011
범으로	-13012
브리지	-13013
상황을	-13014
석에서	-13015
센터의	-13016
어지고	-13017
이기도	-13018
자에서	-13019
프라이	-13020
하기가	-13021
해지는	-13022
화하고	-13023
회사가	-13024
회사는	-13025
회사를	-13026
▁가동을	-13027
▁가라앉	-13028
▁가이트	-13029
▁감독과	-13030
▁감행한	-13031
▁거짓말	-13032
▁결승전	-13033
▁결심을	-13034
▁결함이	-13035
▁경로를	-13036
▁경사는	-13037
▁경우를	-13038
▁고어는	-13039
▁공연은	-13040
▁관리를	-13041
▁구입한	-13042
▁군부는	-13043
▁그래픽	-13044
▁근처의	-13045
▁기관의	-13046
▁기리기	-13047
▁긴밀한	-13048
▁꾸준히	-13049
▁나타내	-13050
▁누구나	-13051
▁다루는	-13052
▁당선된	-13053
▁당하는	-13054
▁대응할	-13055
▁대출을	-13056
▁도전을	-13057
▁도착해	-13058
▁독일과	-13059
▁동생인	-13060
▁돼있다	-13061
▁두개골	-13062
▁떨어뜨	-13063
▁똑같은	-13064
▁라스무	-13065
▁레드삭	-13066
▁로부터	-13067
▁말았다	-13068
▁말하지	-13069
▁먹이를	-13070
▁메디컬	-13071
▁면밀히	-13072
▁모하메	-13073
▁목표가	-13074
▁몰려들	-13075
▁문화를	-13076
▁물품을	-13077
▁바다에	-13078
▁반응이	-13079
▁발견해	-13080
▁발언이	-13081
▁방송사	-13082
▁배우인	-13083
▁버렸다	-13084
▁벌이던	-13085
▁베이비	-13086
▁변호인	-13087
▁부모의	-13088
▁부분에	-13089
▁부정부	-13090
▁북측의	-13091
▁불안정	-13092
▁비용은	-13093
▁비율이	-13094
▁사기를	-13095
▁사랑을	-13096
▁산업의	-13097
▁삼았다	-13098
▁새겨진	-13099
▁석방에	-13100
▁선박을	-13101
▁성적을	-13102
▁성화를	-13103
▁세계가	-13104
▁세우고	-13105
▁세워진	-13106
▁세포를	-13107
▁소니는	-13108
▁수반과	-13109
▁수비수	-13110
▁슈나이	-13111
▁시대에	-13112
▁시민이	-13113
▁시험을	-13114
▁신부는	-13115
▁실었다	-13116
▁실험에	-13117
▁아내는	-13118
▁아들과	-13119
▁안락사	-13120
▁암스테	-13121
▁앞에서	-13122
▁애플의	-13123
▁약물을	-13124
▁어디에	-13125
▁억류된	-13126
▁언급도	-13127
▁언론과	-13128
▁얼굴에	-13129
▁없도록	-13130
▁에탄올	-13131
▁역사의	-13132
▁연패를	-13133
▁예상한	-13134
▁예언자	-13135
▁올랜도	-13136
▁요구해	-13137
▁용납할	-13138
▁운항을	-13139
▁웃으며	-13140
▁음와이	-13141
▁의사와	-13142
▁의사의	-13143
▁이곳의	-13144
▁이어진	-13145
▁이틀째	-13146
▁자이툰	-13147
▁잘못을	-13148
▁잠재적	-13149
▁장례식	-13150
▁장애가	-13151
▁전략적	-13152
▁점에서	-13153
▁정말로	-13154
▁주머니	-13155
▁즈보나	-13156
▁증가로	-13157
▁지금이	-13158
▁지나가	-13159
▁지나친	-13160
▁지명에	-13161
▁지시를	-13162
▁진출에	-13163
▁징역형	-13164
▁총리도	-13165
▁충돌을	-13166
▁친구를	-13167
▁커플은	-13168
▁코카인	-13169
▁크기가	-13170
▁클라크	-13171
▁타이거	-13172
▁탈북자	-13173
▁태어나	-13174
▁테헤란	-13175
▁투데이	-13176
▁트럭이	-13177
▁파괴된	-13178
▁파손된	-13179
▁파티를	-13180
▁프로디	-13181
▁프리츨	-13182
▁피해여	-13183
▁하나다	-13184
▁하락을	-13185
▁하려는	-13186
▁함유된	-13187
▁합의된	-13188
▁합참의	-13189
▁해제를	-13190
▁혐의와	-13191
▁혼란이	-13192
▁회장과	-13193
▁휴전을	-13194
▁힌두교	-13195
그로폰테	-13196
되었으나	-13197
민주당은	-13198
으로서의	-13199
인이었다	-13200
하였으나	-13201
▁가족들을	-13202
▁감소했다	-13203
▁갑작스런	-13204
▁강력하게	-13205
▁격돌한다	-13206
▁결승전에	-13207
▁경찰들이	-13208
▁고객들이	-13209
▁고양이가	-13210
▁구스마오	-13211
▁국제사회	-13212
▁기념하는	-13213
▁기업들의	-13214
▁끌어들이	-13215
▁나타나지	-13216
▁높아졌다	-13217
▁다국적군	-13218
▁다큐멘터	-13219
▁당신에게	-13220
▁대변인의	-13221
▁돌아가는	-13222
▁돌입했다	-13223
▁동영상에	-13224
▁레바논의	-13225
▁롱고리아	-13226
▁말했었다	-13227
▁말했으나	-13228
▁매릴랜드	-13229
▁발생하기	-13230
▁발생한다	-13231
▁버시바우	-13232
▁부적절한	-13233
▁불가능한	-13234
▁비극적인	-13235
▁사실이다	-13236
▁삼성그룹	-13237
▁상승하며	-13238
▁세계무역	-13239
▁소렌스탐	-13240
▁수준이다	-13241
▁수행했다	-13242
▁스튜어트	-13243
▁승객들은	-13244
▁시민권을	-13245
▁식당에서	-13246
▁신용경색	-13247
▁아프간의	-13248
▁악화되고	-13249
▁안보리의	-13250
▁압도적인	-13251
▁양국간의	-13252
▁억류되어	-13253
▁억만장자	-13254
▁연결하는	-13255
▁영향으로	-13256
▁위원회에	-13257
▁유엔사무	-13258
▁유전자를	-13259
▁은신처를	-13260
▁이뤄져야	-13261
▁이후에도	-13262
▁인권단체	-13263
▁인터폴은	-13264
▁일요일에	-13265
▁일이었다	-13266
▁있겠지만	-13267
▁있는지에	-13268
▁자본주의	-13269
▁자전거를	-13270
▁재무부는	-13271
▁적극적인	-13272
▁정보통신	-13273
▁조사하는	-13274
▁조종사가	-13275
▁주인공인	-13276
▁중국으로	-13277
▁지역사회	-13278
▁지지했다	-13279
▁집회에서	-13280
▁총기난사	-13281
▁컴퓨터에	-13282
▁컴퓨터와	-13283
▁태어났다	-13284
▁특파원은	-13285
▁파견했다	-13286
▁퍼센트가	-13287
▁폐쇄했다	-13288
▁피라미드	-13289
▁항의했다	-13290
▁해변에서	-13291
▁획득했다	-13292
▁후임으로	-13293
▁결과에따라	-13294
▁관계당국이	-13295
▁국방장관이	-13296
▁국제사회가	-13297
▁긍정적으로	-13298
▁기준금리를	-13299
▁동남아시아	-13300
▁무장세력을	-13301
▁발견됐으며	-13302
▁발표하면서	-13303
▁브로드웨이	-13304
▁사르코지가	-13305
▁사르코지의	-13306
▁사망자수는	-13307
▁시작했으며	-13308
▁애널리스트	-13309
▁연방수사국	-13310
▁일시적으로	-13311
▁자르다리는	-13312
▁추정된다고	-13313
▁코커스에서	-13314
▁콜레스테롤	-13315
▁플로리다의	-13316
▁필요하다는	-13317
▁하원의장은	-13318
▁달라이라마가	-13319
▁소프트웨어를	-13320
▁와인하우스가	-13321
▁인도네시아는	-13322
▁주장했습니다	-13323
▁푸에르토리코	-13324
▁소식통에따르면	-13325
▁띠	-13326
▁봅	-13327
▁솜	-13328
▁슐	-13329
▁젠	-13330
▁째	-13331
▁찔	-13332
▁췌	-13333
▁퀘	-13334
간을	-13335
감에	-13336
강산	-13337
것이	-13338
계와	-13339
과를	-13340
그러	-13341
그레	-13342
글리	-13343
금의	-13344
나갈	-13345
나왓	-13346
낸셜	-13347
네트	-13348
넷소	-13349
노프	-13350
능한	-13351
대기	-13352
독립	-13353
르담	-13354
리즘	-13355
리학	-13356
릭스	-13357
막을	-13358
망에	-13359
매설	-13360
모델	-13361
목이	-13362
바리	-13363
반응	-13364
버린	-13365
범이	-13366
베키	-13367
별로	-13368
부인	-13369
생아	-13370
선언	-13371
솔린	-13372
슬람	-13373
액의	-13374
열차	-13375
오밍	-13376
와르	-13377
우조	-13378
운하	-13379
유는	-13380
이게	-13381
인하	-13382
자문	-13383
자연	-13384
전한	-13385
제한	-13386
조가	-13387
지요	-13388
질환	-13389
천후	-13390
측과	-13391
크레	-13392
탕카	-13393
통은	-13394
투아	-13395
티노	-13396
팀에	-13397
펠러	-13398
편을	-13399
포로	-13400
햄은	-13401
행동	-13402
호프	-13403
황을	-13404
히지	-13405
▁강연	-13406
▁갖춰	-13407
▁개조	-13408
▁건이	-13409
▁공부	-13410
▁관제	-13411
▁광대	-13412
▁구급	-13413
▁구분	-13414
▁그럴	-13415
▁기용	-13416
▁길게	-13417
▁끝내	-13418
▁나르	-13419
▁낙하	-13420
▁난폭	-13421
▁날카	-13422
▁낡은	-13423
▁년째	-13424
▁노린	-13425
▁노숙	-13426
▁농구	-13427
▁농담	-13428
▁농장	-13429
▁늘릴	-13430
▁다룰	-13431
▁단절	-13432
▁단축	-13433
▁데는	-13434
▁들며	-13435
▁라마	-13436
▁로브	-13437
▁로젠	-13438
▁루디	-13439
▁루시	-13440
▁리틀	-13441
▁린다	-13442
▁마오	-13443
▁마츠	-13444
▁만회	-13445
▁맞설	-13446
▁메흐	-13447
▁목을	-13448
▁몸싸	-13449
▁믿지	-13450
▁바랍	-13451
▁반경	-13452
▁방코	-13453
▁병역	-13454
▁보르	-13455
▁본드	-13456
▁볼드	-13457
▁부수	-13458
▁부착	-13459
▁분양	-13460
▁불리	-13461
▁불평	-13462
▁불필	-13463
▁비중	-13464
▁사로	-13465
▁사의	-13466
▁상정	-13467
▁서한	-13468
▁세골	-13469
▁섹시	-13470
▁속출	-13471
▁쇼를	-13472
▁스릴	-13473
▁시리	-13474
▁식물	-13475
▁싣고	-13476
▁실용	-13477
▁아로	-13478
▁아티	-13479
▁야심	-13480
▁에르	-13481
▁에바	-13482
▁에워	-13483
▁여개	-13484
▁연맹	-13485
▁열정	-13486
▁외각	-13487
▁외출	-13488
▁워커	-13489
▁월로	-13490
▁위는	-13491
▁위크	-13492
▁의지	-13493
▁이데	-13494
▁인력	-13495
▁인준	-13496
▁인천	-13497
▁일곱	-13498
▁잃을	-13499
▁잉그	-13500
▁자민	-13501
▁자수	-13502
▁장성	-13503
▁재규	-13504
▁적지	-13505
▁절단	-13506
▁점에	-13507
▁제국	-13508
▁제퍼	-13509
▁졌다	-13510
▁좁은	-13511
▁주소	-13512
▁중대	-13513
▁중립	-13514
▁증진	-13515
▁증폭	-13516
▁지칭	-13517
▁쫓아	-13518
▁차고	-13519
▁채로	-13520
▁철강	-13521
▁철거	-13522
▁첼시	-13523
▁총살	-13524
▁추기	-13525
▁춤을	-13526
▁캠퍼	-13527
▁토레	-13528
▁투기	-13529
▁투옥	-13530
▁투하	-13531
▁파고	-13532
▁파커	-13533
▁퍼부	-13534
▁퍼져	-13535
▁편에	-13536
▁품질	-13537
▁풍력	-13538
▁하누	-13539
▁햇볕	-13540
▁향년	-13541
▁현수	-13542
▁호박	-13543
▁홈구	-13544
▁후안	-13545
▁훔쳐	-13546
다니는	-13547
대학의	-13548
되기를	-13549
들간의	-13550
라이브	-13551
라인을	-13552
레이션	-13553
로서의	-13554
루스코	-13555
리면서	-13556
방안을	-13557
변인은	-13558
사건과	-13559
센터에	-13560
스에게	-13561
습니까	-13562
시한을	-13563
업체가	-13564
여부를	-13565
으로의	-13566
일러는	-13567
임이사	-13568
정책에	-13569
조사에	-13570
주었다	-13571
지원을	-13572
크에서	-13573
하기에	-13574
하우스	-13575
협정을	-13576
협회는	-13577
▁가솔린	-13578
▁가정집	-13579
▁감축할	-13580
▁강풍을	-13581
▁개국의	-13582
▁개정을	-13583
▁걸리는	-13584
▁검토할	-13585
▁것과는	-13586
▁격차가	-13587
▁격차를	-13588
▁계획된	-13589
▁공격해	-13590
▁교수의	-13591
▁교전은	-13592
▁교회에	-13593
▁궤도에	-13594
▁그린존	-13595
▁금강산	-13596
▁금융위	-13597
▁기다려	-13598
▁기존의	-13599
▁기준에	-13600
▁나갔다	-13601
▁나라는	-13602
▁나중에	-13603
▁나토의	-13604
▁남았다	-13605
▁내각을	-13606
▁년대에	-13607
▁년동안	-13608
▁능력이	-13609
▁니제르	-13610
▁다이어	-13611
▁다하고	-13612
▁단계를	-13613
▁대선이	-13614
▁대운하	-13615
▁대학이	-13616
▁댈러스	-13617
▁돈세탁	-13618
▁뒤이어	-13619
▁드레스	-13620
▁따뜻한	-13621
▁로널드	-13622
▁리치는	-13623
▁마리화	-13624
▁마을로	-13625
▁만나고	-13626
▁많았다	-13627
▁맺었다	-13628
▁메르세	-13629
▁모델로	-13630
▁무너지	-13631
▁무대에	-13632
▁무중력	-13633
▁물질이	-13634
▁미하일	-13635
▁미항공	-13636
▁밀란의	-13637
▁바람에	-13638
▁바람직	-13639
▁박사의	-13640
▁방송국	-13641
▁방에서	-13642
▁버스에	-13643
▁벌이다	-13644
▁벨몬트	-13645
▁병사가	-13646
▁보건부	-13647
▁부상은	-13648
▁부시가	-13649
▁부인은	-13650
▁비율은	-13651
▁비틀즈	-13652
▁빈라덴	-13653
▁빨간색	-13654
▁사진기	-13655
▁사항이	-13656
▁산업에	-13657
▁삼엄한	-13658
▁상태는	-13659
▁생겼다	-13660
▁샤리아	-13661
▁서류를	-13662
▁선고를	-13663
▁선정된	-13664
▁설립한	-13665
▁성매매	-13666
▁성장이	-13667
▁소녀는	-13668
▁소년은	-13669
▁소니의	-13670
▁소행성	-13671
▁손실이	-13672
▁수단을	-13673
▁수치가	-13674
▁승객과	-13675
▁승용차	-13676
▁승인한	-13677
▁시간은	-13678
▁시부터	-13679
▁시신의	-13680
▁식량과	-13681
▁쓰러져	-13682
▁아이만	-13683
▁아이팟	-13684
▁아지즈	-13685
▁암으로	-13686
▁어렵게	-13687
▁억원의	-13688
▁언론을	-13689
▁여왕이	-13690
▁열리기	-13691
▁예술가	-13692
▁와중에	-13693
▁왕복선	-13694
▁외국의	-13695
▁우주의	-13696
▁운영을	-13697
▁운항이	-13698
▁유럽에	-13699
▁의문이	-13700
▁의장의	-13701
▁의혹이	-13702
▁이전의	-13703
▁인도는	-13704
▁인수를	-13705
▁임무에	-13706
▁임시로	-13707
▁장소에	-13708
▁저자인	-13709
▁적당한	-13710
▁전국의	-13711
▁전달할	-13712
▁전문의	-13713
▁전통적	-13714
▁정부군	-13715
▁제한을	-13716
▁조직은	-13717
▁존슨은	-13718
▁주변의	-13719
▁주위를	-13720
▁주장해	-13721
▁죽음이	-13722
▁지금의	-13723
▁지배를	-13724
▁지불할	-13725
▁지역과	-13726
▁직원은	-13727
▁진지한	-13728
▁질병에	-13729
▁찬사를	-13730
▁참석을	-13731
▁체제를	-13732
▁초드리	-13733
▁초콜릿	-13734
▁총선이	-13735
▁출마를	-13736
▁충돌한	-13737
▁취해야	-13738
▁카르발	-13739
▁카스트	-13740
▁카이로	-13741
▁탈출한	-13742
▁테러와	-13743
▁통제를	-13744
▁통증을	-13745
▁투탕카	-13746
▁파도가	-13747
▁판매가	-13748
▁팔렸다	-13749
▁팬들의	-13750
▁포드는	-13751
▁폭격을	-13752
▁폭동이	-13753
▁폭풍이	-13754
▁필리스	-13755
▁하지는	-13756
▁항의를	-13757
▁해결될	-13758
▁핸드폰	-13759
▁허드슨	-13760
▁홀에서	-13761
▁화산이	-13762
▁확보에	-13763
▁환자는	-13764
▁후쿠다	-13765
스타인은	-13766
업자들은	-13767
하였다고	-13768
▁가로질러	-13769
▁강화하는	-13770
▁걱정하고	-13771
▁것인지는	-13772
▁결정하지	-13773
▁경쟁력을	-13774
▁고조되고	-13775
▁공화당은	-13776
▁구조대는	-13777
▁기각했다	-13778
▁기록됐다	-13779
▁나스닥은	-13780
▁나왔다고	-13781
▁나타나는	-13782
▁남자아이	-13783
▁내놓았다	-13784
▁뉴저지주	-13785
▁달한다고	-13786
▁당선자가	-13787
▁대통령궁	-13788
▁대표들이	-13789
▁도로매설	-13790
▁리버풀은	-13791
▁마련하기	-13792
▁마스터스	-13793
▁매케인과	-13794
▁메시지가	-13795
▁명이었다	-13796
▁못한다고	-13797
▁못했으며	-13798
▁무엇인지	-13799
▁민족주의	-13800
▁민주적인	-13801
▁방문하고	-13802
▁방콕에서	-13803
▁벌어지는	-13804
▁병사들은	-13805
▁보조금을	-13806
▁분석가는	-13807
▁사드르가	-13808
▁사람으로	-13809
▁사망했을	-13810
▁사생활을	-13811
▁생각했던	-13812
▁생산량을	-13813
▁서비스가	-13814
▁선거캠페	-13815
▁수감됐다	-13816
▁시간동안	-13817
▁시도했다	-13818
▁시리즈의	-13819
▁시작하는	-13820
▁시작했고	-13821
▁식품의약	-13822
▁실시됐다	-13823
▁안젤리나	-13824
▁앞서있다	-13825
▁양곤에서	-13826
▁어머니인	-13827
▁어소시에	-13828
▁없었으며	-13829
▁연구하고	-13830
▁연말까지	-13831
▁올림픽에	-13832
▁외곽에서	-13833
▁우승으로	-13834
▁유네스코	-13835
▁유니세프	-13836
▁의존하고	-13837
▁이끌었다	-13838
▁이데올로	-13839
▁이루어질	-13840
▁이뤄지고	-13841
▁이사회는	-13842
▁이전에는	-13843
▁이제까지	-13844
▁인정하는	-13845
▁인질들은	-13846
▁일주일에	-13847
▁입원했다	-13848
▁있었는지	-13849
▁저질렀다	-13850
▁전당대회	-13851
▁제공한다	-13852
▁주도하고	-13853
▁주문했다	-13854
▁지켜보고	-13855
▁직원들의	-13856
▁차량에서	-13857
▁촉구하고	-13858
▁추정되고	-13859
▁취소됐다	-13860
▁쿠즈넷소	-13861
▁타임스가	-13862
▁테러범이	-13863
▁텔레비전	-13864
▁통신과의	-13865
▁파손됐다	-13866
▁파악하고	-13867
▁파예드는	-13868
▁폭발물이	-13869
▁폭발했다	-13870
▁하원에서	-13871
▁한국은행	-13872
▁함부르크	-13873
▁행정부에	-13874
▁현지에서	-13875
▁확실하다	-13876
▁후세인은	-13877
▁힐러리의	-13878
폴리스에서	-13879
▁가능하다고	-13880
▁구조작업을	-13881
▁나타났다고	-13882
▁미얀마에서	-13883
▁민간인들을	-13884
▁배심원단은	-13885
▁베를루스코	-13886
▁베를린에서	-13887
▁보고서에는	-13888
▁소식통들은	-13889
▁수용소에서	-13890
▁아프리카의	-13891
▁예정이지만	-13892
▁이라크군이	-13893
▁인터넷에서	-13894
▁자체적으로	-13895
▁전문가들의	-13896
▁조사에서는	-13897
▁중앙정보국	-13898
▁체포됐으며	-13899
▁추가적으로	-13900
▁코리아타임	-13901
▁콜롬비아의	-13902
▁평론가들은	-13903
▁프로그램과	-13904
▁플레이오프	-13905
▁플로리다에	-13906
▁피해자들을	-13907
▁할리우드의	-13908
▁합법적으로	-13909
▁합의에따라	-13910
▁떨어졌습니다	-13911
▁로드리게스는	-13912
▁요하네스버그	-13913
▁팔레스타인과	-13914
▁딴	-13915
▁랩	-13916
▁롭	-13917
▁맑	-13918
▁멍	-13919
▁몫	-13920
▁샬	-13921
▁썩	-13922
▁씩	-13923
▁캡	-13924
▁콴	-13925
▁킴	-13926
▁튜	-13927
고리	-13928
교회	-13929
기서	-13930
난을	-13931
났을	-13932
내가	-13933
당할	-13934
대출	-13935
더드	-13936
더미	-13937
디다	-13938
린트	-13939
면허	-13940
묘한	-13941
무라	-13942
바닥	-13943
바에	-13944
바인	-13945
반이	-13946
벌을	-13947
병과	-13948
비안	-13949
수산	-13950
스팅	-13951
슬로	-13952
아르	-13953
없다	-13954
우드	-13955
원도	-13956
있어	-13957
자산	-13958
작가	-13959
저우	-13960
전시	-13961
정희	-13962
제작	-13963
주재	-13964
증권	-13965
철도	-13966
청을	-13967
취를	-13968
코가	-13969
퀘어	-13970
터에	-13971
테이	-13972
토록	-13973
팅을	-13974
판매	-13975
패닉	-13976
폰을	-13977
함은	-13978
행은	-13979
혈을	-13980
화학	-13981
히기	-13982
▁가루	-13983
▁가야	-13984
▁각성	-13985
▁강철	-13986
▁같아	-13987
▁개구	-13988
▁개념	-13989
▁개는	-13990
▁개에	-13991
▁개회	-13992
▁거행	-13993
▁게놈	-13994
▁겪은	-13995
▁경력	-13996
▁경이	-13997
▁경주	-13998
▁공업	-13999
▁과속	-14000
▁과시	-14001
▁과일	-14002
▁굉장	-14003
▁구상	-14004
▁구해	-14005
▁국유	-14006
▁그외	-14007
▁금치	-14008
▁급히	-14009
▁기를	-14010
▁김영	-14011
▁깜짝	-14012
▁날려	-14013
▁났다	-14014
▁낮게	-14015
▁넣고	-14016
▁능력	-14017
▁다둘	-14018
▁다스	-14019
▁다해	-14020
▁독극	-14021
▁돌며	-14022
▁돌진	-14023
▁돌풍	-14024
▁동기	-14025
▁때도	-14026
▁때를	-14027
▁때와	-14028
▁뚜렷	-14029
▁레노	-14030
▁레인	-14031
▁로야	-14032
▁로키	-14033
▁로하	-14034
▁루스	-14035
▁리베	-14036
▁리타	-14037
▁말도	-14038
▁매리	-14039
▁매트	-14040
▁무의	-14041
▁무척	-14042
▁문학	-14043
▁물라	-14044
▁미화	-14045
▁밀러	-14046
▁바랬	-14047
▁바비	-14048
▁반짝	-14049
▁법규	-14050
▁법의	-14051
▁벤처	-14052
▁보궐	-14053
▁복수	-14054
▁봉인	-14055
▁봉착	-14056
▁부를	-14057
▁분화	-14058
▁비율	-14059
▁비참	-14060
▁비치	-14061
▁빌리	-14062
▁사촌	-14063
▁상무	-14064
▁상임	-14065
▁서던	-14066
▁서두	-14067
▁서해	-14068
▁섬의	-14069
▁성행	-14070
▁숨져	-14071
▁스펙	-14072
▁시몬	-14073
▁신시	-14074
▁신종	-14075
▁쌓인	-14076
▁쓰지	-14077
▁아드	-14078
▁아세	-14079
▁아유	-14080
▁암시	-14081
▁앙카	-14082
▁약품	-14083
▁어쩔	-14084
▁엔진	-14085
▁예외	-14086
▁외모	-14087
▁우드	-14088
▁위헌	-14089
▁유독	-14090
▁육박	-14091
▁이건	-14092
▁이빨	-14093
▁이타	-14094
▁인텔	-14095
▁일환	-14096
▁자고	-14097
▁자는	-14098
▁자진	-14099
▁잠깐	-14100
▁재앙	-14101
▁재차	-14102
▁점심	-14103
▁접경	-14104
▁정박	-14105
▁제어	-14106
▁져야	-14107
▁조립	-14108
▁주입	-14109
▁즐겨	-14110
▁증오	-14111
▁지을	-14112
▁지향	-14113
▁진도	-14114
▁짜리	-14115
▁청색	-14116
▁치타	-14117
▁카누	-14118
▁카렌	-14119
▁쿠르	-14120
▁탑재	-14121
▁토튼	-14122
▁퇴진	-14123
▁투여	-14124
▁트래	-14125
▁파워	-14126
▁팔을	-14127
▁푸미	-14128
▁풍자	-14129
▁프란	-14130
▁프렌	-14131
▁필리	-14132
▁하비	-14133
▁하위	-14134
▁한꺼	-14135
▁한창	-14136
▁할로	-14137
▁할인	-14138
▁합리	-14139
▁항복	-14140
▁해줄	-14141
▁행방	-14142
▁행크	-14143
▁헌신	-14144
▁현직	-14145
▁호는	-14146
▁황박	-14147
▁회상	-14148
관학교	-14149
기구가	-14150
대서양	-14151
되었을	-14152
렀으며	-14153
리라고	-14154
면서도	-14155
법안에	-14156
사이드	-14157
성에서	-14158
소시엄	-14159
스럽고	-14160
안에는	-14161
었었다	-14162
여사는	-14163
이것은	-14164
자마자	-14165
장관을	-14166
졌는데	-14167
졌었다	-14168
조직을	-14169
줬다고	-14170
즈에서	-14171
카메라	-14172
케이션	-14173
하이머	-14174
하자고	-14175
하지도	-14176
했거나	-14177
회사의	-14178
회의가	-14179
▁가깝게	-14180
▁가담한	-14181
▁가하는	-14182
▁강화된	-14183
▁개막식	-14184
▁개정된	-14185
▁개최할	-14186
▁거래에	-14187
▁거리가	-14188
▁거슬러	-14189
▁건물은	-14190
▁검사가	-14191
▁게임의	-14192
▁결혼한	-14193
▁계약이	-14194
▁공동의	-14195
▁관계로	-14196
▁관여한	-14197
▁관절염	-14198
▁교수가	-14199
▁교수인	-14200
▁교회의	-14201
▁구성할	-14202
▁구조를	-14203
▁구조조	-14204
▁국가와	-14205
▁군인을	-14206
▁그런데	-14207
▁그리핀	-14208
▁금지된	-14209
▁급격한	-14210
▁기업에	-14211
▁기업체	-14212
▁기자인	-14213
▁깨끗한	-14214
▁끝나지	-14215
▁나라가	-14216
▁나이에	-14217
▁나타날	-14218
▁남자와	-14219
▁납치를	-14220
▁낳았다	-14221
▁내각의	-14222
▁내부의	-14223
▁넘어서	-14224
▁농산물	-14225
▁뉴욕과	-14226
▁다윈은	-14227
▁단거리	-14228
▁단계로	-14229
▁단백질	-14230
▁단장은	-14231
▁대가를	-14232
▁대만에	-14233
▁대열에	-14234
▁대화가	-14235
▁던지는	-14236
▁데에는	-14237
▁도시는	-14238
▁동료인	-14239
▁동의를	-14240
▁드러나	-14241
▁들어갔	-14242
▁등록된	-14243
▁디에고	-14244
▁따르지	-14245
▁떠나지	-14246
▁로날드	-14247
▁마누엘	-14248
▁마련해	-14249
▁마시는	-14250
▁망명을	-14251
▁매카트	-14252
▁맥주를	-14253
▁머리가	-14254
▁며칠간	-14255
▁명만이	-14256
▁명확한	-14257
▁모였다	-14258
▁목사가	-14259
▁목사의	-14260
▁몰아넣	-14261
▁못하다	-14262
▁무기와	-14263
▁무너뜨	-14264
▁무혐의	-14265
▁미소를	-14266
▁밀라노	-14267
▁바다가	-14268
▁박정희	-14269
▁반대를	-14270
▁반대해	-14271
▁반면에	-14272
▁발표될	-14273
▁방화를	-14274
▁버려진	-14275
▁버스가	-14276
▁버틀러	-14277
▁벌어들	-14278
▁법안의	-14279
▁보고된	-14280
▁보도된	-14281
▁보리스	-14282
▁보안군	-14283
▁부드러	-14284
▁북쪽에	-14285
▁불길에	-14286
▁불만이	-14287
▁불참을	-14288
▁불편한	-14289
▁불행한	-14290
▁비난해	-14291
▁빙하가	-14292
▁사망에	-14293
▁사업은	-14294
▁사용이	-14295
▁산업을	-14296
▁살았던	-14297
▁상원은	-14298
▁서명한	-14299
▁서울대	-14300
▁석유를	-14301
▁선언을	-14302
▁설명을	-14303
▁성공할	-14304
▁소녀의	-14305
▁소문이	-14306
▁소지한	-14307
▁손상된	-14308
▁수십년	-14309
▁수준에	-14310
▁순간에	-14311
▁스콜세	-14312
▁스타가	-14313
▁승리가	-14314
▁승리의	-14315
▁신문의	-14316
▁신문이	-14317
▁신원은	-14318
▁신행정	-14319
▁아디다	-14320
▁아라파	-14321
▁아르메	-14322
▁아브라	-14323
▁아시안	-14324
▁아이튠	-14325
▁아폴로	-14326
▁악천후	-14327
▁않을까	-14328
▁애도의	-14329
▁업체가	-14330
▁없음을	-14331
▁역할에	-14332
▁연구원	-14333
▁연합의	-14334
▁영어로	-14335
▁영어를	-14336
▁영업이	-14337
▁올라온	-14338
▁외곽에	-14339
▁윌리암	-14340
▁은행인	-14341
▁이겼다	-14342
▁이득을	-14343
▁이르게	-14344
▁이미지	-14345
▁이와는	-14346
▁이행할	-14347
▁인물로	-14348
▁인수가	-14349
▁입원해	-14350
▁입장에	-14351
▁자르카	-14352
▁작성된	-14353
▁장벽을	-14354
▁재건축	-14355
▁저소득	-14356
▁전당대	-14357
▁전반에	-14358
▁전투로	-14359
▁절반이	-14360
▁점으로	-14361
▁정치가	-14362
▁제목의	-14363
▁조용히	-14364
▁조직이	-14365
▁조직인	-14366
▁좋았다	-14367
▁주석이	-14368
▁주장인	-14369
▁주제로	-14370
▁증가에	-14371
▁증상을	-14372
▁지명된	-14373
▁지방에	-14374
▁직원과	-14375
▁찍었다	-14376
▁차량과	-14377
▁착용한	-14378
▁촉발된	-14379
▁촬영된	-14380
▁추진할	-14381
▁축제를	-14382
▁취임식	-14383
▁치료에	-14384
▁케이스	-14385
▁쿠알라	-14386
▁클레멘	-14387
▁타이어	-14388
▁테이블	-14389
▁파란색	-14390
▁평했다	-14391
▁프레슬	-14392
▁하는지	-14393
▁하늘을	-14394
▁합류할	-14395
▁해외로	-14396
▁해준다	-14397
▁현상을	-14398
▁혐의는	-14399
▁협상의	-14400
▁화재를	-14401
▁확보해	-14402
▁확정될	-14403
▁환자를	-14404
▁회의는	-14405
법원에서	-14406
투표에서	-14407
하겠지만	-14408
하면서도	-14409
함으로서	-14410
▁가이트너	-14411
▁가족들의	-14412
▁결정하기	-14413
▁계속됐다	-14414
▁고위관리	-14415
▁곳곳에서	-14416
▁공격적인	-14417
▁공격하고	-14418
▁공격하기	-14419
▁관광객을	-14420
▁관리들과	-14421
▁국가들과	-14422
▁국내에서	-14423
▁국토안보	-14424
▁군인들을	-14425
▁그녀에게	-14426
▁기자들과	-14427
▁늘어나고	-14428
▁담당자인	-14429
▁대사관에	-14430
▁도착하자	-14431
▁동물보호	-14432
▁동성결혼	-14433
▁등장하는	-14434
▁루아얄은	-14435
▁리트비넨	-14436
▁매니저인	-14437
▁매들린이	-14438
▁멸종위기	-14439
▁무너지고	-14440
▁무대에서	-14441
▁민간인을	-14442
▁바랍니다	-14443
▁받았었다	-14444
▁발언으로	-14445
▁방코델타	-14446
▁벌였으며	-14447
▁베이루트	-14448
▁보고서의	-14449
▁보였으며	-14450
▁보이지만	-14451
▁부모들이	-14452
▁부통령의	-14453
▁분석가인	-14454
▁불법적인	-14455
▁사드르의	-14456
▁사무실에	-14457
▁사무총장	-14458
▁사용자가	-14459
▁살해하고	-14460
▁생각된다	-14461
▁석방했다	-14462
▁선거기부	-14463
▁수십명의	-14464
▁수용소에	-14465
▁시사했다	-14466
▁시상식은	-14467
▁시위대의	-14468
▁실업수당	-14469
▁심리에서	-14470
▁심사위원	-14471
▁아버지를	-14472
▁안보리는	-14473
▁압수했다	-14474
▁앨라배마	-14475
▁언론과의	-14476
▁에스트라	-14477
▁여러차례	-14478
▁여성으로	-14479
▁연구하는	-14480
▁연기됐다	-14481
▁완화하기	-14482
▁우려하는	-14483
▁우승했다	-14484
▁위험성을	-14485
▁의료보험	-14486
▁의원들과	-14487
▁이라크군	-14488
▁이뤄지는	-14489
▁잃어버린	-14490
▁있음에도	-14491
▁전세계의	-14492
▁전시작전	-14493
▁정부에게	-14494
▁정상들이	-14495
▁정확하게	-14496
▁제기됐다	-14497
▁제한하는	-14498
▁조사결과	-14499
▁주지사를	-14500
▁직원들을	-14501
▁진지하게	-14502
▁진행자인	-14503
▁진행하는	-14504
▁최근까지	-14505
▁충돌했다	-14506
▁측에서는	-14507
▁카불에서	-14508
▁탈출했다	-14509
▁통과하는	-14510
▁트로피를	-14511
▁티셔츠를	-14512
▁페르난데	-14513
▁포괄적인	-14514
▁포기하고	-14515
▁포기하는	-14516
▁포기했다	-14517
▁하루종일	-14518
▁한꺼번에	-14519
▁한반도에	-14520
▁항구도시	-14521
▁해결하는	-14522
▁확신하고	-14523
▁환자들은	-14524
▁환자들을	-14525
▁환자에게	-14526
▁회사에서	-14527
▁획기적인	-14528
▁히스패닉	-14529
평균지수는	-14530
▁고속도로를	-14531
▁관광객들을	-14532
▁교착상태에	-14533
▁국제올림픽	-14534
▁나이트클럽	-14535
▁네그로폰테	-14536
▁뉴올리언스	-14537
▁뉴잉글랜드	-14538
▁대선후보가	-14539
▁디스플레이	-14540
▁바스라에서	-14541
▁밝혀졌다고	-14542
▁베스트셀러	-14543
▁비평가들은	-14544
▁비행기에서	-14545
▁서부텍사스	-14546
▁성공시켰다	-14547
▁소행이라고	-14548
▁애틀랜티스	-14549
▁위원회에서	-14550
▁젊은이들이	-14551
▁중국에서는	-14552
▁지시했다고	-14553
▁지지자들을	-14554
▁직접적으로	-14555
▁추수감사절	-14556
▁페널티킥을	-14557
▁관광객들에게	-14558
▁아프리카에서	-14559
▁이슬라마바드	-14560
▁캘리포니아에	-14561
▁플로리다에서	-14562
▁방코델타아시아	-14563
▁안전보장이사회	-14564
▁자살폭탄테러로	-14565
▁캘리포니아에서	-14566
▁이슬라마바드에서	-14567
▁굽	-14568
▁긱	-14569
▁놈	-14570
▁눌	-14571
▁돋	-14572
▁둥	-14573
▁락	-14574
▁뷰	-14575
▁빔	-14576
▁셔	-14577
▁션	-14578
▁싼	-14579
▁쐈	-14580
▁씻	-14581
▁왓	-14582
▁죠	-14583
▁핫	-14584
건이	-14585
교환	-14586
꺼이	-14587
끼를	-14588
나드	-14589
다를	-14590
다피	-14591
더와	-14592
든지	-14593
때로	-14594
라브	-14595
래에	-14596
랜더	-14597
럽게	-14598
레오	-14599
레티	-14600
류는	-14601
린의	-14602
마저	-14603
먼의	-14604
면이	-14605
바가	-14606
반을	-14607
방의	-14608
버릴	-14609
범을	-14610
법과	-14611
병원	-14612
보지	-14613
봐야	-14614
상도	-14615
석의	-14616
손은	-14617
에겐	-14618
에르	-14619
연상	-14620
인터	-14621
일드	-14622
일본	-14623
전인	-14624
증에	-14625
천옹	-14626
카를	-14627
탄이	-14628
탐사	-14629
토야	-14630
튼이	-14631
티네	-14632
파와	-14633
펀드	-14634
포럼	-14635
풋볼	-14636
한한	-14637
함과	-14638
함에	-14639
▁가오	-14640
▁가혹	-14641
▁간다	-14642
▁감수	-14643
▁개와	-14644
▁걸음	-14645
▁고맙	-14646
▁곡을	-14647
▁공범	-14648
▁공영	-14649
▁공작	-14650
▁과감	-14651
▁교역	-14652
▁권장	-14653
▁그어	-14654
▁꿈이	-14655
▁나뭇	-14656
▁날에	-14657
▁넘쳐	-14658
▁년은	-14659
▁놀랐	-14660
▁뇌의	-14661
▁다닐	-14662
▁다저	-14663
▁다카	-14664
▁달고	-14665
▁대거	-14666
▁대단	-14667
▁도구	-14668
▁독특	-14669
▁되살	-14670
▁드미	-14671
▁디젤	-14672
▁라벨	-14673
▁로얄	-14674
▁로즈	-14675
▁루고	-14676
▁르완	-14677
▁리비	-14678
▁리스	-14679
▁리옹	-14680
▁만개	-14681
▁만평	-14682
▁맞춘	-14683
▁매진	-14684
▁먼지	-14685
▁면허	-14686
▁명씩	-14687
▁모나	-14688
▁민영	-14689
▁바우	-14690
▁방을	-14691
▁법이	-14692
▁변형	-14693
▁봤을	-14694
▁부친	-14695
▁분주	-14696
▁불빛	-14697
▁블래	-14698
▁비전	-14699
▁비춰	-14700
▁빨라	-14701
▁사귀	-14702
▁사모	-14703
▁살된	-14704
▁살상	-14705
▁생길	-14706
▁서머	-14707
▁성지	-14708
▁세관	-14709
▁세와	-14710
▁세울	-14711
▁세웠	-14712
▁셰르	-14713
▁숨겨	-14714
▁스몰	-14715
▁스폰	-14716
▁시트	-14717
▁시한	-14718
▁식수	-14719
▁신설	-14720
▁아웃	-14721
▁아쿠	-14722
▁애슐	-14723
▁야외	-14724
▁약을	-14725
▁양이	-14726
▁여유	-14727
▁연못	-14728
▁연습	-14729
▁연패	-14730
▁오닐	-14731
▁오디	-14732
▁오클	-14733
▁오퍼	-14734
▁완수	-14735
▁왕복	-14736
▁요금	-14737
▁우익	-14738
▁우체	-14739
▁의정	-14740
▁이병	-14741
▁이성	-14742
▁일생	-14743
▁일일	-14744
▁자와	-14745
▁자정	-14746
▁잘라	-14747
▁잠겨	-14748
▁재결	-14749
▁저가	-14750
▁저하	-14751
▁적혀	-14752
▁전념	-14753
▁제왕	-14754
▁제휴	-14755
▁좁혀	-14756
▁죄를	-14757
▁주니	-14758
▁죽고	-14759
▁즐겁	-14760
▁지대	-14761
▁지식	-14762
▁지어	-14763
▁진열	-14764
▁짙은	-14765
▁찍힌	-14766
▁참패	-14767
▁처분	-14768
▁천명	-14769
▁출간	-14770
▁출항	-14771
▁친지	-14772
▁칠면	-14773
▁캐피	-14774
▁클랩	-14775
▁클릭	-14776
▁탔다	-14777
▁터져	-14778
▁템파	-14779
▁토지	-14780
▁트루	-14781
▁트위	-14782
▁파는	-14783
▁팽팽	-14784
▁평창	-14785
▁포도	-14786
▁포크	-14787
▁피를	-14788
▁허리	-14789
▁헤어	-14790
▁헬만	-14791
▁형을	-14792
▁화상	-14793
▁화폐	-14794
▁환급	-14795
▁활주	-14796
▁황폐	-14797
▁회전	-14798
▁횡단	-14799
▁후인	-14800
▁희박	-14801
경찰은	-14802
계선을	-14803
관계에	-14804
기구를	-14805
기구인	-14806
내셔널	-14807
냈지만	-14808
냐하면	-14809
라이트	-14810
르바초	-14811
부대를	-14812
부장은	-14813
스파일	-14814
업자인	-14815
여행을	-14816
영장을	-14817
이다호	-14818
이치로	-14819
일정을	-14820
임에도	-14821
있다는	-14822
자였다	-14823
장관의	-14824
정이다	-14825
지역은	-14826
총장이	-14827
평의회	-14828
해주고	-14829
협회의	-14830
▁가량이	-14831
▁가옥이	-14832
▁가져야	-14833
▁가치는	-14834
▁감소할	-14835
▁강타해	-14836
▁개인의	-14837
▁개인적	-14838
▁것들을	-14839
▁게임은	-14840
▁경선에	-14841
▁경쟁이	-14842
▁경제성	-14843
▁계획과	-14844
▁공개될	-14845
▁공약을	-14846
▁공장이	-14847
▁과학자	-14848
▁국회는	-14849
▁군부의	-14850
▁그룹이	-14851
▁급상승	-14852
▁급속한	-14853
▁기네스	-14854
▁기사에	-14855
▁기지에	-14856
▁김경준	-14857
▁까지는	-14858
▁나온다	-14859
▁난동을	-14860
▁날씨는	-14861
▁내부에	-14862
▁놀라게	-14863
▁높았다	-14864
▁누군가	-14865
▁눈으로	-14866
▁뉴스가	-14867
▁당시의	-14868
▁대니얼	-14869
▁대령은	-14870
▁대승을	-14871
▁대신해	-14872
▁대표와	-14873
▁대학에	-14874
▁데이브	-14875
▁도달할	-14876
▁독재자	-14877
▁되는데	-14878
▁들어서	-14879
▁때부터	-14880
▁라덴은	-14881
▁라시드	-14882
▁로드맵	-14883
▁로리언	-14884
▁로브는	-14885
▁마스크	-14886
▁마을이	-14887
▁만나기	-14888
▁만델라	-14889
▁메신저	-14890
▁명단을	-14891
▁모두는	-14892
▁목격자	-14893
▁목록에	-14894
▁몰디브	-14895
▁무게가	-14896
▁물체가	-14897
▁밀접한	-14898
▁바리케	-14899
▁바오로	-14900
▁반대의	-14901
▁받기도	-14902
▁발간된	-14903
▁발레리	-14904
▁버리고	-14905
▁번화가	-14906
▁벌어질	-14907
▁범인을	-14908
▁병원은	-14909
▁보내며	-14910
▁복장을	-14911
▁부담을	-14912
▁부정적	-14913
▁분리된	-14914
▁블레이	-14915
▁비공개	-14916
▁비난의	-14917
▁사라질	-14918
▁사망할	-14919
▁새크라	-14920
▁생기는	-14921
▁생산된	-14922
▁서서히	-14923
▁석방될	-14924
▁선거유	-14925
▁선생님	-14926
▁선수의	-14927
▁성화가	-14928
▁세골렌	-14929
▁세레나	-14930
▁센터에	-14931
▁소동이	-14932
▁소령은	-14933
▁소아과	-14934
▁소유주	-14935
▁소재로	-14936
▁손으로	-14937
▁쇼핑을	-14938
▁수집한	-14939
▁수하물	-14940
▁순이익	-14941
▁스테판	-14942
▁승부차	-14943
▁승인할	-14944
▁신천옹	-14945
▁실적을	-14946
▁실적이	-14947
▁실행에	-14948
▁심리를	-14949
▁심슨의	-14950
▁심슨이	-14951
▁십자가	-14952
▁아내인	-14953
▁아메드	-14954
▁아프카	-14955
▁알자지	-14956
▁얼어붙	-14957
▁업계의	-14958
▁없다면	-14959
▁없었고	-14960
▁여기에	-14961
▁여당이	-14962
▁연관이	-14963
▁염두에	-14964
▁영국을	-14965
▁영상은	-14966
▁예방접	-14967
▁예산이	-14968
▁오늘의	-14969
▁오디오	-14970
▁온난화	-14971
▁올스타	-14972
▁요원이	-14973
▁월에서	-14974
▁은행을	-14975
▁음베키	-14976
▁의심을	-14977
▁이견을	-14978
▁이들과	-14979
▁이상은	-14980
▁이스마	-14981
▁인공위	-14982
▁인구는	-14983
▁인질이	-14984
▁일부로	-14985
▁일했다	-14986
▁잇따라	-14987
▁있을까	-14988
▁자전거	-14989
▁작품이	-14990
▁잔혹한	-14991
▁잠비아	-14992
▁장군이	-14993
▁장기를	-14994
▁장식된	-14995
▁재단은	-14996
▁저작권	-14997
▁정교회	-14998
▁정당은	-14999
▁정통한	-15000
▁제보를	-15001
▁제이슨	-15002
▁제품의	-15003
▁제품이	-15004
▁조류독	-15005
▁졸업생	-15006
▁종말론	-15007
▁주간의	-15008
▁주목할	-15009
▁중동의	-15010
▁중령은	-15011
▁중심의	-15012
▁증상이	-15013
▁지방을	-15014
▁지분을	-15015
▁지지한	-15016
▁지켰다	-15017
▁진압을	-15018
▁집권한	-15019
▁쪽으로	-15020
▁차원의	-15021
▁차질이	-15022
▁체계를	-15023
▁체중이	-15024
▁초안을	-15025
▁총선은	-15026
▁총으로	-15027
▁총재가	-15028
▁최상의	-15029
▁최우수	-15030
▁추락해	-15031
▁취하는	-15032
▁치안을	-15033
▁친밀한	-15034
▁키티호	-15035
▁투자에	-15036
▁트럭에	-15037
▁트럭을	-15038
▁파리의	-15039
▁파이어	-15040
▁패배한	-15041
▁퍼시픽	-15042
▁편이다	-15043
▁폭동을	-15044
▁폭행을	-15045
▁표결에	-15046
▁푸미폰	-15047
▁푸틴의	-15048
▁프레이	-15049
▁하반기	-15050
▁하이킹	-15051
▁학교는	-15052
▁학교와	-15053
▁한가지	-15054
▁한국계	-15055
▁한동안	-15056
▁해안의	-15057
▁행복한	-15058
▁혐의도	-15059
▁협력해	-15060
▁화해를	-15061
▁확고한	-15062
▁확정된	-15063
▁회복을	-15064
▁획득한	-15065
▁효력을	-15066
▁흔들며	-15067
▁흩어져	-15068
랜드에서	-15069
로부터의	-15070
시간으로	-15071
조사에서	-15072
지대에서	-15073
▁가정에서	-15074
▁개체수가	-15075
▁거래에서	-15076
▁경기후퇴	-15077
▁과도하게	-15078
▁관계자와	-15079
▁관광객은	-15080
▁국경지역	-15081
▁군사력을	-15082
▁규정했다	-15083
▁극적으로	-15084
▁금융기관	-15085
▁급속도로	-15086
▁기후변화	-15087
▁나타난다	-15088
▁나토군이	-15089
▁납치됐다	-15090
▁늘어났다	-15091
▁단체들이	-15092
▁대법원에	-15093
▁대항하는	-15094
▁돌아오는	-15095
▁동점골을	-15096
▁두번째로	-15097
▁드미트리	-15098
▁들어있다	-15099
▁러시아를	-15100
▁로비스트	-15101
▁멕시코의	-15102
▁무가베는	-15103
▁무책임한	-15104
▁무하메드	-15105
▁미국인이	-15106
▁밀리밴드	-15107
▁박물관은	-15108
▁반발했다	-15109
▁발견하지	-15110
▁발령했다	-15111
▁발생하자	-15112
▁발표되지	-15113
▁배경으로	-15114
▁배아줄기	-15115
▁백악관을	-15116
▁백악관이	-15117
▁벗어나기	-15118
▁변호사와	-15119
▁보건부는	-15120
▁보고되지	-15121
▁본국으로	-15122
▁분명하다	-15123
▁불안정한	-15124
▁비핵화를	-15125
▁산사태가	-15126
▁서비스는	-15127
▁선수들과	-15128
▁설명하지	-15129
▁성장률을	-15130
▁성장률이	-15131
▁스스로를	-15132
▁스트리트	-15133
▁스프레이	-15134
▁승리해야	-15135
▁시리아와	-15136
▁시민단체	-15137
▁시상식을	-15138
▁시스템의	-15139
▁시작하기	-15140
▁실업률이	-15141
▁않았다면	-15142
▁어머니의	-15143
▁여성들의	-15144
▁연구소는	-15145
▁연구팀이	-15146
▁와이오밍	-15147
▁외교정책	-15148
▁요구한다	-15149
▁요청으로	-15150
▁요청하는	-15151
▁원한다면	-15152
▁위원장의	-15153
▁위태롭게	-15154
▁이동했다	-15155
▁임명했다	-15156
▁자부심을	-15157
▁자이언트	-15158
▁자회담이	-15159
▁재미있는	-15160
▁전까지는	-15161
▁전문가는	-15162
▁정부군은	-15163
▁제공하기	-15164
▁제작했다	-15165
▁조승희가	-15166
▁중국과의	-15167
▁지도자의	-15168
▁지불하고	-15169
▁지원했다	-15170
▁지지자들	-15171
▁지지자의	-15172
▁진압하기	-15173
▁집권당인	-15174
▁처음에는	-15175
▁청와대는	-15176
▁충격적인	-15177
▁충분하지	-15178
▁캐나다의	-15179
▁태풍으로	-15180
▁텍사스와	-15181
▁판매량이	-15182
▁평화로운	-15183
▁폭락했다	-15184
▁푸에르타	-15185
▁피해자가	-15186
▁한국전쟁	-15187
▁항공사가	-15188
▁항공우주	-15189
▁해적들이	-15190
▁헤럴드가	-15191
▁확보해야	-15192
▁확인하지	-15193
▁회원국이	-15194
▁경제적으로	-15195
▁골든글로브	-15196
▁관계자들의	-15197
▁구호물품을	-15198
▁국제적으로	-15199
▁노대통령의	-15200
▁당국자들이	-15201
▁마라도나는	-15202
▁만들어졌다	-15203
▁모여들었다	-15204
▁바에따르면	-15205
▁북서쪽으로	-15206
▁북아일랜드	-15207
▁비상사태가	-15208
▁석방됐다고	-15209
▁선고받았다	-15210
▁스트레스를	-15211
▁시민들에게	-15212
▁시위자들을	-15213
▁아이슬란드	-15214
▁암스테르담	-15215
▁약속했다고	-15216
▁오래전부터	-15217
▁외무장관이	-15218
▁의미한다고	-15219
▁자발적으로	-15220
▁재정경제부	-15221
▁정상회담에	-15222
▁조심스럽게	-15223
▁주장했다고	-15224
▁주장했었다	-15225
▁줄리아니는	-15226
▁중심부에서	-15227
▁중앙일보가	-15228
▁지역에서도	-15229
▁청문회에서	-15230
▁캐나다에서	-15231
▁토론회에서	-15232
▁폭탄테러는	-15233
▁폭탄테러의	-15234
▁하락했다고	-15235
▁홈페이지에	-15236
▁희망한다고	-15237
▁마드리드에서	-15238
▁미항공우주국	-15239
▁아프카니스탄	-15240
▁어린이들에게	-15241
▁예정이었으나	-15242
▁크리스티아누	-15243
▁핵프로그램을	-15244
▁뉴욕상업거래소	-15245
',	-15246
▁!	-15247
▁?	-15248
▁딱	-15249
▁뻔	-15250
▁뻗	-15251
▁윗	-15252
▁켜	-15253
▁탕	-15254
▁흙	-15255
고등	-15256
공을	-15257
구성	-15258
권과	-15259
귀한	-15260
균형	-15261
낸다	-15262
단계	-15263
더가	-15264
데자	-15265
됐기	-15266
드르	-15267
들만	-15268
디치	-15269
라기	-15270
량과	-15271
럴드	-15272
로그	-15273
로워	-15274
록을	-15275
메일	-15276
목에	-15277
민순	-15278
바를	-15279
버른	-15280
보드	-15281
분한	-15282
블리	-15283
비츠	-15284
빌은	-15285
설이	-15286
세서	-15287
셨다	-15288
수비	-15289
수이	-15290
시마	-15291
시킴	-15292
신고	-15293
신의	-15294
실히	-15295
씨로	-15296
아프	-15297
안토	-15298
애를	-15299
에른	-15300
연대	-15301
예프	-15302
오던	-15303
우지	-15304
자리	-15305
재해	-15306
쟁이	-15307
정과	-15308
정도	-15309
젠은	-15310
좋은	-15311
지아	-15312
지휘	-15313
차의	-15314
채를	-15315
출한	-15316
카이	-15317
키마	-15318
킨스	-15319
토프	-15320
통계	-15321
투어	-15322
트랙	-15323
티와	-15324
팀인	-15325
프랑	-15326
헤딘	-15327
효율	-15328
▁가방	-15329
▁가시	-15330
▁갈망	-15331
▁값싼	-15332
▁갖기	-15333
▁갖지	-15334
▁개로	-15335
▁개리	-15336
▁거울	-15337
▁건스	-15338
▁건에	-15339
▁겪게	-15340
▁견해	-15341
▁결장	-15342
▁고독	-15343
▁고층	-15344
▁공백	-15345
▁과장	-15346
▁관례	-15347
▁굶주	-15348
▁규명	-15349
▁그랬	-15350
▁그저	-15351
▁금전	-15352
▁기내	-15353
▁깨고	-15354
▁끝낼	-15355
▁나눈	-15356
▁나포	-15357
▁난처	-15358
▁남긴	-15359
▁납북	-15360
▁낳을	-15361
▁내기	-15362
▁내륙	-15363
▁내외	-15364
▁냉장	-15365
▁넘기	-15366
▁누워	-15367
▁다나	-15368
▁다할	-15369
▁단편	-15370
▁대배	-15371
▁더미	-15372
▁델라	-15373
▁동거	-15374
▁됐고	-15375
▁두지	-15376
▁든다	-15377
▁딜런	-15378
▁뚫고	-15379
▁랜디	-15380
▁로게	-15381
▁로렌	-15382
▁루터	-15383
▁마른	-15384
▁마우	-15385
▁마자	-15386
▁마테	-15387
▁말아	-15388
▁맞지	-15389
▁매설	-15390
▁명절	-15391
▁몰린	-15392
▁무언	-15393
▁무작	-15394
▁무패	-15395
▁묶여	-15396
▁묻혀	-15397
▁물과	-15398
▁미만	-15399
▁발작	-15400
▁방식	-15401
▁배의	-15402
▁버려	-15403
▁버밍	-15404
▁법조	-15405
▁보니	-15406
▁보라	-15407
▁본선	-15408
▁분배	-15409
▁불고	-15410
▁불꽃	-15411
▁불량	-15412
▁비방	-15413
▁비키	-15414
▁산체	-15415
▁살던	-15416
▁상기	-15417
▁상실	-15418
▁상트	-15419
▁생겼	-15420
▁섭씨	-15421
▁소더	-15422
▁소란	-15423
▁수성	-15424
▁수신	-15425
▁순위	-15426
▁순조	-15427
▁스즈	-15428
▁시급	-15429
▁시모	-15430
▁시술	-15431
▁신랑	-15432
▁실내	-15433
▁씨를	-15434
▁아비	-15435
▁아서	-15436
▁안을	-15437
▁알릴	-15438
▁알메	-15439
▁액션	-15440
▁양조	-15441
▁어미	-15442
▁어부	-15443
▁어윈	-15444
▁어지	-15445
▁에비	-15446
▁연일	-15447
▁영하	-15448
▁예금	-15449
▁올림	-15450
▁왔던	-15451
▁용기	-15452
▁용서	-15453
▁우파	-15454
▁원동	-15455
▁유머	-15456
▁유언	-15457
▁의논	-15458
▁의류	-15459
▁익숙	-15460
▁인접	-15461
▁일대	-15462
▁일조	-15463
▁있으	-15464
▁자궁	-15465
▁적도	-15466
▁정원	-15467
▁제인	-15468
▁조에	-15469
▁조율	-15470
▁주먹	-15471
▁주와	-15472
▁죽이	-15473
▁중개	-15474
▁중장	-15475
▁증산	-15476
▁지아	-15477
▁진척	-15478
▁참수	-15479
▁체험	-15480
▁최다	-15481
▁최장	-15482
▁추돌	-15483
▁추운	-15484
▁취업	-15485
▁츠방	-15486
▁친미	-15487
▁침대	-15488
▁카펫	-15489
▁칼데	-15490
▁컨셉	-15491
▁콜럼	-15492
▁쿠마	-15493
▁퀘벡	-15494
▁크랜	-15495
▁키르	-15496
▁태워	-15497
▁퇴치	-15498
▁투병	-15499
▁트러	-15500
▁팔로	-15501
▁페리	-15502
▁페어	-15503
▁평결	-15504
▁표기	-15505
▁피그	-15506
▁하노	-15507
▁할렘	-15508
▁해발	-15509
▁핵을	-15510
▁햇빛	-15511
▁헤엄	-15512
▁혹등	-15513
▁혼인	-15514
▁휘말	-15515
갔지만	-15516
검사를	-15517
기관이	-15518
나이트	-15519
닷컴은	-15520
됐는지	-15521
때보다	-15522
랜드의	-15523
리아스	-15524
목으로	-15525
문으로	-15526
버스터	-15527
법원이	-15528
비치가	-15529
사고로	-15530
사고를	-15531
사로서	-15532
석으로	-15533
섰다고	-15534
스키는	-15535
시설에	-15536
언론은	-15537
언론이	-15538
인민당	-15539
자리를	-15540
장치가	-15541
측에서	-15542
타니아	-15543
테이프	-15544
프레드	-15545
하에서	-15546
하였고	-15547
행사를	-15548
행진을	-15549
화하기	-15550
회사에	-15551
회의는	-15552
▁가득한	-15553
▁가입을	-15554
▁간단히	-15555
▁감소한	-15556
▁감시를	-15557
▁개성공	-15558
▁개월을	-15559
▁거리의	-15560
▁거부할	-15561
▁경영자	-15562
▁고객을	-15563
▁고릴라	-15564
▁곤경에	-15565
▁공상과	-15566
▁공항이	-15567
▁과정은	-15568
▁광우병	-15569
▁교통부	-15570
▁교황이	-15571
▁교회는	-15572
▁구속된	-15573
▁국민은	-15574
▁국방성	-15575
▁군사작	-15576
▁권총을	-15577
▁기관은	-15578
▁기관인	-15579
▁기꺼이	-15580
▁기록은	-15581
▁기원전	-15582
▁기존에	-15583
▁기지로	-15584
▁나폴리	-15585
▁남쪽에	-15586
▁내리기	-15587
▁넣으며	-15588
▁노력은	-15589
▁노리고	-15590
▁노리는	-15591
▁노인성	-15592
▁놀이공	-15593
▁뉴델리	-15594
▁느꼈다	-15595
▁느끼지	-15596
▁단체로	-15597
▁달했다	-15598
▁당선이	-15599
▁대선은	-15600
▁대우를	-15601
▁대응을	-15602
▁대표단	-15603
▁대표의	-15604
▁도메인	-15605
▁도요타	-15606
▁동결된	-15607
▁동맹을	-15608
▁들어올	-15609
▁디얄라	-15610
▁때때로	-15611
▁라이더	-15612
▁롤링은	-15613
▁르완다	-15614
▁리투아	-15615
▁마가렛	-15616
▁만든다	-15617
▁맞추고	-15618
▁메릴린	-15619
▁메트로	-15620
▁멜버른	-15621
▁목록을	-15622
▁문화의	-15623
▁문화적	-15624
▁물질의	-15625
▁미스터	-15626
▁미연방	-15627
▁미쳤다	-15628
▁미프로	-15629
▁바나프	-15630
▁바쿠바	-15631
▁박수를	-15632
▁박차를	-15633
▁반응은	-15634
▁반지를	-15635
▁반하는	-15636
▁받기로	-15637
▁발견할	-15638
▁밝혀질	-15639
▁밝혔고	-15640
▁방송인	-15641
▁방침을	-15642
▁배트맨	-15643
▁벌였던	-15644
▁벌인다	-15645
▁법으로	-15646
▁보았다	-15647
▁본사가	-15648
▁부근의	-15649
▁부대의	-15650
▁부모님	-15651
▁분야의	-15652
▁분쟁에	-15653
▁불과한	-15654
▁불안이	-15655
▁붙였다	-15656
▁비난이	-15657
▁사례를	-15658
▁사업의	-15659
▁사용자	-15660
▁사이를	-15661
▁사임한	-15662
▁사장이	-15663
▁사진과	-15664
▁사형이	-15665
▁상금을	-15666
▁생산이	-15667
▁서둘러	-15668
▁서울을	-15669
▁선관위	-15670
▁선물로	-15671
▁선물을	-15672
▁선수인	-15673
▁설명할	-15674
▁설치한	-15675
▁설치할	-15676
▁성향을	-15677
▁세력에	-15678
▁세력은	-15679
▁소속된	-15680
▁소요될	-15681
▁소유즈	-15682
▁송민순	-15683
▁쇼에서	-15684
▁수년간	-15685
▁수상은	-15686
▁수상자	-15687
▁수술이	-15688
▁수십만	-15689
▁수영을	-15690
▁수위를	-15691
▁수입이	-15692
▁스타인	-15693
▁승객이	-15694
▁시도로	-15695
▁시위자	-15696
▁신문을	-15697
▁신생아	-15698
▁신중한	-15699
▁실험이	-15700
▁아내를	-15701
▁아로요	-15702
▁아마드	-15703
▁안았다	-15704
▁안에는	-15705
▁않았기	-15706
▁알아야	-15707
▁애도를	-15708
▁앤더슨	-15709
▁양상을	-15710
▁어렸을	-15711
▁얻는데	-15712
▁여행할	-15713
▁연계된	-15714
▁영토를	-15715
▁오르고	-15716
▁오사카	-15717
▁올라와	-15718
▁올해로	-15719
▁요금을	-15720
▁요소가	-15721
▁용의가	-15722
▁우연히	-15723
▁운동이	-15724
▁운명을	-15725
▁위기의	-15726
▁위협은	-15727
▁유로에	-15728
▁유조선	-15729
▁유지될	-15730
▁유치를	-15731
▁유태인	-15732
▁의사인	-15733
▁의식이	-15734
▁이목을	-15735
▁이어져	-15736
▁이자율	-15737
▁인물을	-15738
▁일종의	-15739
▁일하던	-15740
▁임신을	-15741
▁있느냐	-15742
▁자국민	-15743
▁자녀가	-15744
▁자치구	-15745
▁재건을	-15746
▁저명한	-15747
▁정권에	-15748
▁정상은	-15749
▁제의를	-15750
▁제재가	-15751
▁제조한	-15752
▁조사해	-15753
▁조약을	-15754
▁조직에	-15755
▁조직원	-15756
▁졸리는	-15757
▁주민은	-15758
▁중질유	-15759
▁지도부	-15760
▁지시한	-15761
▁지었다	-15762
▁지켜본	-15763
▁진영의	-15764
▁징후가	-15765
▁찾아온	-15766
▁철회할	-15767
▁체포한	-15768
▁췌장암	-15769
▁치르게	-15770
▁침팬지	-15771
▁카르자	-15772
▁커플이	-15773
▁콜린스	-15774
▁쿼터백	-15775
▁크메르	-15776
▁터키와	-15777
▁통합을	-15778
▁통화를	-15779
▁퇴진을	-15780
▁파견한	-15781
▁편안한	-15782
▁평양에	-15783
▁폭발한	-15784
▁폭설이	-15785
▁폭우가	-15786
▁피고인	-15787
▁핀란드	-15788
▁하락해	-15789
▁하리리	-15790
▁하토야	-15791
▁학부모	-15792
▁학생을	-15793
▁학위를	-15794
▁해변에	-15795
▁행해진	-15796
▁헌법에	-15797
▁헝가리	-15798
▁협박을	-15799
▁화성의	-15800
▁화제가	-15801
▁화합을	-15802
▁활력을	-15803
▁회복할	-15804
▁흐름을	-15805
▁흡연을	-15806
▁흥미를	-15807
▁흥분한	-15808
관계자는	-15809
니케이션	-15810
받았다고	-15811
법에따라	-15812
아메리카	-15813
연설에서	-15814
적이지만	-15815
쳤습니다	-15816
하기에는	-15817
현장에서	-15818
▁감소하고	-15819
▁감행했다	-15820
▁강화하기	-15821
▁개발하고	-15822
▁건물들이	-15823
▁검문소를	-15824
▁결심했다	-15825
▁결혼했다	-15826
▁경찰서로	-15827
▁고르바초	-15828
▁고발했다	-15829
▁공약으로	-15830
▁과반수를	-15831
▁관리들을	-15832
▁광장에서	-15833
▁국무총리	-15834
▁금요일에	-15835
▁금융감독	-15836
▁급락했다	-15837
▁기다렸다	-15838
▁기대된다	-15839
▁기자들은	-15840
▁기점으로	-15841
▁난민들을	-15842
▁남겨두고	-15843
▁납치했다	-15844
▁넘어섰다	-15845
▁농장에서	-15846
▁니스텔로	-15847
▁달러에서	-15848
▁당선됐다	-15849
▁대변인을	-15850
▁대사관이	-15851
▁독립국가	-15852
▁돌고래가	-15853
▁둘러싸여	-15854
▁득표율로	-15855
▁들어왔다	-15856
▁들었다고	-15857
▁라왈핀디	-15858
▁매들린의	-15859
▁메시지는	-15860
▁모색하고	-15861
▁목격했다	-15862
▁무장조직	-15863
▁문제점을	-15864
▁물리치고	-15865
▁미사일이	-15866
▁미시간주	-15867
▁바탕으로	-15868
▁반대에도	-15869
▁반대하며	-15870
▁발생했을	-15871
▁발표하는	-15872
▁방문한다	-15873
▁방문했을	-15874
▁보석으로	-15875
▁부탁했다	-15876
▁북대서양	-15877
▁불쾌감을	-15878
▁불필요한	-15879
▁사살하고	-15880
▁사직서를	-15881
▁사회에서	-15882
▁상승하고	-15883
▁상임이사	-15884
▁상징으로	-15885
▁생존자가	-15886
▁선정했다	-15887
▁설립했다	-15888
▁성명서를	-15889
▁센터에서	-15890
▁소송에서	-15891
▁수도에서	-15892
▁수치이다	-15893
▁스페인은	-15894
▁시리아는	-15895
▁시작하고	-15896
▁심각하다	-15897
▁아이다호	-15898
▁아프간을	-15899
▁않았었다	-15900
▁어린이가	-15901
▁억달러에	-15902
▁여러분이	-15903
▁영향력이	-15904
▁예상했던	-15905
▁왕세자의	-15906
▁우려했다	-15907
▁우리당은	-15908
▁운전자가	-15909
▁위협적인	-15910
▁유명인사	-15911
▁의구심을	-15912
▁이어갔다	-15913
▁이어지고	-15914
▁이전에도	-15915
▁이틀간의	-15916
▁이혼했다	-15917
▁일상적인	-15918
▁있으므로	-15919
▁자회담은	-15920
▁장례식에	-15921
▁장식했다	-15922
▁종신형을	-15923
▁주둔중인	-15924
▁주에서는	-15925
▁중심부에	-15926
▁지연되고	-15927
▁지질조사	-15928
▁집계됐다	-15929
▁참석하는	-15930
▁참여하고	-15931
▁총리와의	-15932
▁총회에서	-15933
▁촬영했다	-15934
▁최근에는	-15935
▁축하하기	-15936
▁충돌하는	-15937
▁친구들은	-15938
▁크리스틴	-15939
▁터키군이	-15940
▁토론회에	-15941
▁토요일에	-15942
▁투탕카멘	-15943
▁투표권을	-15944
▁트레이드	-15945
▁파예드가	-15946
▁파예드의	-15947
▁파이낸셜	-15948
▁퍼센트를	-15949
▁폴라로이	-15950
▁프랑스로	-15951
▁프랑스를	-15952
▁프로듀서	-15953
▁피해자의	-15954
▁합법적인	-15955
▁항공기를	-15956
▁핵심적인	-15957
▁현장으로	-15958
▁혹등고래	-15959
▁확보하지	-15960
▁환영한다	-15961
▁회복하고	-15962
▁후보였던	-15963
▁휩싸였다	-15964
▁흔들었다	-15965
▁경기장에서	-15966
▁국제적십자	-15967
▁기대한다고	-15968
▁기본적으로	-15969
▁남동쪽으로	-15970
▁단계적으로	-15971
▁대피했다고	-15972
▁동물원에서	-15973
▁동의했다고	-15974
▁리투아니아	-15975
▁무장단체의	-15976
▁무장세력과	-15977
▁발생했다는	-15978
▁발표했었다	-15979
▁법무장관이	-15980
▁변호사들은	-15981
▁불가능하다	-15982
▁불과하다고	-15983
▁사카쉬빌리	-15984
▁상승했다고	-15985
▁새크라멘토	-15986
▁시드니에서	-15987
▁실질적으로	-15988
▁심장마비로	-15989
▁싱가포르의	-15990
▁에어버스는	-15991
▁여성들에게	-15992
▁연합뉴스는	-15993
▁예상됩니다	-15994
▁오토바이를	-15995
▁외국인들이	-15996
▁용의자들은	-15997
▁이곳에서는	-15998
▁이루어지는	-15999
▁제조업체인	-16000
▁중앙일보는	-16001
▁직원들에게	-16002
▁최고경영자	-16003
▁츠방기라이	-16004
▁콜로라도주	-16005
▁평화유지군	-16006
▁피닉스호는	-16007
▁해리포터와	-16008
▁현대자동차	-16009
▁회원국들은	-16010
▁휴대전화를	-16011
▁경제학자들은	-16012
▁고속도로에서	-16013
▁공공장소에서	-16014
▁구조대원들은	-16015
▁국경지역에서	-16016
▁국제축구연맹	-16017
▁남부지역에서	-16018
▁루이지애나주	-16019
▁말레이시아의	-16020
▁매사추세츠주	-16021
▁바르셀로나는	-16022
▁발생했습니다	-16023
▁불가능하다고	-16024
▁소비자들에게	-16025
▁알자와히리는	-16026
▁열린우리당은	-16027
▁우크라이나의	-16028
▁이탈리아에서	-16029
▁주식시장에서	-16030
▁준결승전에서	-16031
▁캘리포니아의	-16032
▁오사마빈라덴의	-16033
▁테러리스트들이	-16034
▁꾀	-16035
▁낚	-16036
▁뉘	-16037
▁룩	-16038
▁릴	-16039
▁뭐	-16040
▁셈	-16041
▁쇄	-16042
▁얇	-16043
▁잎	-16044
▁챌	-16045
▁춘	-16046
▁헥	-16047
▁홉	-16048
▁흠	-16049
가며	-16050
경의	-16051
구와	-16052
군요	-16053
네오	-16054
니예	-16055
닌다	-16056
랭킹	-16057
렀던	-16058
루즈	-16059
리반	-16060
리히	-16061
매우	-16062
박물	-16063
방향	-16064
별한	-16065
본다	-16066
본이	-16067
빨리	-16068
생의	-16069
선박	-16070
세르	-16071
소련	-16072
수아	-16073
시절	-16074
실한	-16075
싸고	-16076
업계	-16077
열로	-16078
왔고	-16079
이에	-16080
이은	-16081
자다	-16082
재는	-16083
저는	-16084
제와	-16085
조는	-16086
주간	-16087
지난	-16088
지던	-16089
차관	-16090
차에	-16091
쳤던	-16092
츠와	-16093
케는	-16094
코드	-16095
코프	-16096
크와	-16097
터맨	-16098
테스	-16099
토가	-16100
퇴근	-16101
투자	-16102
티브	-16103
파리	-16104
편의	-16105
포는	-16106
품의	-16107
프만	-16108
학적	-16109
합을	-16110
행에	-16111
홍보	-16112
화물	-16113
화할	-16114
히드	-16115
▁가계	-16116
▁감동	-16117
▁격렬	-16118
▁겪는	-16119
▁겪을	-16120
▁계급	-16121
▁계승	-16122
▁고전	-16123
▁공주	-16124
▁공헌	-16125
▁과실	-16126
▁관통	-16127
▁구가	-16128
▁권위	-16129
▁권한	-16130
▁귀가	-16131
▁규탄	-16132
▁까다	-16133
▁깨진	-16134
▁꼬리	-16135
▁꾸미	-16136
▁끝이	-16137
▁나고	-16138
▁나미	-16139
▁난투	-16140
▁냉소	-16141
▁넘긴	-16142
▁넣을	-16143
▁농림	-16144
▁눈과	-16145
▁늘고	-16146
▁늦추	-16147
▁다임	-16148
▁담요	-16149
▁당수	-16150
▁당연	-16151
▁당은	-16152
▁당직	-16153
▁대개	-16154
▁대담	-16155
▁대성	-16156
▁도이	-16157
▁돌고	-16158
▁동아	-16159
▁됐을	-16160
▁뒤쳐	-16161
▁드리	-16162
▁듣게	-16163
▁등교	-16164
▁따로	-16165
▁라드	-16166
▁레비	-16167
▁룰라	-16168
▁마신	-16169
▁막바	-16170
▁만드	-16171
▁많을	-16172
▁말씀	-16173
▁매번	-16174
▁뭔가	-16175
▁미식	-16176
▁미켈	-16177
▁바락	-16178
▁발리	-16179
▁방금	-16180
▁백과	-16181
▁변함	-16182
▁복음	-16183
▁부에	-16184
▁분개	-16185
▁불사	-16186
▁블리	-16187
▁비리	-16188
▁비축	-16189
▁빌라	-16190
▁빛이	-16191
▁사료	-16192
▁사립	-16193
▁사장	-16194
▁사하	-16195
▁산시	-16196
▁살레	-16197
▁삼각	-16198
▁상아	-16199
▁상자	-16200
▁생생	-16201
▁생선	-16202
▁샤프	-16203
▁선교	-16204
▁섬유	-16205
▁스머	-16206
▁스태	-16207
▁스탤	-16208
▁슬픈	-16209
▁신기	-16210
▁신병	-16211
▁신흥	-16212
▁실감	-16213
▁쌓여	-16214
▁아델	-16215
▁아타	-16216
▁안건	-16217
▁안된	-16218
▁압승	-16219
▁어드	-16220
▁어쩌	-16221
▁언젠	-16222
▁에메	-16223
▁에반	-16224
▁에볼	-16225
▁엠마	-16226
▁온도	-16227
▁옳은	-16228
▁와코	-16229
▁외설	-16230
▁요트	-16231
▁용이	-16232
▁원로	-16233
▁원심	-16234
▁웰스	-16235
▁유실	-16236
▁유영	-16237
▁유투	-16238
▁의거	-16239
▁이맘	-16240
▁익사	-16241
▁일쯤	-16242
▁입건	-16243
▁입힌	-16244
▁자가	-16245
▁자페	-16246
▁작고	-16247
▁잠들	-16248
▁재가	-16249
▁적어	-16250
▁전락	-16251
▁전술	-16252
▁전후	-16253
▁정계	-16254
▁정복	-16255
▁조롱	-16256
▁주권	-16257
▁주모	-16258
▁죽게	-16259
▁중유	-16260
▁직무	-16261
▁집결	-16262
▁철폐	-16263
▁초당	-16264
▁출현	-16265
▁충청	-16266
▁칸은	-16267
▁캄푸	-16268
▁캐시	-16269
▁타바	-16270
▁탈퇴	-16271
▁퇴직	-16272
▁투수	-16273
▁티나	-16274
▁티켓	-16275
▁파기	-16276
▁파딜	-16277
▁파운	-16278
▁패러	-16279
▁퍼붓	-16280
▁페라	-16281
▁펼치	-16282
▁포털	-16283
▁포토	-16284
▁프랜	-16285
▁하라	-16286
▁하르	-16287
▁하우	-16288
▁한명	-16289
▁한해	-16290
▁합쳐	-16291
▁해주	-16292
▁핵폐	-16293
▁행해	-16294
▁헌터	-16295
▁헬렌	-16296
▁현저	-16297
▁혜택	-16298
▁화를	-16299
▁휘두	-16300
▁흔히	-16301
국이다	-16302
그것은	-16303
기간이	-16304
기관인	-16305
네이루	-16306
느냐는	-16307
는다고	-16308
는다면	-16309
당하고	-16310
레이는	-16311
만큼의	-16312
명하게	-16313
밀하게	-16314
바이잔	-16315
법원의	-16316
베이스	-16317
비용을	-16318
사건은	-16319
상황이	-16320
센터를	-16321
소리가	-16322
시장의	-16323
웨이의	-16324
위츠는	-16325
자라고	-16326
정보를	-16327
정부에	-16328
조차도	-16329
존하는	-16330
주의를	-16331
증으로	-16332
층에서	-16333
티나는	-16334
편으로	-16335
품으로	-16336
할머니	-16337
호에서	-16338
화했다	-16339
▁가격의	-16340
▁가구가	-16341
▁가지의	-16342
▁가혹한	-16343
▁갈수록	-16344
▁같다는	-16345
▁개최될	-16346
▁개최를	-16347
▁거주민	-16348
▁건강검	-16349
▁검문소	-16350
▁검정색	-16351
▁검진을	-16352
▁결승에	-16353
▁경선은	-16354
▁공격수	-16355
▁공급할	-16356
▁공원에	-16357
▁관해서	-16358
▁교육부	-16359
▁구글은	-16360
▁구멍이	-16361
▁구성에	-16362
▁구성원	-16363
▁구소련	-16364
▁국경에	-16365
▁국왕의	-16366
▁권했다	-16367
▁규모에	-16368
▁그들과	-16369
▁그래도	-16370
▁극복할	-16371
▁급성장	-16372
▁기록인	-16373
▁기록할	-16374
▁기사는	-16375
▁기숙사	-16376
▁기술로	-16377
▁기술자	-16378
▁기한을	-16379
▁기회로	-16380
▁나뉘어	-16381
▁나타났	-16382
▁낙태를	-16383
▁내각이	-16384
▁내놓은	-16385
▁내놓을	-16386
▁내용도	-16387
▁냄새가	-16388
▁노력해	-16389
▁노리스	-16390
▁노벨상	-16391
▁노워크	-16392
▁논란의	-16393
▁논의한	-16394
▁높이기	-16395
▁높이는	-16396
▁다리에	-16397
▁다비덴	-16398
▁다비드	-16399
▁달러는	-16400
▁대만이	-16401
▁대체로	-16402
▁대피한	-16403
▁도덕적	-16404
▁도로는	-16405
▁도왔다	-16406
▁도움의	-16407
▁도쿄의	-16408
▁독특한	-16409
▁됐지만	-16410
▁되도록	-16411
▁득점을	-16412
▁라덴의	-16413
▁레이크	-16414
▁리스트	-16415
▁마닐라	-16416
▁막강한	-16417
▁만나게	-16418
▁만화를	-16419
▁매달려	-16420
▁매몰된	-16421
▁매춘부	-16422
▁메달을	-16423
▁모레스	-16424
▁모색할	-16425
▁모습은	-16426
▁모자를	-16427
▁목표에	-16428
▁몸집이	-16429
▁무거운	-16430
▁무기징	-16431
▁무력을	-16432
▁무릎을	-16433
▁물의를	-16434
▁미확인	-16435
▁밀러는	-16436
▁바다위	-16437
▁바이든	-16438
▁박사와	-16439
▁받았을	-16440
▁방안에	-16441
▁벌이며	-16442
▁변하지	-16443
▁보수당	-16444
▁보수파	-16445
▁볼드윈	-16446
▁볼티모	-16447
▁부담이	-16448
▁부대는	-16449
▁부문에	-16450
▁부위에	-16451
▁부장은	-16452
▁부채를	-16453
▁불안을	-16454
▁불쾌한	-16455
▁불편을	-16456
▁붕괴로	-16457
▁비스타	-16458
▁비정상	-16459
▁사람에	-16460
▁사로잡	-16461
▁사업가	-16462
▁사원은	-16463
▁사회가	-16464
▁사회를	-16465
▁산불을	-16466
▁살인과	-16467
▁상승은	-16468
▁상승이	-16469
▁샌안토	-16470
▁서울과	-16471
▁서유럽	-16472
▁서한을	-16473
▁석유와	-16474
▁설립된	-16475
▁섬에서	-16476
▁성장률	-16477
▁세력과	-16478
▁세우는	-16479
▁셰퍼드	-16480
▁소송에	-16481
▁속도가	-16482
▁수감돼	-16483
▁수단이	-16484
▁수에서	-16485
▁순간을	-16486
▁스탠리	-16487
▁시간당	-16488
▁시드르	-16489
▁시민권	-16490
▁시위의	-16491
▁신선한	-16492
▁실업률	-16493
▁심의를	-16494
▁싶다면	-16495
▁쏟아져	-16496
▁아래로	-16497
▁아스카	-16498
▁악화된	-16499
▁알라위	-16500
▁알라헴	-16501
▁알바로	-16502
▁앗아간	-16503
▁앞서서	-16504
▁애슐리	-16505
▁억원을	-16506
▁언론인	-16507
▁엄마와	-16508
▁업무에	-16509
▁없이는	-16510
▁엘리엇	-16511
▁여개의	-16512
▁여기서	-16513
▁여기저	-16514
▁여론이	-16515
▁여사를	-16516
▁연기에	-16517
▁영원히	-16518
▁옆에서	-16519
▁오전에	-16520
▁올랐고	-16521
▁완승을	-16522
▁요청에	-16523
▁요청이	-16524
▁우세를	-16525
▁운동에	-16526
▁원인에	-16527
▁원칙을	-16528
▁위협할	-16529
▁윈프리	-16530
▁윌슨은	-16531
▁유가는	-16532
▁유대교	-16533
▁유발할	-16534
▁유용한	-16535
▁은퇴를	-16536
▁의도가	-16537
▁의무가	-16538
▁의미로	-16539
▁이건희	-16540
▁이상인	-16541
▁이외의	-16542
▁이익이	-16543
▁이해를	-16544
▁인간이	-16545
▁인력을	-16546
▁인류가	-16547
▁인수는	-16548
▁일부다	-16549
▁일했던	-16550
▁입장은	-16551
▁자유가	-16552
▁자체가	-16553
▁자체를	-16554
▁작곡가	-16555
▁작년에	-16556
▁잡스는	-16557
▁장착한	-16558
▁재처리	-16559
▁적절히	-16560
▁전국에	-16561
▁전쟁은	-16562
▁정착촌	-16563
▁정찰위	-16564
▁제네바	-16565
▁제안은	-16566
▁제조에	-16567
▁조그만	-16568
▁조명을	-16569
▁조세프	-16570
▁조속히	-16571
▁조용한	-16572
▁존경을	-16573
▁존스의	-16574
▁좋겠다	-16575
▁좋다고	-16576
▁주미대	-16577
▁주인을	-16578
▁주최한	-16579
▁죽음과	-16580
▁죽음의	-16581
▁증가를	-16582
▁지구와	-16583
▁지나간	-16584
▁지목한	-16585
▁직원인	-16586
▁진출을	-16587
▁차세대	-16588
▁처분을	-16589
▁처해질	-16590
▁체중을	-16591
▁추방된	-16592
▁축출된	-16593
▁출퇴근	-16594
▁충돌해	-16595
▁측근인	-16596
▁친구의	-16597
▁카드를	-16598
▁카타르	-16599
▁키스를	-16600
▁태양계	-16601
▁통과된	-16602
▁통치를	-16603
▁특징을	-16604
▁판매될	-16605
▁패트로	-16606
▁패했다	-16607
▁팬들을	-16608
▁포기한	-16609
▁포즈를	-16610
▁폭발을	-16611
▁표현을	-16612
▁풍선을	-16613
▁피살된	-16614
▁피해로	-16615
▁하루가	-16616
▁하루를	-16617
▁학교가	-16618
▁학생은	-16619
▁항공모	-16620
▁헌법이	-16621
▁헬만드	-16622
▁호주에	-16623
▁화산은	-16624
▁확보한	-16625
▁확인을	-16626
▁환영의	-16627
▁환율은	-16628
▁회장인	-16629
▁흔적이	-16630
▁힘들어	-16631
드립니다	-16632
스테이션	-16633
시켰으며	-16634
위원회를	-16635
있었다고	-16636
자카르타	-16637
주에서는	-16638
중앙은행	-16639
▁가르시아	-16640
▁강조하며	-16641
▁거부하는	-16642
▁것인지를	-16643
▁결정하는	-16644
▁경매에서	-16645
▁경우에는	-16646
▁고마움을	-16647
▁공상과학	-16648
▁과테말라	-16649
▁관계자들	-16650
▁국가들에	-16651
▁그리고는	-16652
▁극장에서	-16653
▁근본적인	-16654
▁글로리아	-16655
▁금융위기	-16656
▁기록으로	-16657
▁나라에서	-16658
▁나미비아	-16659
▁남북한은	-16660
▁남성에게	-16661
▁남자들이	-16662
▁내부에서	-16663
▁노동조합	-16664
▁노력하는	-16665
▁단계에서	-16666
▁당선자의	-16667
▁대표적인	-16668
▁도와주는	-16669
▁도요타는	-16670
▁동료들은	-16671
▁들어가기	-16672
▁등장했다	-16673
▁떠났다고	-16674
▁로마에서	-16675
▁리우데자	-16676
▁마련하고	-16677
▁만족한다	-16678
▁머레이는	-16679
▁목소리가	-16680
▁무자비한	-16681
▁무하마드	-16682
▁문제들에	-16683
▁물러났다	-16684
▁미군측은	-16685
▁미주리주	-16686
▁민병대가	-16687
▁민주노동	-16688
▁박물관에	-16689
▁발사했다	-16690
▁방송과의	-16691
▁벌였지만	-16692
▁보도자료	-16693
▁보장하는	-16694
▁부양책을	-16695
▁불매운동	-16696
▁블레이크	-16697
▁비서실장	-16698
▁사드르는	-16699
▁사람이다	-16700
▁사령관과	-16701
▁사용된다	-16702
▁사용하여	-16703
▁사이언톨	-16704
▁상황으로	-16705
▁생물학적	-16706
▁생존자를	-16707
▁석유수출	-16708
▁세계경제	-16709
▁소비에트	-16710
▁소식으로	-16711
▁소요사태	-16712
▁손해배상	-16713
▁스타디움	-16714
▁스필버그	-16715
▁시작된다	-16716
▁신중하게	-16717
▁실시하고	-16718
▁아스날은	-16719
▁애틀랜틱	-16720
▁어렵다고	-16721
▁어머니를	-16722
▁엑스파일	-16723
▁연구진이	-16724
▁영업이익	-16725
▁영화제작	-16726
▁영화화한	-16727
▁오마르는	-16728
▁올라가는	-16729
▁올림픽이	-16730
▁외교적인	-16731
▁유권자가	-16732
▁유튜브에	-16733
▁은행들이	-16734
▁이란과의	-16735
▁이르렀다	-16736
▁인사들이	-16737
▁인신매매	-16738
▁일으키고	-16739
▁자동차의	-16740
▁자랑하는	-16741
▁적대적인	-16742
▁전달하고	-16743
▁전세계로	-16744
▁정부군의	-16745
▁정부와의	-16746
▁정책으로	-16747
▁주시하고	-16748
▁주인공이	-16749
▁중소기업	-16750
▁지나가는	-16751
▁지도부가	-16752
▁지역에는	-16753
▁진심으로	-16754
▁차량으로	-16755
▁차량폭탄	-16756
▁처음부터	-16757
▁총리직을	-16758
▁축구스타	-16759
▁축하했다	-16760
▁출전했다	-16761
▁측면에서	-16762
▁치료하는	-16763
▁카메라에	-16764
▁컨퍼런스	-16765
▁코소보는	-16766
▁크루즈는	-16767
▁테일러는	-16768
▁통제하고	-16769
▁투표율은	-16770
▁티크리트	-16771
▁포함하는	-16772
▁하겠다는	-16773
▁합류했다	-16774
▁홀랜드는	-16775
▁화성탐사	-16776
▁확정됐다	-16777
▁환경에서	-16778
▁활주로를	-16779
▁회복세를	-16780
▁회전에서	-16781
서에따르면	-16782
우주연상을	-16783
제르바이잔	-16784
폭탄테러로	-16785
▁것이었다고	-16786
▁결선투표를	-16787
▁고객들에게	-16788
▁국무장관과	-16789
▁나왔습니다	-16790
▁남동부에서	-16791
▁네덜란드의	-16792
▁다우지수가	-16793
▁다이애나와	-16794
▁다이애나의	-16795
▁레바논에서	-16796
▁만들었다고	-16797
▁무장단체에	-16798
▁무장세력은	-16799
▁바이러스의	-16800
▁발사했다고	-16801
▁법무장관은	-16802
▁보좌관들은	-16803
▁본격적으로	-16804
▁불러일으키	-16805
▁블록버스터	-16806
▁사용자들이	-16807
▁성공했다고	-16808
▁소탕작전을	-16809
▁수사관들이	-16810
▁아르메니아	-16811
▁알카에다에	-16812
▁여론조사에	-16813
▁왕세자비가	-16814
▁운동가들은	-16815
▁월드컵에서	-16816
▁유권자들을	-16817
▁이집트에서	-16818
▁인정했다고	-16819
▁인플루엔자	-16820
▁입원했다고	-16821
▁정치인들이	-16822
▁주장했으며	-16823
▁중단했다고	-16824
▁즉각적으로	-16825
▁지도자들의	-16826
▁지지자들의	-16827
▁집중적으로	-16828
▁탈레반측은	-16829
▁파바로티의	-16830
▁플로리다와	-16831
▁해산시키기	-16832
▁헤즈볼라의	-16833
▁회원국들이	-16834
▁후지모리는	-16835
▁휴대폰으로	-16836
기자회견에서	-16837
위원회에서는	-16838
▁덧붙였습니다	-16839
▁와인하우스의	-16840
▁이스라엘군의	-16841
▁이스라엘군이	-16842
▁팔레스타인인	-16843
▁들어보겠습니다	-16844
▁리우데자네이루	-16845
▁국제올림픽위원회	-16846
▁꽂	-16847
▁꽉	-16848
▁벵	-16849
▁샴	-16850
▁쏴	-16851
▁엽	-16852
▁찌	-16853
▁팻	-16854
가락	-16855
가루	-16856
건물	-16857
게임	-16858
구호	-16859
그가	-16860
나요	-16861
냈고	-16862
농구	-16863
농축	-16864
단인	-16865
담보	-16866
대비	-16867
대상	-16868
도저	-16869
뒀다	-16870
든은	-16871
란한	-16872
랄드	-16873
로즈	-16874
론에	-16875
롭지	-16876
르노	-16877
리안	-16878
리크	-16879
린첨	-16880
마초	-16881
만히	-16882
메시	-16883
모든	-16884
모로	-16885
반은	-16886
받기	-16887
방지	-16888
범의	-16889
벨트	-16890
보관	-16891
부시	-16892
분은	-16893
사우	-16894
사찰	-16895
사키	-16896
살을	-16897
샤의	-16898
서비	-16899
서와	-16900
석현	-16901
설에	-16902
섬에	-16903
성근	-16904
소리	-16905
수지	-16906
슬링	-16907
시기	-16908
시위	-16909
식간	-16910
압을	-16911
어서	-16912
에어	-16913
열한	-16914
오를	-16915
와디	-16916
용에	-16917
용은	-16918
위생	-16919
을때	-16920
인가	-16921
인들	-16922
점인	-16923
제조	-16924
천히	-16925
청에	-16926
총을	-16927
충돌	-16928
층에	-16929
치다	-16930
쿠스	-16931
킨은	-16932
킹엄	-16933
턴의	-16934
특별	-16935
파테	-16936
포터	-16937
폭발	-16938
폭풍	-16939
표는	-16940
품은	-16941
플로	-16942
합의	-16943
해보	-16944
형이	-16945
회장	-16946
▁',	-16947
▁가비	-16948
▁가파	-16949
▁간단	-16950
▁강대	-16951
▁강탈	-16952
▁개도	-16953
▁거칠	-16954
▁견디	-16955
▁결성	-16956
▁계단	-16957
▁고령	-16958
▁고릴	-16959
▁궤도	-16960
▁그간	-16961
▁그릇	-16962
▁근접	-16963
▁금주	-16964
▁기동	-16965
▁깨닫	-16966
▁꺼내	-16967
▁꿀벌	-16968
▁나도	-16969
▁나비	-16970
▁네브	-16971
▁년여	-16972
▁노골	-16973
▁노웍	-16974
▁농경	-16975
▁놓인	-16976
▁누출	-16977
▁다름	-16978
▁달이	-16979
▁대미	-16980
▁덮여	-16981
▁동정	-16982
▁되자	-16983
▁뒤진	-16984
▁뒷좌	-16985
▁들려	-16986
▁등산	-16987
▁따르	-16988
▁딸은	-16989
▁떼어	-16990
▁리바	-16991
▁마쓰	-16992
▁만톤	-16993
▁맛을	-16994
▁메카	-16995
▁명단	-16996
▁명시	-16997
▁명중	-16998
▁모방	-16999
▁모친	-17000
▁목걸	-17001
▁목사	-17002
▁무더	-17003
▁미라	-17004
▁미뤄	-17005
▁미안	-17006
▁미용	-17007
▁밀고	-17008
▁밀수	-17009
▁바꾼	-17010
▁바뀔	-17011
▁바예	-17012
▁바클	-17013
▁버드	-17014
▁번복	-17015
▁범인	-17016
▁봉투	-17017
▁부녀	-17018
▁북해	-17019
▁불상	-17020
▁비관	-17021
▁빚을	-17022
▁뼈가	-17023
▁사교	-17024
▁사안	-17025
▁사체	-17026
▁샀다	-17027
▁상여	-17028
▁상표	-17029
▁상향	-17030
▁생애	-17031
▁설교	-17032
▁성도	-17033
▁소모	-17034
▁속도	-17035
▁수소	-17036
▁수에	-17037
▁수확	-17038
▁슈렉	-17039
▁슬림	-17040
▁시립	-17041
▁식별	-17042
▁식사	-17043
▁신부	-17044
▁신비	-17045
▁심화	-17046
▁싸워	-17047
▁쓰인	-17048
▁아쉬	-17049
▁아인	-17050
▁아키	-17051
▁알츠	-17052
▁압델	-17053
▁앞섰	-17054
▁야만	-17055
▁양빈	-17056
▁양을	-17057
▁양호	-17058
▁어둠	-17059
▁어른	-17060
▁없었	-17061
▁엑손	-17062
▁여아	-17063
▁영예	-17064
▁영유	-17065
▁영주	-17066
▁예고	-17067
▁예의	-17068
▁오델	-17069
▁오웬	-17070
▁오찬	-17071
▁옮길	-17072
▁울타	-17073
▁원형	-17074
▁월급	-17075
▁월마	-17076
▁윈터	-17077
▁윌슨	-17078
▁응용	-17079
▁의대	-17080
▁의상	-17081
▁이고	-17082
▁이글	-17083
▁이디	-17084
▁이때	-17085
▁이태	-17086
▁잃는	-17087
▁잃어	-17088
▁자말	-17089
▁잠입	-17090
▁적법	-17091
▁적의	-17092
▁전두	-17093
▁전신	-17094
▁전차	-17095
▁전한	-17096
▁접어	-17097
▁정직	-17098
▁제노	-17099
▁제방	-17100
▁조는	-17101
▁조니	-17102
▁조업	-17103
▁존엄	-17104
▁종전	-17105
▁주시	-17106
▁주행	-17107
▁중고	-17108
▁짐을	-17109
▁집값	-17110
▁짧게	-17111
▁채굴	-17112
▁채를	-17113
▁책은	-17114
▁책이	-17115
▁척의	-17116
▁체육	-17117
▁총장	-17118
▁추억	-17119
▁추후	-17120
▁출근	-17121
▁출몰	-17122
▁츠요	-17123
▁치아	-17124
▁카밀	-17125
▁카사	-17126
▁컨설	-17127
▁컸다	-17128
▁켄트	-17129
▁코란	-17130
▁코치	-17131
▁콜드	-17132
▁타당	-17133
▁테디	-17134
▁텐트	-17135
▁퇴근	-17136
▁트랙	-17137
▁특혜	-17138
▁파일	-17139
▁파푸	-17140
▁팬이	-17141
▁페레	-17142
▁표로	-17143
▁표본	-17144
▁푸른	-17145
▁필사	-17146
▁핑크	-17147
▁한일	-17148
▁해온	-17149
▁호가	-17150
▁호우	-17151
▁확립	-17152
▁훔친	-17153
▁휘트	-17154
▁휠체	-17155
▁흉내	-17156
▁흑색	-17157
▁흔한	-17158
가격이	-17159
거리를	-17160
결과를	-17161
과정을	-17162
관에게	-17163
국가의	-17164
기관은	-17165
노동자	-17166
당하는	-17167
라리온	-17168
라이너	-17169
레이터	-17170
룸푸르	-17171
르기스	-17172
릅니다	-17173
문에는	-17174
미국은	-17175
민주당	-17176
발적인	-17177
벌리힐	-17178
사들을	-17179
선수로	-17180
소했다	-17181
속에서	-17182
수에서	-17183
스버그	-17184
위원은	-17185
이슬람	-17186
자료를	-17187
제도를	-17188
지역과	-17189
집니다	-17190
차관은	-17191
팀장은	-17192
포스트	-17193
품들을	-17194
하게도	-17195
한다며	-17196
협상을	-17197
활동에	-17198
▁가정을	-17199
▁강원도	-17200
▁갖췄다	-17201
▁개월의	-17202
▁검색을	-17203
▁것이나	-17204
▁게이머	-17205
▁경비대	-17206
▁경선의	-17207
▁경우도	-17208
▁계기로	-17209
▁계약에	-17210
▁고안된	-17211
▁고용한	-17212
▁골드만	-17213
▁공세를	-17214
▁과정이	-17215
▁관리인	-17216
▁광경을	-17217
▁교수와	-17218
▁교통이	-17219
▁군대에	-17220
▁귀중한	-17221
▁그려진	-17222
▁그만두	-17223
▁극도로	-17224
▁근거가	-17225
▁금지를	-17226
▁기구는	-17227
▁기대에	-17228
▁기록이	-17229
▁기록해	-17230
▁기쁨을	-17231
▁기여한	-17232
▁기차를	-17233
▁끝나기	-17234
▁나라에	-17235
▁나스랄	-17236
▁나아가	-17237
▁나이키	-17238
▁날짜는	-17239
▁납치와	-17240
▁내각은	-17241
▁년보다	-17242
▁노출된	-17243
▁놀랐다	-17244
▁뇌졸중	-17245
▁뉴스에	-17246
▁느낌을	-17247
▁닌텐도	-17248
▁다르지	-17249
▁다시는	-17250
▁다음에	-17251
▁다이앤	-17252
▁달라는	-17253
▁달렸다	-17254
▁대검찰	-17255
▁대국민	-17256
▁대사의	-17257
▁대선의	-17258
▁대처할	-17259
▁대표로	-17260
▁대표를	-17261
▁독립한	-17262
▁돌렸다	-17263
▁동등한	-17264
▁동부의	-17265
▁되기를	-17266
▁듀프레	-17267
▁등이다	-17268
▁떠나는	-17269
▁뛰어넘	-17270
▁레빈슨	-17271
▁레이드	-17272
▁로봇은	-17273
▁루니가	-17274
▁마리는	-17275
▁만원을	-17276
▁만화가	-17277
▁말라는	-17278
▁말했고	-17279
▁망원경	-17280
▁맞교환	-17281
▁머무는	-17282
▁메이도	-17283
▁모델이	-17284
▁모두의	-17285
▁모으고	-17286
▁모토로	-17287
▁무기로	-17288
▁무조건	-17289
▁문서는	-17290
▁물에서	-17291
▁바꾸기	-17292
▁바람을	-17293
▁바랐다	-17294
▁바지를	-17295
▁반테러	-17296
▁받도록	-17297
▁발간한	-17298
▁배치할	-17299
▁배후로	-17300
▁백과사	-17301
▁버클리	-17302
▁버킹엄	-17303
▁번째다	-17304
▁베컴의	-17305
▁병력의	-17306
▁병사를	-17307
▁보고에	-17308
▁보안이	-17309
▁보트를	-17310
▁부끄러	-17311
▁부르고	-17312
▁부모와	-17313
▁부문의	-17314
▁부족해	-17315
▁부주의	-17316
▁분노한	-17317
▁불안해	-17318
▁블랙홀	-17319
▁비자면	-17320
▁비행이	-17321
▁빅토르	-17322
▁사과의	-17323
▁사냥을	-17324
▁사라져	-17325
▁사랑과	-17326
▁사례는	-17327
▁사마라	-17328
▁사실도	-17329
▁사업이	-17330
▁사원에	-17331
▁사원의	-17332
▁사이먼	-17333
▁사진에	-17334
▁사회당	-17335
▁산티아	-17336
▁살리기	-17337
▁상승에	-17338
▁상업적	-17339
▁생명에	-17340
▁서로의	-17341
▁서방의	-17342
▁선거인	-17343
▁선보일	-17344
▁선정한	-17345
▁성공회	-17346
▁성장할	-17347
▁세기에	-17348
▁소동을	-17349
▁소방차	-17350
▁수단의	-17351
▁수천만	-17352
▁순식간	-17353
▁숫자는	-17354
▁시기상	-17355
▁시대가	-17356
▁시도가	-17357
▁시설의	-17358
▁시행할	-17359
▁신고한	-17360
▁신뢰할	-17361
▁신문사	-17362
▁신부가	-17363
▁신체적	-17364
▁실패로	-17365
▁심리가	-17366
▁싶었다	-17367
▁쓰러진	-17368
▁아침식	-17369
▁안보에	-17370
▁안전이	-17371
▁안정된	-17372
▁압력에	-17373
▁압력이	-17374
▁양육권	-17375
▁어쩌면	-17376
▁없어질	-17377
▁없으나	-17378
▁에드로	-17379
▁여기고	-17380
▁역할이	-17381
▁열차를	-17382
▁영업을	-17383
▁영향에	-17384
▁영향이	-17385
▁영화와	-17386
▁오르지	-17387
▁오마바	-17388
▁오퍼튜	-17389
▁오픈을	-17390
▁올라갈	-17391
▁옮기는	-17392
▁와일드	-17393
▁외국계	-17394
▁요소를	-17395
▁용도로	-17396
▁우주인	-17397
▁원자재	-17398
▁월가의	-17399
▁위성이	-17400
▁위원은	-17401
▁위원장	-17402
▁유니세	-17403
▁유세에	-17404
▁유죄가	-17405
▁이론을	-17406
▁이해찬	-17407
▁이후의	-17408
▁인수제	-17409
▁인정될	-17410
▁인종적	-17411
▁일동안	-17412
▁일부에	-17413
▁임금을	-17414
▁입후보	-17415
▁있다가	-17416
▁자극을	-17417
▁자유당	-17418
▁자행한	-17419
▁작품에	-17420
▁잔해를	-17421
▁잡지에	-17422
▁재개를	-17423
▁잭슨이	-17424
▁적었다	-17425
▁적용할	-17426
▁전장에	-17427
▁전하는	-17428
▁전해진	-17429
▁절차가	-17430
▁점령한	-17431
▁접근이	-17432
▁정신을	-17433
▁정치국	-17434
▁정해진	-17435
▁제기된	-17436
▁제안할	-17437
▁제작자	-17438
▁제출된	-17439
▁제퍼슨	-17440
▁제품은	-17441
▁조선일	-17442
▁조속한	-17443
▁조치도	-17444
▁종업원	-17445
▁주기로	-17446
▁주둔해	-17447
▁주위에	-17448
▁주인은	-17449
▁주제가	-17450
▁주최측	-17451
▁주택이	-17452
▁죽었다	-17453
▁즐거운	-17454
▁증거도	-17455
▁증세가	-17456
▁증세를	-17457
▁증시도	-17458
▁지금껏	-17459
▁지금도	-17460
▁지냈던	-17461
▁지도를	-17462
▁지목된	-17463
▁지원과	-17464
▁지출이	-17465
▁지켜야	-17466
▁직원을	-17467
▁직전에	-17468
▁진영은	-17469
▁진입할	-17470
▁진행자	-17471
▁질렀다	-17472
▁차에서	-17473
▁차이는	-17474
▁참혹한	-17475
▁찾는데	-17476
▁찾아내	-17477
▁채취한	-17478
▁처음엔	-17479
▁처했다	-17480
▁천문학	-17481
▁천수이	-17482
▁천천히	-17483
▁청문회	-17484
▁초기에	-17485
▁총력을	-17486
▁총알이	-17487
▁치매에	-17488
▁치명적	-17489
▁침대에	-17490
▁침체가	-17491
▁케이프	-17492
▁탄압을	-17493
▁탐사선	-17494
▁투어를	-17495
▁투자할	-17496
▁파비오	-17497
▁파티에	-17498
▁판매한	-17499
▁페드로	-17500
▁평양을	-17501
▁폐허가	-17502
▁폭발의	-17503
▁폭풍의	-17504
▁표현의	-17505
▁표현할	-17506
▁풀려난	-17507
▁프란체	-17508
▁피그미	-17509
▁피트의	-17510
▁하니야	-17511
▁하라고	-17512
▁학살을	-17513
▁학생의	-17514
▁할로윈	-17515
▁항생제	-17516
▁해변을	-17517
▁했는지	-17518
▁행복을	-17519
▁행성은	-17520
▁협약을	-17521
▁호텔은	-17522
▁홈런을	-17523
▁홍석현	-17524
▁화염에	-17525
▁회원이	-17526
▁회장을	-17527
▁후에는	-17528
▁흑인이	-17529
▁희생된	-17530
▁희생을	-17531
▁힘들게	-17532
공격으로	-17533
됐는지는	-17534
요원들이	-17535
적이라는	-17536
하더라도	-17537
회사들이	-17538
▁가격으로	-17539
▁간주하고	-17540
▁강제진압	-17541
▁강진으로	-17542
▁개발했다	-17543
▁개정안을	-17544
▁개정안이	-17545
▁건강보험	-17546
▁결정으로	-17547
▁결혼식에	-17548
▁경찰들은	-17549
▁경찰서의	-17550
▁계획으로	-17551
▁고등학생	-17552
▁공화당이	-17553
▁관리하고	-17554
▁구속됐다	-17555
▁국가들을	-17556
▁국가안전	-17557
▁국경에서	-17558
▁국제영화	-17559
▁그레이스	-17560
▁기술적인	-17561
▁기울여야	-17562
▁기울이지	-17563
▁날카로운	-17564
▁남태평양	-17565
▁남학생이	-17566
▁노동당의	-17567
▁놀라움을	-17568
▁놓여있다	-17569
▁누구인지	-17570
▁대법원의	-17571
▁대사관을	-17572
▁대의원이	-17573
▁대주교는	-17574
▁대표팀에	-17575
▁대학교의	-17576
▁돌아가고	-17577
▁돌아다니	-17578
▁동아시아	-17579
▁두려움을	-17580
▁들어주지	-17581
▁레이스는	-17582
▁론스타의	-17583
▁리버풀의	-17584
▁만여명의	-17585
▁맞이했다	-17586
▁목록에서	-17587
▁민병대의	-17588
▁바예스테	-17589
▁바이에른	-17590
▁반짝이는	-17591
▁발견하고	-17592
▁발렌시아	-17593
▁발사됐다	-17594
▁베이징의	-17595
▁변호사의	-17596
▁보상금을	-17597
▁보안군과	-17598
▁보안군이	-17599
▁볼리비아	-17600
▁부드러운	-17601
▁부모들은	-17602
▁부정부패	-17603
▁부족하다	-17604
▁부회장은	-17605
▁비디오는	-17606
▁비행기로	-17607
▁사진으로	-17608
▁사찰단의	-17609
▁상징하는	-17610
▁상태이며	-17611
▁생활하고	-17612
▁서식하고	-17613
▁석방하지	-17614
▁선포하고	-17615
▁설치하고	-17616
▁세계식량	-17617
▁소탕하기	-17618
▁수니파와	-17619
▁슈퍼마켓	-17620
▁스페인과	-17621
▁승리하기	-17622
▁시작되기	-17623
▁시작하자	-17624
▁시작한다	-17625
▁시카고의	-17626
▁심장마비	-17627
▁쓰레기를	-17628
▁아마디는	-17629
▁아시아와	-17630
▁않았다며	-17631
▁알라스카	-17632
▁알메이다	-17633
▁압박했다	-17634
▁어린이와	-17635
▁언론들은	-17636
▁여성들과	-17637
▁여학생이	-17638
▁역전승을	-17639
▁영국군은	-17640
▁영국항공	-17641
▁온난화로	-17642
▁온난화에	-17643
▁온난화의	-17644
▁올라왔다	-17645
▁완벽하게	-17646
▁왜냐하면	-17647
▁외교관은	-17648
▁운영되고	-17649
▁위원회를	-17650
▁은행에서	-17651
▁이동하는	-17652
▁이례적인	-17653
▁이해하고	-17654
▁이해하는	-17655
▁인사들과	-17656
▁인정해야	-17657
▁잃었으며	-17658
▁잉그리드	-17659
▁자국에서	-17660
▁자신만의	-17661
▁자유롭고	-17662
▁잔해에서	-17663
▁잠재적인	-17664
▁정부기관	-17665
▁제거하는	-17666
▁존재하지	-17667
▁주말까지	-17668
▁주민들과	-17669
▁주지사에	-17670
▁준이치로	-17671
▁중단해야	-17672
▁중순까지	-17673
▁중요하게	-17674
▁지방선거	-17675
▁지배하고	-17676
▁지적하며	-17677
▁지켜봤다	-17678
▁짝짓기를	-17679
▁참가하지	-17680
▁챔피언인	-17681
▁카메라가	-17682
▁카스파로	-17683
▁탑승했던	-17684
▁터키군의	-17685
▁통과했다	-17686
▁통제하는	-17687
▁트레일러	-17688
▁판사들을	-17689
▁퍼센트로	-17690
▁페이지를	-17691
▁포인트로	-17692
▁프라이스	-17693
▁프랑수아	-17694
▁프랑스에	-17695
▁프랑스인	-17696
▁항의하기	-17697
▁해결하고	-17698
▁해역에서	-17699
▁허가했다	-17700
▁허용했다	-17701
▁홍보담당	-17702
▁화장실을	-17703
▁확산되는	-17704
▁환호하는	-17705
▁후세인이	-17706
▁흥미로운	-17707
▁경찰국장은	-17708
▁국민투표를	-17709
▁국제사회는	-17710
▁근로자들이	-17711
▁기술자들은	-17712
▁네트워크를	-17713
▁노동자들을	-17714
▁대통령직을	-17715
▁동영상에는	-17716
▁들어갔다고	-17717
▁떨어지면서	-17718
▁리트비넨코	-17719
▁마드리드가	-17720
▁마드리드의	-17721
▁받아들이고	-17722
▁발표했으며	-17723
▁베어스턴스	-17724
▁변호사들이	-17725
▁보도되었다	-17726
▁부대변인은	-17727
▁부족하다는	-17728
▁불법적으로	-17729
▁사람이라고	-17730
▁상승했으며	-17731
▁선택했다고	-17732
▁시에라리온	-17733
▁시작하면서	-17734
▁신행정수도	-17735
▁신화통신이	-17736
▁아카데미상	-17737
▁엔터프라이	-17738
▁원내대표는	-17739
▁이라크군은	-17740
▁이르렀다고	-17741
▁인권단체는	-17742
▁인명피해가	-17743
▁입원했으며	-17744
▁전달했다고	-17745
▁제재조치를	-17746
▁줄기세포를	-17747
▁중단시켰다	-17748
▁중단하라고	-17749
▁착수했다고	-17750
▁창기라이는	-17751
▁파괴됐다고	-17752
▁파손됐다고	-17753
▁페르난데스	-17754
▁폭력사태는	-17755
▁폭력사태에	-17756
▁폭발했다고	-17757
▁하락했으며	-17758
▁하원의원은	-17759
▁헌법재판소	-17760
▁호나우두는	-17761
▁대통령직에서	-17762
▁로드아일랜드	-17763
▁민주변화운동	-17764
▁베이징올림픽	-17765
▁아제르바이잔	-17766
▁아프리카연합	-17767
▁엔터테인먼트	-17768
▁오스트리아의	-17769
▁와인하우스는	-17770
▁우크라이나가	-17771
▁음주운전으로	-17772
▁자카르타에서	-17773
▁지도자들에게	-17774
▁커뮤니케이션	-17775
▁팔레스타인이	-17776
▁평화유지군이	-17777
▁프로그램에서	-17778
▁아프가니스탄을	-17779
▁펜실베이니아주	-17780
▁플레이스테이션	-17781
▁샌프란시스코에서	-17782
▁깎	-17783
▁끄	-17784
▁넷	-17785
▁늑	-17786
▁댕	-17787
▁샹	-17788
▁셋	-17789
▁율	-17790
▁젤	-17791
▁쿨	-17792
▁턴	-17793
개에	-17794
객이	-17795
결한	-17796
고에	-17797
공업	-17798
공학	-17799
교섭	-17800
군사	-17801
금과	-17802
금에	-17803
기준	-17804
끼리	-17805
난민	-17806
났고	-17807
뉴얼	-17808
다리	-17809
듯한	-17810
래이	-17811
러코	-17812
루프	-17813
르를	-17814
르모	-17815
르베	-17816
리서	-17817
마뱀	-17818
모의	-17819
무가	-17820
미늄	-17821
민이	-17822
버러	-17823
버려	-17824
번호	-17825
병대	-17826
분석	-17827
브러	-17828
브르	-17829
비싼	-17830
사르	-17831
샤와	-17832
석유	-17833
섬은	-17834
성향	-17835
세의	-17836
수르	-17837
시민	-17838
시앙	-17839
심에	-17840
안문	-17841
앤드	-17842
야르	-17843
야에	-17844
역이	-17845
염을	-17846
예비	-17847
예산	-17848
외선	-17849
워진	-17850
워키	-17851
인간	-17852
인척	-17853
일간	-17854
임은	-17855
자브	-17856
작인	-17857
잡한	-17858
재난	-17859
정치	-17860
종양	-17861
종은	-17862
종인	-17863
중생	-17864
진영	-17865
진한	-17866
채가	-17867
처가	-17868
첸코	-17869
치니	-17870
치아	-17871
치오	-17872
칭을	-17873
카와	-17874
크에	-17875
타곤	-17876
타그	-17877
타닉	-17878
태영	-17879
토바	-17880
티니	-17881
파는	-17882
파를	-17883
판무	-17884
펜하	-17885
평한	-17886
폭스	-17887
폭을	-17888
피는	-17889
하트	-17890
해와	-17891
행사	-17892
현재	-17893
홀름	-17894
▁개제	-17895
▁거물	-17896
▁검열	-17897
▁겨누	-17898
▁견뎌	-17899
▁결백	-17900
▁고혈	-17901
▁골절	-17902
▁곳과	-17903
▁공적	-17904
▁공청	-17905
▁교량	-17906
▁교정	-17907
▁교훈	-17908
▁구두	-17909
▁구명	-17910
▁구직	-17911
▁국장	-17912
▁군에	-17913
▁굴복	-17914
▁귀성	-17915
▁극우	-17916
▁길고	-17917
▁김일	-17918
▁끄는	-17919
▁끝마	-17920
▁나눌	-17921
▁나일	-17922
▁나지	-17923
▁나탈	-17924
▁난무	-17925
▁난입	-17926
▁날로	-17927
▁내몰	-17928
▁넘길	-17929
▁놀란	-17930
▁높일	-17931
▁늘려	-17932
▁늘리	-17933
▁다친	-17934
▁닫고	-17935
▁달링	-17936
▁달의	-17937
▁담합	-17938
▁대슐	-17939
▁대장	-17940
▁댈러	-17941
▁댓글	-17942
▁댕기	-17943
▁도매	-17944
▁도출	-17945
▁독려	-17946
▁동화	-17947
▁뒤져	-17948
▁등도	-17949
▁떠들	-17950
▁래드	-17951
▁러브	-17952
▁루머	-17953
▁리츠	-17954
▁린치	-17955
▁마땅	-17956
▁마샬	-17957
▁마인	-17958
▁만배	-17959
▁만연	-17960
▁맞먹	-17961
▁맡을	-17962
▁먹은	-17963
▁먹이	-17964
▁먹지	-17965
▁메탄	-17966
▁멜로	-17967
▁몽고	-17968
▁묘지	-17969
▁무그	-17970
▁묵인	-17971
▁미루	-17972
▁미션	-17973
▁믿어	-17974
▁바뀐	-17975
▁바와	-17976
▁반사	-17977
▁발로	-17978
▁버핏	-17979
▁범위	-17980
▁법사	-17981
▁법은	-17982
▁벨리	-17983
▁복직	-17984
▁본질	-17985
▁봉급	-17986
▁부가	-17987
▁부도	-17988
▁부리	-17989
▁분산	-17990
▁불륜	-17991
▁브룩	-17992
▁비겁	-17993
▁사나	-17994
▁살기	-17995
▁살라	-17996
▁삼아	-17997
▁상류	-17998
▁생체	-17999
▁석탄	-18000
▁선덜	-18001
▁선사	-18002
▁섬은	-18003
▁세레	-18004
▁속의	-18005
▁손이	-18006
▁쇠고	-18007
▁수직	-18008
▁수학	-18009
▁슛을	-18010
▁스캇	-18011
▁시가	-18012
▁시킬	-18013
▁신입	-18014
▁신형	-18015
▁신혼	-18016
▁실천	-18017
▁심도	-18018
▁싸우	-18019
▁싸이	-18020
▁쏘아	-18021
▁아예	-18022
▁안될	-18023
▁안테	-18024
▁알기	-18025
▁알마	-18026
▁애를	-18027
▁약한	-18028
▁양봉	-18029
▁여야	-18030
▁연봉	-18031
▁열광	-18032
▁영아	-18033
▁오버	-18034
▁오존	-18035
▁오지	-18036
▁온몸	-18037
▁완구	-18038
▁원시	-18039
▁위배	-18040
▁유류	-18041
▁유학	-18042
▁융통	-18043
▁은둔	-18044
▁이드	-18045
▁이룰	-18046
▁이윤	-18047
▁이의	-18048
▁이프	-18049
▁인당	-18050
▁일광	-18051
▁일렉	-18052
▁입게	-18053
▁자아	-18054
▁자폭	-18055
▁잔혹	-18056
▁재능	-18057
▁저기	-18058
▁적신	-18059
▁전공	-18060
▁전제	-18061
▁정황	-18062
▁조별	-18063
▁조언	-18064
▁종족	-18065
▁좌석	-18066
▁지의	-18067
▁지쳐	-18068
▁진짜	-18069
▁질을	-18070
▁찍어	-18071
▁차질	-18072
▁책과	-18073
▁책의	-18074
▁쳤다	-18075
▁총파	-18076
▁최전	-18077
▁추세	-18078
▁축복	-18079
▁출혈	-18080
▁층에	-18081
▁치뤄	-18082
▁카이	-18083
▁카제	-18084
▁칼럼	-18085
▁키가	-18086
▁키팅	-18087
▁타격	-18088
▁타깃	-18089
▁타로	-18090
▁타오	-18091
▁탈세	-18092
▁테드	-18093
▁토미	-18094
▁통산	-18095
▁투숙	-18096
▁트럼	-18097
▁팔린	-18098
▁패터	-18099
▁평등	-18100
▁폐렴	-18101
▁폭염	-18102
▁풀기	-18103
▁프래	-18104
▁피가	-18105
▁하길	-18106
▁하룻	-18107
▁하스	-18108
▁하인	-18109
▁한정	-18110
▁합성	-18111
▁항해	-18112
▁해밀	-18113
▁허덕	-18114
▁현충	-18115
▁형벌	-18116
▁호스	-18117
▁활기	-18118
▁황제	-18119
▁후회	-18120
▁흡입	-18121
가스가	-18122
객들은	-18123
겠는가	-18124
격하게	-18125
공급이	-18126
권으로	-18127
기구는	-18128
기에는	-18129
다코타	-18130
단에게	-18131
되는데	-18132
들만이	-18133
들이는	-18134
라스와	-18135
라인이	-18136
로스는	-18137
로에서	-18138
르트는	-18139
마리가	-18140
머스는	-18141
명령을	-18142
바도르	-18143
방식을	-18144
사와의	-18145
산으로	-18146
상태로	-18147
생활에	-18148
센터로	-18149
슈타인	-18150
역으로	-18151
왔다는	-18152
으로도	-18153
이어서	-18154
인지는	-18155
자수가	-18156
책으로	-18157
치료를	-18158
투표를	-18159
펜하겐	-18160
푸르트	-18161
하려다	-18162
했다면	-18163
행위로	-18164
훈련을	-18165
▁가까워	-18166
▁가디언	-18167
▁가정의	-18168
▁가져온	-18169
▁가지는	-18170
▁감소에	-18171
▁감정이	-18172
▁감축을	-18173
▁값비싼	-18174
▁개발할	-18175
▁개입한	-18176
▁건조한	-18177
▁검토한	-18178
▁것인데	-18179
▁게임이	-18180
▁결혼할	-18181
▁경기서	-18182
▁경미한	-18183
▁공급에	-18184
▁관계된	-18185
▁관계의	-18186
▁굉장한	-18187
▁교섭을	-18188
▁교외의	-18189
▁구하는	-18190
▁국가적	-18191
▁국민들	-18192
▁국적을	-18193
▁국회를	-18194
▁군대는	-18195
▁군인이	-18196
▁귀국할	-18197
▁규정에	-18198
▁그레그	-18199
▁금메달	-18200
▁기자와	-18201
▁김씨는	-18202
▁끝나면	-18203
▁나아갈	-18204
▁난항을	-18205
▁남동생	-18206
▁낮추는	-18207
▁내리게	-18208
▁내용과	-18209
▁넘겼다	-18210
▁네브라	-18211
▁년대의	-18212
▁노던록	-18213
▁노조의	-18214
▁논쟁에	-18215
▁높다는	-18216
▁느끼게	-18217
▁늘리는	-18218
▁늘었다	-18219
▁다량의	-18220
▁다루고	-18221
▁다리는	-18222
▁다이버	-18223
▁다이빙	-18224
▁단속을	-18225
▁달성할	-18226
▁당선을	-18227
▁당시를	-18228
▁대만을	-18229
▁대사와	-18230
▁대신할	-18231
▁대하여	-18232
▁대회는	-18233
▁던지고	-18234
▁도날드	-18235
▁도시와	-18236
▁도중에	-18237
▁돈으로	-18238
▁돌아간	-18239
▁드디어	-18240
▁따라잡	-18241
▁따르는	-18242
▁딸에게	-18243
▁때에는	-18244
▁뜻하는	-18245
▁로렌스	-18246
▁로켓을	-18247
▁루고보	-18248
▁마다가	-18249
▁마련을	-18250
▁막았다	-18251
▁만약에	-18252
▁만큼의	-18253
▁만토바	-18254
▁말이다	-18255
▁말하면	-18256
▁면적이	-18257
▁명이며	-18258
▁모리스	-18259
▁몸값을	-18260
▁못했을	-18261
▁무기의	-18262
▁문구가	-18263
▁문제도	-18264
▁물가가	-18265
▁물고기	-18266
▁미타그	-18267
▁믿음을	-18268
▁밀워키	-18269
▁박스오	-18270
▁반도체	-18271
▁반세기	-18272
▁받아온	-18273
▁밝혀져	-18274
▁방송된	-18275
▁배럴의	-18276
▁배에서	-18277
▁배우가	-18278
▁버나드	-18279
▁보내지	-18280
▁보도는	-18281
▁보안에	-18282
▁본부가	-18283
▁본즈는	-18284
▁부르며	-18285
▁부유층	-18286
▁부족이	-18287
▁부족장	-18288
▁부패와	-18289
▁분간의	-18290
▁분석한	-18291
▁불구속	-18292
▁불도저	-18293
▁붐비는	-18294
▁브라더	-18295
▁비난에	-18296
▁빈센트	-18297
▁사무차	-18298
▁사실로	-18299
▁사이즈	-18300
▁사파테	-18301
▁살인을	-18302
▁삼성전	-18303
▁상황과	-18304
▁생각한	-18305
▁생명체	-18306
▁생존을	-18307
▁선수를	-18308
▁성격을	-18309
▁성명에	-18310
▁성장에	-18311
▁성적인	-18312
▁세르게	-18313
▁섹시한	-18314
▁센트럴	-18315
▁소득을	-18316
▁소비를	-18317
▁소요를	-18318
▁솔직히	-18319
▁송환을	-18320
▁수요를	-18321
▁수족관	-18322
▁수준이	-18323
▁수출이	-18324
▁순방을	-18325
▁순찰대	-18326
▁숨겨진	-18327
▁스키를	-18328
▁스트립	-18329
▁스틸러	-18330
▁습격을	-18331
▁승리에	-18332
▁시계를	-18333
▁시내에	-18334
▁시대의	-18335
▁시작을	-18336
▁시즌이	-18337
▁시켰다	-18338
▁시한이	-18339
[...]
