<unk>	0
<pad>	0
<s>	0
</s>	0
<bos>	0
<eos>	0
▁t	-0
▁a	-1
he	-2
in	-3
▁s	-4
▁the	-5
re	-6
on	-7
er	-8
▁w	-9
▁c	-10
▁o	-11
en	-12
▁p	-13
ed	-14
▁b	-15
an	-16
at	-17
▁f	-18
or	-19
it	-20
▁m	-21
es	-22
▁in	-23
is	-24
ar	-25
ing	-26
▁to	-27
▁h	-28
al	-29
▁an	-30
▁of	-31
▁d	-32
ou	-33
as	-34
ic	-35
id	-36
▁n	-37
le	-38
▁and	-39
ion	-40
ro	-41
il	-42
▁th	-43
ent	-44
▁re	-45
▁g	-46
▁l	-47
ay	-48
▁e	-49
om	-50
▁be	-51
ve	-52
st	-53
▁u	-54
ad	-55
▁on	-56
ut	-57
▁st	-58
▁sa	-59
▁for	-60
ol	-61
ir	-62
ter	-63
▁he	-64
ur	-65
ac	-66
▁k	-67
im	-68
▁said	-69
am	-70
ig	-71
ly	-72
ot	-73
ec	-74
▁is	-75
ver	-76
ation	-77
ill	-78
▁r	-79
▁that	-80
et	-81
▁"	-82
ow	-83
ore	-84
▁we	-85
▁it	-86
ld	-87
us	-88
▁wh	-89
▁at	-90
▁was	-91
▁y	-92
▁as	-93
ort	-94
▁de	-95
ce	-96
▁j	-97
▁al	-98
ith	-99
▁ch	-100
▁con	-101
un	-102
▁with	-103
oun	-104
ers	-105
▁ne	-106
ment	-107
el	-108
res	-109
os	-110
day	-111
ist	-112
▁pro	-113
est	-114
op	-115
▁v	-116
her	-117
ate	-118
ak	-119
and	-120
ul	-121
ri	-122
ain	-123
th	-124
▁com	-125
▁un	-126
▁le	-127
ave	-128
ct	-129
ap	-130
rom	-131
ch	-132
ag	-133
ear	-134
▁sh	-135
▁from	-136
▁by	-137
igh	-138
▁se	-139
ial	-140
▁has	-141
if	-142
ast	-143
▁af	-144
▁sp	-145
▁are	-146
▁su	-147
art	-148
▁off	-149
▁his	-150
▁have	-151
▁ex	-152
red	-153
ity	-154
▁,	-155
▁go	-156
ies	-157
pp	-158
ice	-159
▁ab	-160
em	-161
out	-162
oc	-163
▁year	-164
ould	-165
▁pres	-166
our	-167
ding	-168
ts	-169
▁tr	-170
▁were	-171
ident	-172
se	-173
ab	-174
ack	-175
▁will	-176
▁but	-177
um	-178
▁rep	-179
all	-180
▁ag	-181
ong	-182
▁not	-183
ian	-184
▁pl	-185
ess	-186
ive	-187
qu	-188
,"	-189
▁ar	-190
▁pol	-191
ia	-192
od	-193
iv	-194
▁kore	-195
▁new	-196
▁wor	-197
ary	-198
cc	-199
end	-200
gh	-201
▁or	-202
▁pe	-203
▁after	-204
▁cl	-205
▁mon	-206
ry	-207
▁who	-208
ie	-209
ted	-210
ight	-211
ust	-212
▁whe	-213
▁they	-214
ok	-215
▁res	-216
ren	-217
▁had	-218
ost	-219
ich	-220
ome	-221
ide	-222
mer	-223
▁been	-224
ound	-225
ud	-226
ra	-227
▁ro	-228
ard	-229
▁its	-230
▁president	-231
ge	-232
▁min	-233
ther	-234
▁tw	-235
▁offic	-236
ople	-237
▁their	-238
▁people	-239
▁about	-240
▁out	-241
▁say	-242
▁sec	-243
▁more	-244
▁int	-245
▁ad	-246
ber	-247
ated	-248
ign	-249
▁part	-250
▁this	-251
ine	-252
vern	-253
▁coun	-254
ime	-255
▁per	-256
ant	-257
▁pr	-258
▁ir	-259
▁two	-260
ions	-261
ans	-262
▁exp	-263
▁govern	-264
▁me	-265
uc	-266
▁her	-267
▁inc	-268
▁acc	-269
▁en	-270
▁comp	-271
▁nort	-272
ks	-273
▁up	-274
ous	-275
▁report	-276
ace	-277
so	-278
▁dis	-279
ree	-280
esday	-281
▁which	-282
▁man	-283
▁over	-284
▁one	-285
▁official	-286
ough	-287
der	-288
▁she	-289
ations	-290
iz	-291
▁cont	-292
ke	-293
▁mil	-294
▁government	-295
ib	-296
cent	-297
▁att	-298
ates	-299
▁all	-300
age	-301
▁gr	-302
ip	-303
▁would	-304
▁mar	-305
▁than	-306
▁br	-307
man	-308
▁also	-309
▁korea	-310
▁inter	-311
ub	-312
▁state	-313
ors	-314
▁us	-315
▁count	-316
own	-317
ational	-318
▁sc	-319
ass	-320
▁fir	-321
▁cr	-322
▁north	-323
▁other	-324
ure	-325
av	-326
ang	-327
ical	-328
▁do	-329
ff	-330
▁im	-331
ters	-332
ect	-333
▁comm	-334
nn	-335
ite	-336
ake	-337
we	-338
▁police	-339
ue	-340
ile	-341
ell	-342
ail	-343
pt	-344
▁last	-345
▁cnn	-346
▁can	-347
hed	-348
▁ind	-349
▁day	-350
lo	-351
aq	-352
▁i	-353
ose	-354
outh	-355
ish	-356
▁no	-357
▁dec	-358
▁mo	-359
▁first	-360
ond	-361
ited	-362
▁when	-363
ence	-364
▁iraq	-365
ire	-366
▁app	-367
illion	-368
ition	-369
▁qu	-370
▁lead	-371
▁la	-372
▁wee	-373
▁milit	-374
lect	-375
▁south	-376
▁te	-377
▁so	-378
ase	-379
▁inv	-380
▁am	-381
▁car	-382
▁bus	-383
▁into	-384
▁co	-385
▁dem	-386
ince	-387
lic	-388
one	-389
▁bec	-390
iss	-391
ied	-392
ade	-393
▁cam	-394
▁fr	-395
ton	-396
▁chin	-397
▁kill	-398
▁ear	-399
▁fin	-400
og	-401
▁some	-402
ning	-403
▁jo	-404
▁ob	-405
▁ev	-406
▁ser	-407
aus	-408
▁bl	-409
▁there	-410
enc	-411
act	-412
▁op	-413
ep	-414
ned	-415
▁percent	-416
ll	-417
oup	-418
▁war	-419
▁told	-420
▁years	-421
▁work	-422
ru	-423
▁time	-424
▁world	-425
ved	-426
ress	-427
▁tal	-428
▁call	-429
▁fe	-430
ance	-431
▁sun	-432
li	-433
ict	-434
lear	-435
▁li	-436
▁pre	-437
▁bo	-438
▁elect	-439
ally	-440
ens	-441
▁ass	-442
ey	-443
ama	-444
▁officials	-445
are	-446
orm	-447
old	-448
▁month	-449
▁week	-450
ities	-451
ater	-452
▁accor	-453
row	-454
con	-455
▁them	-456
▁could	-457
▁again	-458
very	-459
▁act	-460
▁fl	-461
▁united	-462
▁according	-463
oll	-464
fe	-465
ces	-466
the	-467
▁under	-468
▁tu	-469
▁three	-470
urs	-471
arg	-472
▁korean	-473
▁incl	-474
▁monday	-475
▁country	-476
ach	-477
▁air	-478
reat	-479
▁tuesday	-480
ild	-481
ked	-482
▁rec	-483
ected	-484
ister	-485
▁bet	-486
ese	-487
▁imp	-488
▁par	-489
▁plan	-490
▁wed	-491
▁says	-492
▁news	-493
uring	-494
▁cons	-495
▁intern	-496
▁military	-497
▁sur	-498
ath	-499
ause	-500
vers	-501
▁you	-502
▁lo	-503
▁party	-504
▁cent	-505
▁national	-506
▁kn	-507
ital	-508
ons	-509
▁sen	-510
▁spok	-511
fore	-512
istan	-513
▁aut	-514
▁just	-515
▁attack	-516
ory	-517
▁reg	-518
▁states	-519
▁wedn	-520
▁wednesday	-521
▁if	-522
▁down	-523
▁him	-524
▁old	-525
▁ter	-526
ft	-527
able	-528
▁may	-529
ublic	-530
▁group	-531
▁minister	-532
te	-533
▁win	-534
▁sunday	-535
land	-536
▁ban	-537
▁million	-538
hing	-539
▁amer	-540
▁americ	-541
▁before	-542
▁since	-543
▁supp	-544
ased	-545
▁obama	-546
▁rem	-547
ah	-548
▁fore	-549
▁dep	-550
▁ann	-551
ouse	-552
ting	-553
leg	-554
▁most	-555
ious	-556
med	-557
▁show	-558
apan	-559
▁rel	-560
▁japan	-561
▁cap	-562
ency	-563
▁against	-564
rat	-565
▁near	-566
▁back	-567
▁killed	-568
▁china	-569
rop	-570
ket	-571
▁law	-572
▁ac	-573
ists	-574
uss	-575
ents	-576
du	-577
▁now	-578
ced	-579
▁mem	-580
▁econ	-581
▁econom	-582
▁like	-583
▁ph	-584
▁end	-585
uclear	-586
▁spokes	-587
ix	-588
▁how	-589
▁em	-590
▁where	-591
▁invest	-592
▁any	-593
▁bush	-594
app	-595
▁prov	-596
▁city	-597
ursday	-598
▁thursday	-599
▁des	-600
king	-601
wn	-602
▁reported	-603
▁gen	-604
▁med	-605
▁what	-606
ult	-607
▁po	-608
ord	-609
▁nuclear	-610
way	-611
▁prot	-612
▁secur	-613
gan	-614
led	-615
▁bu	-616
az	-617
▁during	-618
▁made	-619
rest	-620
ating	-621
ame	-622
▁former	-623
hn	-624
▁str	-625
other	-626
▁four	-627
vel	-628
aking	-629
▁only	-630
▁ins	-631
▁ap	-632
rough	-633
▁bar	-634
▁because	-635
▁security	-636
▁while	-637
orn	-638
▁tur	-639
gr	-640
ween	-641
ants	-642
▁cour	-643
▁bel	-644
▁democ	-645
▁found	-646
▁get	-647
▁ret	-648
▁between	-649
▁inf	-650
▁house	-651
▁z	-652
▁brit	-653
▁compan	-654
ings	-655
air	-656
ood	-657
▁ma	-658
▁being	-659
oss	-660
▁high	-661
▁sm	-662
▁mus	-663
▁def	-664
▁gu	-665
ution	-666
eral	-667
▁wom	-668
▁through	-669
▁col	-670
hor	-671
▁many	-672
ai	-673
rent	-674
▁stud	-675
▁child	-676
▁add	-677
▁camp	-678
▁meet	-679
▁called	-680
▁miss	-681
▁hel	-682
▁set	-683
▁tri	-684
omb	-685
anc	-686
▁eu	-687
ered	-688
▁rele	-689
▁conf	-690
ower	-691
▁vis	-692
xt	-693
▁author	-694
ral	-695
uding	-696
ops	-697
ric	-698
▁fam	-699
▁sy	-700
▁long	-701
les	-702
▁my	-703
und	-704
ared	-705
ments	-706
▁international	-707
▁head	-708
▁including	-709
ug	-710
▁play	-711
duct	-712
ision	-713
▁run	-714
ss	-715
▁won	-716
▁vi	-717
▁ref	-718
ester	-719
als	-720
ily	-721
▁did	-722
ife	-723
ork	-724
ward	-725
ands	-726
▁spokesman	-727
▁press	-728
▁home	-729
▁sat	-730
▁tro	-731
▁help	-732
ick	-733
▁foreign	-734
cer	-735
ling	-736
olog	-737
▁opp	-738
▁bro	-739
▁second	-740
int	-741
▁che	-742
me	-743
tle	-744
▁six	-745
ble	-746
ise	-747
ange	-748
▁days	-749
ung	-750
▁disc	-751
▁polit	-752
min	-753
bers	-754
ret	-755
▁democrat	-756
▁eng	-757
per	-758
▁sch	-759
▁sl	-760
ms	-761
▁next	-762
rael	-763
▁five	-764
▁death	-765
▁eff	-766
▁take	-767
ful	-768
▁israel	-769
▁see	-770
▁still	-771
▁statement	-772
▁resp	-773
▁announ	-774
ual	-775
imes	-776
ized	-777
▁least	-778
▁sus	-779
▁clin	-780
▁iss	-781
▁num	-782
ives	-783
ying	-784
▁reports	-785
▁public	-786
▁pak	-787
▁serv	-788
▁open	-789
oul	-790
▁court	-791
▁those	-792
▁prime	-793
hern	-794
▁way	-795
▁bot	-796
▁loc	-797
▁even	-798
ross	-799
▁pakistan	-800
ind	-801
ures	-802
▁det	-803
▁start	-804
io	-805
▁troops	-806
▁investig	-807
ief	-808
▁maj	-809
iew	-810
tain	-811
▁susp	-812
▁ra	-813
ries	-814
▁talks	-815
▁around	-816
▁afgh	-817
ven	-818
iday	-819
ics	-820
ool	-821
▁make	-822
▁our	-823
▁pal	-824
▁spe	-825
▁hour	-826
osed	-827
▁top	-828
▁need	-829
ady	-830
▁afghan	-831
▁vot	-832
istry	-833
▁recent	-834
ages	-835
ecut	-836
▁terr	-837
▁contin	-838
ices	-839
gram	-840
ollow	-841
▁another	-842
▁ke	-843
ivers	-844
▁bomb	-845
▁russ	-846
istr	-847
▁program	-848
ty	-849
▁sign	-850
▁viol	-851
▁follow	-852
▁ministry	-853
ather	-854
ible	-855
▁market	-856
▁iran	-857
▁major	-858
osp	-859
▁cor	-860
▁oper	-861
▁hum	-862
▁clinton	-863
▁vict	-864
▁american	-865
ash	-866
alth	-867
ink	-868
oci	-869
▁contro	-870
ged	-871
ior	-872
▁seoul	-873
▁company	-874
oot	-875
▁commun	-876
ians	-877
▁put	-878
▁then	-879
▁trans	-880
▁visit	-881
▁dead	-882
▁such	-883
ody	-884
▁leader	-885
ger	-886
▁washing	-887
▁dire	-888
port	-889
▁pass	-890
▁expected	-891
▁fire	-892
▁should	-893
▁mor	-894
▁pers	-895
▁retur	-896
▁office	-897
▁washington	-898
rope	-899
▁belie	-900
osition	-901
▁fil	-902
ns	-903
uch	-904
▁europe	-905
au	-906
▁presidential	-907
▁sold	-908
▁power	-909
▁authorities	-910
▁support	-911
to	-912
▁pa	-913
▁big	-914
▁died	-915
amp	-916
▁children	-917
aim	-918
ute	-919
▁direct	-920
▁agency	-921
ient	-922
ights	-923
▁billion	-924
▁cur	-925
ense	-926
▁secret	-927
ale	-928
atch	-929
hip	-930
▁earli	-931
▁est	-932
▁forces	-933
▁spec	-934
ism	-935
▁well	-936
▁far	-937
▁members	-938
▁cond	-939
▁satur	-940
ird	-941
ought	-942
▁arrest	-943
ility	-944
ular	-945
ving	-946
veral	-947
▁ed	-948
▁early	-949
▁saying	-950
aw	-951
▁main	-952
ner	-953
▁york	-954
up	-955
ative	-956
▁saturday	-957
hes	-958
▁earlier	-959
feren	-960
▁nation	-961
▁look	-962
▁chief	-963
aign	-964
ament	-965
▁test	-966
aster	-967
▁both	-968
son	-969
▁dr	-970
ember	-971
▁friday	-972
▁campaign	-973
▁sub	-974
▁don	-975
▁leg	-976
used	-977
▁ge	-978
▁ext	-979
▁several	-980
rib	-981
▁pop	-982
▁months	-983
▁leaders	-984
▁every	-985
▁commit	-986
▁british	-987
ph	-988
▁times	-989
▁school	-990
▁john	-991
▁inst	-992
▁rest	-993
ull	-994
ier	-995
▁mcc	-996
gin	-997
▁bank	-998
▁sent	-999
▁sw	-1000
▁political	-1001
▁ent	-1002
ured	-1003
ained	-1004
▁election	-1005
ock	-1006
▁iraqi	-1007
ark	-1008
▁inj	-1009
▁good	-1010
▁incre	-1011
▁left	-1012
▁chinese	-1013
▁white	-1014
▁pri	-1015
▁ce	-1016
▁hal	-1017
▁countries	-1018
▁ve	-1019
▁deal	-1020
▁number	-1021
my	-1022
mit	-1023
▁cre	-1024
▁hosp	-1025
ific	-1026
▁women	-1027
ines	-1028
ene	-1029
▁claim	-1030
▁hospital	-1031
▁crit	-1032
▁took	-1033
▁democratic	-1034
▁came	-1035
▁among	-1036
▁tak	-1037
▁capital	-1038
line	-1039
▁bur	-1040
earch	-1041
ison	-1042
▁team	-1043
▁health	-1044
▁hop	-1045
▁family	-1046
▁meeting	-1047
reed	-1048
ued	-1049
gg	-1050
▁move	-1051
▁buil	-1052
▁night	-1053
▁'	-1054
▁bag	-1055
▁hol	-1056
▁concer	-1057
▁grow	-1058
▁wr	-1059
▁hit	-1060
gress	-1061
ator	-1062
▁know	-1063
velop	-1064
▁later	-1065
▁kim	-1066
▁rul	-1067
artment	-1068
▁prev	-1069
▁very	-1070
▁tour	-1071
▁terror	-1072
▁used	-1073
▁fed	-1074
▁own	-1075
▁cal	-1076
▁ste	-1077
iness	-1078
gy	-1079
▁dif	-1080
▁poss	-1081
ched	-1082
▁men	-1083
orters	-1084
▁charg	-1085
▁pen	-1086
▁expl	-1087
orts	-1088
▁neg	-1089
ij	-1090
▁cand	-1091
▁organ	-1092
▁pros	-1093
ky	-1094
ised	-1095
▁sum	-1096
▁general	-1097
ided	-1098
▁ago	-1099
▁mid	-1100
▁associ	-1101
▁har	-1102
▁host	-1103
▁develop	-1104
ude	-1105
▁sout	-1106
▁much	-1107
elf	-1108
▁person	-1109
ues	-1110
▁aust	-1111
▁economic	-1112
ax	-1113
▁aff	-1114
▁human	-1115
▁threat	-1116
▁life	-1117
▁alleg	-1118
ony	-1119
ames	-1120
▁ger	-1121
▁tele	-1122
ves	-1123
loy	-1124
▁area	-1125
ones	-1126
▁prom	-1127
▁announced	-1128
▁adv	-1129
▁civ	-1130
▁gre	-1131
▁peace	-1132
▁allow	-1133
uel	-1134
ened	-1135
▁fac	-1136
▁stre	-1137
▁univers	-1138
▁sim	-1139
stem	-1140
arge	-1141
ets	-1142
▁sit	-1143
side	-1144
▁lee	-1145
▁site	-1146
ys	-1147
estin	-1148
▁secretary	-1149
▁den	-1150
▁pat	-1151
▁held	-1152
lam	-1153
ified	-1154
▁candid	-1155
ired	-1156
▁system	-1157
ls	-1158
bal	-1159
▁post	-1160
▁going	-1161
ov	-1162
▁met	-1163
▁past	-1164
hd	-1165
▁oil	-1166
▁region	-1167
cess	-1168
▁ant	-1169
▁hom	-1170
▁san	-1171
▁same	-1172
▁tec	-1173
ference	-1174
▁business	-1175
iers	-1176
▁free	-1177
ention	-1178
aff	-1179
▁glo	-1180
ness	-1181
▁record	-1182
▁released	-1183
til	-1184
ects	-1185
view	-1186
▁admin	-1187
▁star	-1188
▁dri	-1189
▁use	-1190
▁cut	-1191
▁invol	-1192
▁stri	-1193
▁third	-1194
▁const	-1195
ds	-1196
ondon	-1197
▁hours	-1198
▁q	-1199
▁few	-1200
▁ur	-1201
ruct	-1202
▁hand	-1203
esterday	-1204
▁hy	-1205
▁case	-1206
▁london	-1207
els	-1208
ering	-1209
▁fight	-1210
▁yesterday	-1211
riend	-1212
▁exper	-1213
▁place	-1214
acy	-1215
ove	-1216
aving	-1217
▁proble	-1218
▁civil	-1219
▁protest	-1220
▁media	-1221
▁job	-1222
▁quest	-1223
▁opposition	-1224
iban	-1225
▁republic	-1226
iate	-1227
▁inform	-1228
▁half	-1229
▁remain	-1230
▁department	-1231
▁bre	-1232
▁trave	-1233
▁center	-1234
▁islam	-1235
▁right	-1236
ont	-1237
ides	-1238
ize	-1239
▁agree	-1240
▁attacks	-1241
▁morning	-1242
ended	-1243
▁economy	-1244
▁vide	-1245
▁local	-1246
▁think	-1247
▁based	-1248
▁nearly	-1249
ever	-1250
uck	-1251
▁el	-1252
aring	-1253
cl	-1254
▁whether	-1255
aly	-1256
▁decl	-1257
▁hill	-1258
▁taliban	-1259
▁jun	-1260
▁palestin	-1261
▁your	-1262
▁university	-1263
iting	-1264
▁water	-1265
▁financ	-1266
▁del	-1267
▁until	-1268
ik	-1269
▁bill	-1270
▁disp	-1271
▁jan	-1272
▁baghd	-1273
▁without	-1274
▁ang	-1275
▁others	-1276
▁workers	-1277
ury	-1278
▁red	-1279
head	-1280
▁baghdad	-1281
mp	-1282
omin	-1283
▁chr	-1284
▁emer	-1285
▁close	-1286
▁afghanistan	-1287
▁want	-1288
▁today	-1289
▁building	-1290
▁indust	-1291
amed	-1292
▁roh	-1293
ready	-1294
▁taken	-1295
▁late	-1296
▁led	-1297
▁negot	-1298
▁austral	-1299
▁""	-1300
ived	-1301
▁ris	-1302
▁requ	-1303
▁bat	-1304
▁beij	-1305
▁appro	-1306
be	-1307
▁beijing	-1308
▁nat	-1309
▁rece	-1310
co	-1311
its	-1312
ason	-1313
▁nations	-1314
ins	-1315
▁lit	-1316
▁product	-1317
▁german	-1318
▁dam	-1319
ually	-1320
▁weap	-1321
▁plans	-1322
▁already	-1323
▁defense	-1324
ators	-1325
▁appe	-1326
▁prof	-1327
▁confir	-1328
▁som	-1329
▁geor	-1330
▁money	-1331
pped	-1332
▁fren	-1333
▁sing	-1334
▁youn	-1335
istration	-1336
emp	-1337
ished	-1338
▁service	-1339
br	-1340
by	-1341
▁sex	-1342
ten	-1343
▁larg	-1344
▁began	-1345
▁il	-1346
aged	-1347
▁come	-1348
▁laun	-1349
▁town	-1350
▁miles	-1351
▁strong	-1352
▁sour	-1353
▁thous	-1354
▁japanese	-1355
▁short	-1356
▁space	-1357
▁train	-1358
▁organiz	-1359
▁financial	-1360
▁mccain	-1361
▁conv	-1362
▁stop	-1363
▁along	-1364
▁vo	-1365
▁polic	-1366
▁small	-1367
▁parli	-1368
▁step	-1369
▁known	-1370
▁french	-1371
ats	-1372
iving	-1373
▁food	-1374
▁trad	-1375
ounded	-1376
▁force	-1377
▁parliament	-1378
▁does	-1379
ission	-1380
raw	-1381
▁mass	-1382
▁these	-1383
▁beh	-1384
▁army	-1385
ints	-1386
▁sal	-1387
▁central	-1388
augh	-1389
▁land	-1390
▁er	-1391
▁each	-1392
▁weeks	-1393
ield	-1394
▁province	-1395
▁activ	-1396
▁kid	-1397
▁stand	-1398
ject	-1399
▁away	-1400
▁fail	-1401
▁decision	-1402
str	-1403
▁keep	-1404
▁administration	-1405
▁py	-1406
▁web	-1407
sh	-1408
▁es	-1409
▁bor	-1410
▁best	-1411
▁negoti	-1412
ney	-1413
ology	-1414
▁across	-1415
ump	-1416
▁prison	-1417
▁soldiers	-1418
▁eight	-1419
▁comple	-1420
▁gas	-1421
▁hist	-1422
har	-1423
▁southern	-1424
utes	-1425
▁env	-1426
▁jud	-1427
▁vir	-1428
▁vote	-1429
ban	-1430
▁av	-1431
▁ju	-1432
▁ham	-1433
▁wal	-1434
▁face	-1435
ims	-1436
▁real	-1437
▁techn	-1438
▁however	-1439
ined	-1440
▁rights	-1441
▁current	-1442
▁arrested	-1443
ium	-1444
gency	-1445
ck	-1446
aper	-1447
▁aid	-1448
▁lat	-1449
▁level	-1450
▁return	-1451
▁happ	-1452
▁woman	-1453
▁violence	-1454
▁conference	-1455
▁gir	-1456
▁lab	-1457
▁militants	-1458
ety	-1459
▁sn	-1460
▁march	-1461
▁fund	-1462
▁coup	-1463
▁christ	-1464
go	-1465
oon	-1466
idence	-1467
▁european	-1468
ption	-1469
▁thousands	-1470
▁information	-1471
▁foot	-1472
▁asked	-1473
olution	-1474
▁release	-1475
get	-1476
▁film	-1477
cil	-1478
▁hot	-1479
ina	-1480
▁arri	-1481
▁prices	-1482
▁killing	-1483
less	-1484
▁let	-1485
▁barack	-1486
▁israeli	-1487
▁di	-1488
mak	-1489
▁russia	-1490
▁char	-1491
▁clear	-1492
▁final	-1493
oo	-1494
▁mat	-1495
▁prop	-1496
▁deb	-1497
▁gun	-1498
▁care	-1499
▁east	-1500
▁video	-1501
avy	-1502
▁pay	-1503
▁demand	-1504
▁cost	-1505
▁young	-1506
▁students	-1507
▁mal	-1508
▁relations	-1509
ae	-1510
bass	-1511
▁become	-1512
▁global	-1513
▁making	-1514
▁northern	-1515
▁agreement	-1516
▁control	-1517
▁discuss	-1518
▁largest	-1519
▁seven	-1520
▁fur	-1521
▁trade	-1522
▁friend	-1523
▁ident	-1524
▁weapons	-1525
▁internet	-1526
ried	-1527
▁art	-1528
▁key	-1529
▁reb	-1530
ending	-1531
▁issue	-1532
▁scient	-1533
▁seen	-1534
▁change	-1535
▁following	-1536
erv	-1537
ession	-1538
ically	-1539
▁park	-1540
▁port	-1541
▁britain	-1542
yang	-1543
▁airport	-1544
▁committe	-1545
mar	-1546
▁caus	-1547
▁form	-1548
estern	-1549
undred	-1550
▁afric	-1551
com	-1552
eng	-1553
ards	-1554
uary	-1555
▁telev	-1556
ars	-1557
▁execut	-1558
▁hundred	-1559
duc	-1560
▁flo	-1561
▁here	-1562
▁added	-1563
▁large	-1564
mediate	-1565
▁calif	-1566
▁appear	-1567
▁taking	-1568
▁elections	-1569
ef	-1570
▁hig	-1571
▁body	-1572
▁estim	-1573
▁alleged	-1574
▁fall	-1575
▁agreed	-1576
ham	-1577
▁palestinian	-1578
▁tre	-1579
ural	-1580
▁cas	-1581
▁points	-1582
▁federal	-1583
▁ri	-1584
ornia	-1585
▁ahead	-1586
▁gaz	-1587
▁tax	-1588
▁fact	-1589
▁jour	-1590
▁shar	-1591
▁begin	-1592
▁trying	-1593
▁targ	-1594
▁california	-1595
for	-1596
▁mod	-1597
▁rad	-1598
▁inte	-1599
▁outside	-1600
▁interview	-1601
hers	-1602
▁give	-1603
▁must	-1604
ressed	-1605
▁import	-1606
▁black	-1607
▁emergency	-1608
ne	-1609
ially	-1610
ored	-1611
▁net	-1612
▁charges	-1613
rap	-1614
▁hold	-1615
▁shot	-1616
▁immediate	-1617
''	-1618
hic	-1619
ech	-1620
▁might	-1621
ank	-1622
oy	-1623
lymp	-1624
▁desp	-1625
▁olymp	-1626
ongyang	-1627
▁border	-1628
▁partic	-1629
▁prosecut	-1630
▁bas	-1631
▁coll	-1632
▁committee	-1633
▁emp	-1634
▁island	-1635
▁january	-1636
rug	-1637
▁mos	-1638
▁congress	-1639
ults	-1640
▁accused	-1641
▁working	-1642
ience	-1643
▁list	-1644
▁france	-1645
ival	-1646
▁ord	-1647
uge	-1648
ergy	-1649
▁earth	-1650
▁los	-1651
▁cris	-1652
▁never	-1653
che	-1654
▁less	-1655
▁pyongyang	-1656
▁sept	-1657
▁cho	-1658
▁got	-1659
▁coast	-1660
▁little	-1661
▁companies	-1662
raf	-1663
▁meas	-1664
▁road	-1665
▁groups	-1666
▁likely	-1667
▁station	-1668
▁broad	-1669
▁super	-1670
▁west	-1671
▁despite	-1672
atic	-1673
▁low	-1674
▁fell	-1675
▁went	-1676
▁associated	-1677
ulation	-1678
▁process	-1679
eda	-1680
ley	-1681
anted	-1682
▁research	-1683
▁commission	-1684
ta	-1685
ccess	-1686
▁great	-1687
▁england	-1688
pr	-1689
imin	-1690
lish	-1691
rem	-1692
ount	-1693
urch	-1694
▁boy	-1695
▁hard	-1696
▁mean	-1697
▁side	-1698
▁suic	-1699
▁newsp	-1700
▁critic	-1701
▁question	-1702
lom	-1703
most	-1704
▁fut	-1705
▁union	-1706
▁energy	-1707
bo	-1708
ane	-1709
▁june	-1710
▁further	-1711
ona	-1712
▁desc	-1713
▁too	-1714
ached	-1715
▁dest	-1716
▁july	-1717
▁crisis	-1718
▁previous	-1719
▁investigation	-1720
self	-1721
▁val	-1722
▁carry	-1723
▁deleg	-1724
▁council	-1725
ape	-1726
▁ran	-1727
▁cust	-1728
▁qa	-1729
▁latest	-1730
▁toward	-1731
▁possible	-1732
▁occ	-1733
▁shut	-1734
▁suff	-1735
▁chair	-1736
▁senior	-1737
▁showed	-1738
nal	-1739
ming	-1740
▁cross	-1741
▁x	-1742
▁gaza	-1743
astern	-1744
itions	-1745
▁mot	-1746
▁within	-1747
ighb	-1748
▁priv	-1749
idents	-1750
▁somet	-1751
▁neighb	-1752
▁believe	-1753
wh	-1754
▁ill	-1755
▁mov	-1756
ggest	-1757
▁chang	-1758
▁suggest	-1759
▁point	-1760
▁director	-1761
▁game	-1762
▁name	-1763
▁qaeda	-1764
▁storm	-1765
ler	-1766
par	-1767
▁je	-1768
▁heart	-1769
▁watch	-1770
▁policy	-1771
▁command	-1772
▁continue	-1773
cast	-1774
▁dip	-1775
▁mag	-1776
▁mur	-1777
▁drug	-1778
▁prim	-1779
▁candidate	-1780
▁reporters	-1781
ush	-1782
cept	-1783
▁blo	-1784
▁corp	-1785
▁treat	-1786
▁dav	-1787
▁respons	-1788
▁weekend	-1789
▁hundreds	-1790
▁interest	-1791
▁television	-1792
▁member	-1793
▁minutes	-1794
na	-1795
inc	-1796
▁gl	-1797
▁ship	-1798
harraf	-1799
▁protect	-1800
▁poll	-1801
▁break	-1802
▁september	-1803
▁sk	-1804
▁tot	-1805
▁mother	-1806
▁musharraf	-1807
▁hur	-1808
▁grand	-1809
pre	-1810
▁lot	-1811
▁rev	-1812
▁squ	-1813
▁medical	-1814
▁russian	-1815
▁confirmed	-1816
▁anti	-1817
▁dist	-1818
▁tell	-1819
▁front	-1820
▁suicide	-1821
rown	-1822
▁mess	-1823
▁explos	-1824
▁due	-1825
▁once	-1826
▁george	-1827
▁success	-1828
ee	-1829
▁demon	-1830
▁deter	-1831
▁sched	-1832
▁diplom	-1833
▁employ	-1834
▁includ	-1835
▁travel	-1836
▁special	-1837
▁live	-1838
▁class	-1839
▁contr	-1840
urg	-1841
epend	-1842
▁find	-1843
▁resc	-1844
itution	-1845
aced	-1846
iven	-1847
oman	-1848
▁hus	-1849
▁line	-1850
▁lost	-1851
▁feb	-1852
▁anim	-1853
ades	-1854
▁sea	-1855
▁using	-1856
▁consid	-1857
▁efforts	-1858
ya	-1859
▁soc	-1860
asing	-1861
▁doll	-1862
▁fuel	-1863
▁phot	-1864
▁race	-1865
▁homes	-1866
▁div	-1867
▁comput	-1868
▁wounded	-1869
ino	-1870
ague	-1871
raft	-1872
▁order	-1873
▁independ	-1874
ern	-1875
uation	-1876
▁champ	-1877
▁round	-1878
▁surve	-1879
ways	-1880
▁pot	-1881
▁rom	-1882
▁sol	-1883
▁injured	-1884
ald	-1885
▁aug	-1886
▁indic	-1887
▁lawmak	-1888
▁produc	-1889
▁street	-1890
▁journal	-1891
▁victory	-1892
akes	-1893
ibility	-1894
▁target	-1895
▁december	-1896
woman	-1897
▁term	-1898
▁cit	-1899
▁father	-1900
iam	-1901
▁oct	-1902
▁nomin	-1903
▁communist	-1904
▁series	-1905
ann	-1906
ril	-1907
▁doct	-1908
▁soon	-1909
▁repres	-1910
emb	-1911
▁ky	-1912
oring	-1913
▁vehic	-1914
▁ground	-1915
key	-1916
ening	-1917
▁trip	-1918
▁ruling	-1919
imb	-1920
▁equ	-1921
▁quar	-1922
▁stay	-1923
▁better	-1924
▁describ	-1925
ule	-1926
▁consum	-1927
▁america	-1928
ada	-1929
xic	-1930
▁cell	-1931
▁study	-1932
▁inside	-1933
▁though	-1934
▁fighting	-1935
▁americans	-1936
apped	-1937
thing	-1938
▁april	-1939
▁serious	-1940
ze	-1941
▁yet	-1942
▁book	-1943
eration	-1944
▁western	-1945
▁industry	-1946
▁behind	-1947
uty	-1948
▁girl	-1949
▁wa	-1950
▁angel	-1951
▁event	-1952
▁action	-1953
▁future	-1954
▁believed	-1955
zy	-1956
▁amid	-1957
▁dise	-1958
▁almost	-1959
▁view	-1960
▁having	-1961
yal	-1962
▁arg	-1963
▁able	-1964
▁full	-1965
though	-1966
▁august	-1967
▁enough	-1968
▁search	-1969
▁started	-1970
mber	-1971
▁coal	-1972
ex	-1973
que	-1974
▁ty	-1975
▁roc	-1976
▁room	-1977
dle	-1978
ili	-1979
ring	-1980
▁areas	-1981
▁flight	-1982
▁involved	-1983
uled	-1984
▁ken	-1985
▁nine	-1986
▁sell	-1987
▁wife	-1988
▁although	-1989
▁republican	-1990
▁rice	-1991
▁vill	-1992
▁season	-1993
▁vol	-1994
ances	-1995
▁ever	-1996
▁nove	-1997
▁november	-1998
▁tv	-1999
▁init	-2000
▁rich	-2001
▁comes	-2002
▁plane	-2003
itional	-2004
▁sources	-2005
ari	-2006
iron	-2007
▁fig	-2008
▁analy	-2009
▁design	-2010
▁detail	-2011
ani	-2012
▁asia	-2013
▁shoot	-2014
▁victims	-2015
aker	-2016
▁dou	-2017
ising	-2018
▁important	-2019
▁coming	-2020
▁dev	-2021
▁son	-2022
▁mich	-2023
overed	-2024
▁bring	-2025
▁environ	-2026
▁wall	-2027
▁react	-2028
▁leading	-2029
▁scientists	-2030
empt	-2031
▁exch	-2032
▁hope	-2033
▁stock	-2034
ruction	-2035
▁conduct	-2036
ster	-2037
▁doz	-2038
ferent	-2039
▁really	-2040
ging	-2041
▁gave	-2042
▁newspaper	-2043
let	-2044
▁cle	-2045
▁mer	-2046
▁arab	-2047
ruary	-2048
▁india	-2049
▁february	-2050
▁problems	-2051
imate	-2052
▁fear	-2053
ertain	-2054
▁given	-2055
▁deaths	-2056
▁private	-2057
▁environment	-2058
▁koreans	-2059
▁planned	-2060
▁role	-2061
▁history	-2062
▁evidence	-2063
▁different	-2064
▁spokeswoman	-2065
▁ben	-2066
▁dro	-2067
▁ide	-2068
▁incident	-2069
▁crow	-2070
▁heavy	-2071
aps	-2072
▁crew	-2073
▁whose	-2074
▁voters	-2075
▁results	-2076
▁chairman	-2077
bc	-2078
ert	-2079
ida	-2080
▁ball	-2081
▁capt	-2082
▁distr	-2083
▁cred	-2084
▁kidn	-2085
▁surv	-2086
▁labor	-2087
▁total	-2088
▁middle	-2089
ole	-2090
ains	-2091
gest	-2092
▁turned	-2093
▁received	-2094
▁age	-2095
ograp	-2096
▁base	-2097
▁david	-2098
▁withd	-2099
▁compet	-2100
▁organization	-2101
men	-2102
umb	-2103
▁bad	-2104
▁wat	-2105
▁announce	-2106
▁appeared	-2107
▁increase	-2108
▁australia	-2109
ober	-2110
▁doc	-2111
▁october	-2112
▁represent	-2113
▁king	-2114
▁paul	-2115
▁rate	-2116
▁resign	-2117
▁mission	-2118
ees	-2119
▁cab	-2120
▁lim	-2121
arent	-2122
pl	-2123
off	-2124
▁mill	-2125
▁hamas	-2126
▁wanted	-2127
▁islamic	-2128
sc	-2129
ably	-2130
wide	-2131
▁pet	-2132
▁comb	-2133
▁tried	-2134
▁couple	-2135
ago	-2136
ibet	-2137
▁mic	-2138
▁loss	-2139
▁light	-2140
▁pan	-2141
▁calls	-2142
▁separ	-2143
▁feel	-2144
verage	-2145
▁movie	-2146
aughter	-2147
ounding	-2148
ma	-2149
whe	-2150
itive	-2151
▁moun	-2152
▁scheduled	-2153
▁supporters	-2154
oud	-2155
▁bh	-2156
▁ca	-2157
▁fat	-2158
▁infl	-2159
▁lawy	-2160
▁pack	-2161
igence	-2162
▁tibet	-2163
▁wants	-2164
han	-2165
▁kil	-2166
▁sad	-2167
▁goal	-2168
▁board	-2169
▁paris	-2170
▁germany	-2171
▁problem	-2172
▁saf	-2173
▁shi	-2174
▁ver	-2175
▁hyun	-2176
▁insp	-2177
▁music	-2178
ays	-2179
band	-2180
▁cause	-2181
▁summer	-2182
▁analyst	-2183
▁attempt	-2184
▁missing	-2185
kyo	-2186
▁kar	-2187
▁mark	-2188
esters	-2189
▁tokyo	-2190
▁intell	-2191
▁disease	-2192
▁protesters	-2193
ify	-2194
▁cup	-2195
▁beat	-2196
▁markets	-2197
▁quarter	-2198
▁district	-2199
▁recently	-2200
wan	-2201
down	-2202
iding	-2203
▁games	-2204
▁coalition	-2205
▁pakistani	-2206
▁looking	-2207
▁request	-2208
▁operation	-2209
chers	-2210
▁cele	-2211
▁read	-2212
▁price	-2213
▁claimed	-2214
▁situation	-2215
over	-2216
▁lin	-2217
▁mad	-2218
▁flor	-2219
▁assist	-2220
▁growth	-2221
▁senate	-2222
▁summit	-2223
▁officers	-2224
""	-2225
roy	-2226
▁hotel	-2227
▁illeg	-2228
▁leban	-2229
▁bid	-2230
▁tit	-2231
▁green	-2232
▁reach	-2233
▁conserv	-2234
▁prosecutors	-2235
▁bri	-2236
▁nas	-2237
▁didn	-2238
▁caused	-2239
▁biggest	-2240
rew	-2241
ager	-2242
arko	-2243
▁pub	-2244
orney	-2245
▁clos	-2246
▁musl	-2247
▁seem	-2248
atives	-2249
▁citiz	-2250
▁judge	-2251
▁include	-2252
▁attorney	-2253
▁technology	-2254
▁immediately	-2255
▁negotiations	-2256
oted	-2257
▁lif	-2258
▁docu	-2259
itness	-2260
▁quick	-2261
▁needed	-2262
▁growing	-2263
▁thought	-2264
fic	-2265
bert	-2266
work	-2267
▁tens	-2268
▁turn	-2269
▁brown	-2270
▁sarko	-2271
▁staff	-2272
▁church	-2273
▁league	-2274
▁development	-2275
itz	-2276
lin	-2277
this	-2278
▁simp	-2279
▁uk	-2280
ayed	-2281
▁aim	-2282
▁nec	-2283
▁tom	-2284
▁hong	-2285
▁online	-2286
▁services	-2287
▁bab	-2288
gether	-2289
▁chall	-2290
▁sarkozy	-2291
▁together	-2292
ador	-2293
▁foc	-2294
duce	-2295
▁assemb	-2296
▁florida	-2297
▁pressure	-2298
▁intelligence	-2299
ael	-2300
▁mom	-2301
▁saw	-2302
▁eastern	-2303
▁protests	-2304
▁constitution	-2305
▁fun	-2306
icted	-2307
▁sect	-2308
▁vice	-2309
▁colle	-2310
▁closed	-2311
▁effect	-2312
▁strike	-2313
▁warned	-2314
hu	-2315
ots	-2316
form	-2317
iana	-2318
▁esc	-2319
▁lower	-2320
▁polls	-2321
▁angeles	-2322
▁decided	-2323
oid	-2324
▁writ	-2325
▁getting	-2326
▁popular	-2327
▁charged	-2328
▁hillary	-2329
▁warning	-2330
▁apparent	-2331
ni	-2332
val	-2333
▁fle	-2334
▁try	-2335
▁lawmakers	-2336
,''	-2337
raz	-2338
use	-2339
pted	-2340
▁pos	-2341
▁jail	-2342
▁repl	-2343
▁impro	-2344
▁phone	-2345
▁sales	-2346
▁issued	-2347
▁dang	-2348
▁democr	-2349
▁expect	-2350
▁reached	-2351
▁something	-2352
yl	-2353
not	-2354
▁rob	-2355
ither	-2356
ories	-2357
▁blast	-2358
▁match	-2359
▁share	-2360
▁issues	-2361
▁opened	-2362
▁survey	-2363
▁exchange	-2364
inted	-2365
▁gold	-2366
▁mexic	-2367
stand	-2368
▁bhut	-2369
lished	-2370
▁award	-2371
bs	-2372
▁moo	-2373
▁deli	-2374
▁officer	-2375
▁majority	-2376
▁condition	-2377
ilar	-2378
▁deep	-2379
▁colomb	-2380
▁address	-2381
▁provide	-2382
den	-2383
ula	-2384
ounds	-2385
▁educ	-2386
mitted	-2387
▁resear	-2388
▁turkey	-2389
▁executive	-2390
▁bir	-2391
▁jobs	-2392
▁pain	-2393
▁higher	-2394
▁assembly	-2395
▁democracy	-2396
▁residents	-2397
▁project	-2398
▁launched	-2399
bi	-2400
cy	-2401
▁hon	-2402
▁tex	-2403
▁failed	-2404
▁olympic	-2405
pe	-2406
ron	-2407
ball	-2408
▁bod	-2409
ction	-2410
▁social	-2411
▁carrying	-2412
▁civilians	-2413
igr	-2414
uted	-2415
▁prep	-2416
▁county	-2417
▁experts	-2418
▁similar	-2419
▁estimated	-2420
rents	-2421
▁pred	-2422
ential	-2423
▁bhutto	-2424
▁result	-2425
▁safety	-2426
▁william	-2427
▁continued	-2428
▁described	-2429
sel	-2430
ires	-2431
ners	-2432
▁tor	-2433
while	-2434
▁lives	-2435
▁offer	-2436
▁denied	-2437
▁forced	-2438
fer	-2439
▁ten	-2440
arian	-2441
▁dail	-2442
▁embass	-2443
▁primary	-2444
▁qual	-2445
▁wind	-2446
▁became	-2447
▁effort	-2448
▁arrived	-2449
▁indones	-2450
▁concerns	-2451
ches	-2452
▁hous	-2453
▁damage	-2454
▁comment	-2455
▁destroy	-2456
▁running	-2457
▁witness	-2458
▁daughter	-2459
▁hostages	-2460
▁community	-2461
zz	-2462
▁prob	-2463
▁rule	-2464
▁battle	-2465
▁speech	-2466
▁kind	-2467
▁send	-2468
▁compl	-2469
▁celebr	-2470
▁counter	-2471
▁speaking	-2472
▁delegates	-2473
▁identified	-2474
aled	-2475
▁rout	-2476
▁leave	-2477
▁texas	-2478
▁virgin	-2479
▁ordered	-2480
▁asian	-2481
▁daily	-2482
▁himself	-2483
▁justice	-2484
▁australian	-2485
▁river	-2486
▁store	-2487
▁story	-2488
▁champions	-2489
uses	-2490
▁wild	-2491
▁often	-2492
▁parties	-2493
▁eth	-2494
▁fav	-2495
uries	-2496
ctions	-2497
ensive	-2498
▁cerem	-2499
▁field	-2500
▁average	-2501
▁suspected	-2502
iod	-2503
ott	-2504
ares	-2505
▁cars	-2506
jected	-2507
▁fired	-2508
▁instit	-2509
▁husband	-2510
▁tim	-2511
anmar	-2512
▁cult	-2513
▁joint	-2514
▁legal	-2515
▁named	-2516
▁radio	-2517
▁traff	-2518
▁prevent	-2519
▁complete	-2520
▁why	-2521
▁shows	-2522
▁disapp	-2523
▁myanmar	-2524
▁demonstr	-2525
ye	-2526
ana	-2527
udi	-2528
▁wide	-2529
▁urged	-2530
▁respon	-2531
▁association	-2532
ilies	-2533
▁dism	-2534
▁doing	-2535
▁royal	-2536
▁spent	-2537
▁kong	-2538
ection	-2539
▁things	-2540
▁details	-2541
▁senator	-2542
▁families	-2543
iles	-2544
ocks	-2545
▁conn	-2546
▁access	-2547
▁aftern	-2548
▁mountain	-2549
ashed	-2550
▁stat	-2551
▁cabin	-2552
▁danger	-2553
▁programs	-2554
af	-2555
hest	-2556
▁laws	-2557
▁scre	-2558
▁iranian	-2559
▁message	-2560
▁present	-2561
▁computer	-2562
▁afternoon	-2563
▁meanwhile	-2564
kn	-2565
▁nato	-2566
▁smok	-2567
▁talk	-2568
ficult	-2569
▁period	-2570
▁embassy	-2571
▁parents	-2572
▁particip	-2573
uf	-2574
▁enc	-2575
▁hun	-2576
▁club	-2577
▁prem	-2578
▁risk	-2579
▁bodies	-2580
▁custom	-2581
▁engine	-2582
▁launch	-2583
▁calling	-2584
▁governor	-2585
▁transport	-2586
▁production	-2587
▁ah	-2588
igin	-2589
▁coop	-2590
▁africa	-2591
▁fourth	-2592
▁brought	-2593
▁missile	-2594
▁withdraw	-2595
oming	-2596
▁brief	-2597
▁camer	-2598
▁cases	-2599
▁chance	-2600
▁struck	-2601
▁refused	-2602
▁difficult	-2603
▁population	-2604
▁resolution	-2605
ania	-2606
heast	-2607
▁kilome	-2608
▁measures	-2609
▁researchers	-2610
ata	-2611
▁abd	-2612
▁non	-2613
▁wel	-2614
▁cast	-2615
▁rise	-2616
▁played	-2617
▁citizens	-2618
▁candidates	-2619
▁increasing	-2620
aces	-2621
rugg	-2622
▁buy	-2623
▁cop	-2624
▁pled	-2625
▁rain	-2626
▁deputy	-2627
▁minute	-2628
▁streets	-2629
de	-2630
ask	-2631
vere	-2632
▁fif	-2633
▁pict	-2634
▁safe	-2635
engers	-2636
▁broke	-2637
▁funds	-2638
▁always	-2639
▁robert	-2640
▁carried	-2641
mad	-2642
▁cy	-2643
▁ber	-2644
▁ple	-2645
▁armed	-2646
▁parts	-2647
▁worst	-2648
▁living	-2649
▁reform	-2650
▁strugg	-2651
▁accident	-2652
▁nomination	-2653
ortun	-2654
▁rival	-2655
▁scene	-2656
▁trial	-2657
▁doctors	-2658
▁holding	-2659
▁opening	-2660
▁related	-2661
irc	-2662
ote	-2663
▁aw	-2664
▁oh	-2665
iled	-2666
▁dog	-2667
▁nor	-2668
▁ended	-2669
▁guard	-2670
▁means	-2671
▁occur	-2672
ighters	-2673
▁ambass	-2674
pec	-2675
airs	-2676
hood	-2677
▁bal	-2678
▁rose	-2679
▁turk	-2680
▁attemp	-2681
▁rocket	-2682
▁leaving	-2683
▁included	-2684
isl	-2685
▁imm	-2686
enced	-2687
▁done	-2688
▁birth	-2689
▁freed	-2690
▁claims	-2691
▁returned	-2692
▁expressed	-2693
▁terrorist	-2694
▁passengers	-2695
▁sud	-2696
ences	-2697
▁illegal	-2698
▁followed	-2699
▁progress	-2700
▁mob	-2701
there	-2702
▁bene	-2703
▁braz	-2704
▁norm	-2705
▁putin	-2706
▁rally	-2707
▁resum	-2708
▁refuge	-2709
▁english	-2710
▁interior	-2711
iff	-2712
ows	-2713
▁pun	-2714
▁evac	-2715
▁mart	-2716
▁crash	-2717
▁prince	-2718
▁raised	-2719
▁african	-2720
▁cabinet	-2721
▁michael	-2722
▁position	-2723
ara	-2724
orth	-2725
▁bit	-2726
▁ele	-2727
▁avail	-2728
▁blood	-2729
▁index	-2730
▁track	-2731
▁commer	-2732
▁credit	-2733
▁brother	-2734
▁traffic	-2735
▁tai	-2736
▁crowd	-2737
ability	-2738
ecution	-2739
ination	-2740
▁rescue	-2741
▁certain	-2742
▁millions	-2743
▁sanctions	-2744
▁fem	-2745
▁surr	-2746
▁cities	-2747
▁allowed	-2748
▁friends	-2749
▁comments	-2750
▁democrats	-2751
iant	-2752
owed	-2753
read	-2754
▁cub	-2755
aging	-2756
▁sites	-2757
▁origin	-2758
▁passed	-2759
▁source	-2760
een	-2761
ges	-2762
▁chic	-2763
▁circ	-2764
▁debate	-2765
▁personal	-2766
▁conditions	-2767
ev	-2768
ceed	-2769
▁bud	-2770
▁pil	-2771
▁poor	-2772
▁brazil	-2773
▁terrorism	-2774
uing	-2775
▁fly	-2776
▁feat	-2777
▁seat	-2778
▁mater	-2779
▁available	-2780
▁activities	-2781
▁operations	-2782
amb	-2783
lant	-2784
▁pic	-2785
▁accept	-2786
▁legisl	-2787
▁mexico	-2788
▁concern	-2789
▁announcement	-2790
hen	-2791
iet	-2792
▁feet	-2793
▁lear	-2794
▁snow	-2795
▁ready	-2796
▁proper	-2797
▁ambassador	-2798
lled	-2799
oned	-2800
▁pul	-2801
licop	-2802
▁draw	-2803
▁carol	-2804
▁doesn	-2805
▁needs	-2806
▁helicop	-2807
▁broadcast	-2808
▁controvers	-2809
rial	-2810
wood	-2811
aries	-2812
▁mult	-2813
▁insurg	-2814
▁matter	-2815
▁taiwan	-2816
▁respond	-2817
▁neighbor	-2818
uk	-2819
att	-2820
ped	-2821
▁ts	-2822
aped	-2823
resp	-2824
going	-2825
▁franc	-2826
▁moved	-2827
▁histor	-2828
▁murder	-2829
▁worked	-2830
▁cat	-2831
istic	-2832
▁crack	-2833
▁hopes	-2834
agement	-2835
▁treatment	-2836
▁dow	-2837
▁eas	-2838
▁vac	-2839
atory	-2840
▁trou	-2841
aining	-2842
▁estab	-2843
▁italy	-2844
▁course	-2845
▁decades	-2846
ead	-2847
aves	-2848
they	-2849
inois	-2850
▁astr	-2851
▁fans	-2852
▁ital	-2853
▁temp	-2854
▁contest	-2855
▁illinois	-2856
▁relationship	-2857
ece	-2858
▁huge	-2859
▁aimed	-2860
▁favor	-2861
▁longer	-2862
▁trading	-2863
▁fel	-2864
▁obs	-2865
▁pow	-2866
ients	-2867
pping	-2868
▁born	-2869
▁repe	-2870
▁toll	-2871
▁above	-2872
▁advis	-2873
▁gener	-2874
▁smith	-2875
▁common	-2876
▁rising	-2877
▁square	-2878
▁nothing	-2879
▁declared	-2880
▁movement	-2881
▁destroyed	-2882
▁discovered	-2883
▁kilometers	-2884
▁ol	-2885
▁barre	-2886
▁stage	-2887
▁muslim	-2888
▁rebels	-2889
▁spread	-2890
▁chicago	-2891
▁schools	-2892
▁ceremony	-2893
▁virginia	-2894
▁currently	-2895
▁published	-2896
anish	-2897
▁flood	-2898
ilities	-2899
▁annual	-2900
▁atlant	-2901
▁remains	-2902
▁injuries	-2903
▁investigators	-2904
hol	-2905
ria	-2906
▁hen	-2907
▁nom	-2908
iance	-2909
▁data	-2910
▁love	-2911
▁banks	-2912
▁influ	-2913
▁saudi	-2914
▁earthqu	-2915
▁forward	-2916
▁contract	-2917
▁material	-2918
itt	-2919
ker	-2920
come	-2921
▁dom	-2922
▁mis	-2923
▁pur	-2924
▁ren	-2925
▁mail	-2926
▁hands	-2927
▁micro	-2928
▁spain	-2929
ization	-2930
▁satell	-2931
▁territ	-2932
▁instead	-2933
▁weather	-2934
▁winning	-2935
▁analysts	-2936
▁communic	-2937
▁shooting	-2938
▁suffered	-2939
gu	-2940
ike	-2941
idge	-2942
▁sure	-2943
insula	-2944
▁finding	-2945
▁spending	-2946
▁peninsula	-2947
▁photograp	-2948
▁gn	-2949
arks	-2950
▁arm	-2951
▁bul	-2952
▁ice	-2953
▁pac	-2954
▁xin	-2955
▁resol	-2956
▁charge	-2957
▁dozens	-2958
▁quoted	-2959
▁education	-2960
hua	-2961
▁dub	-2962
izing	-2963
▁highest	-2964
▁italian	-2965
▁profess	-2966
ification	-2967
▁employees	-2968
▁increased	-2969
▁questions	-2970
ha	-2971
▁''	-2972
avez	-2973
▁dar	-2974
▁emb	-2975
▁pus	-2976
ocked	-2977
▁card	-2978
▁fort	-2979
▁teen	-2980
▁surpr	-2981
▁chavez	-2982
▁female	-2983
▁helped	-2984
▁indian	-2985
▁nearby	-2986
▁evening	-2987
▁vehicle	-2988
▁construction	-2989
bas	-2990
cow	-2991
ift	-2992
▁fa	-2993
hold	-2994
▁aud	-2995
▁bin	-2996
▁swe	-2997
▁bang	-2998
selves	-2999
▁makes	-3000
▁adding	-3001
▁letter	-3002
▁manager	-3003
▁natural	-3004
▁turkish	-3005
of	-3006
emy	-3007
ugh	-3008
rain	-3009
west	-3010
▁lack	-3011
iation	-3012
idered	-3013
▁cover	-3014
▁focus	-3015
ruption	-3016
▁nomine	-3017
ological	-3018
▁collect	-3019
▁dropped	-3020
▁hearing	-3021
▁network	-3022
aur	-3023
overy	-3024
▁sens	-3025
▁worth	-3026
▁quickly	-3027
▁considered	-3028
▁themselves	-3029
aded	-3030
▁gar	-3031
▁nic	-3032
itude	-3033
▁farm	-3034
▁soci	-3035
▁spot	-3036
inking	-3037
▁concl	-3038
▁either	-3039
▁lawyer	-3040
▁challen	-3041
▁commander	-3042
▁investment	-3043
▁particular	-3044
aks	-3045
uit	-3046
▁dae	-3047
▁unc	-3048
fully	-3049
house	-3050
▁cannot	-3051
▁deploy	-3052
▁moscow	-3053
▁review	-3054
▁shiite	-3055
▁approved	-3056
▁consider	-3057
▁response	-3058
ateg	-3059
▁amb	-3060
▁gnp	-3061
▁opt	-3062
▁sle	-3063
▁euro	-3064
▁reve	-3065
▁jones	-3066
▁signed	-3067
▁dollars	-3068
▁seeking	-3069
▁detained	-3070
enez	-3071
craft	-3072
lines	-3073
preme	-3074
▁date	-3075
▁fill	-3076
▁rare	-3077
▁creat	-3078
▁displ	-3079
▁title	-3080
▁crimin	-3081
▁moment	-3082
pecially	-3083
▁playing	-3084
▁supreme	-3085
▁attention	-3086
▁independent	-3087
reng	-3088
room	-3089
▁row	-3090
▁arch	-3091
▁autom	-3092
▁chung	-3093
▁steps	-3094
▁massive	-3095
▁numbers	-3096
▁threatened	-3097
erve	-3098
▁kur	-3099
aling	-3100
▁appo	-3101
▁georg	-3102
▁single	-3103
▁players	-3104
▁diplomatic	-3105
nel	-3106
back	-3107
cing	-3108
mine	-3109
▁die	-3110
▁sil	-3111
▁jump	-3112
▁check	-3113
▁liber	-3114
▁speed	-3115
ificant	-3116
▁backed	-3117
▁condem	-3118
▁levels	-3119
▁necess	-3120
▁carolina	-3121
▁products	-3122
▁buildings	-3123
▁additional	-3124
▁especially	-3125
yan	-3126
onaut	-3127
▁kept	-3128
▁paid	-3129
▁vers	-3130
apping	-3131
▁cance	-3132
▁marri	-3133
▁plant	-3134
▁thing	-3135
▁dollar	-3136
▁xinhua	-3137
▁richard	-3138
▁transfer	-3139
▁allegedly	-3140
▁indonesia	-3141
▁industrial	-3142
▁allegations	-3143
▁ho	-3144
▁nasa	-3145
isters	-3146
▁monit	-3147
▁attend	-3148
▁driving	-3149
▁aircraft	-3150
▁responsible	-3151
nam	-3152
▁os	-3153
▁ful	-3154
acted	-3155
▁blue	-3156
▁drop	-3157
▁idea	-3158
▁build	-3159
▁giving	-3160
▁posted	-3161
▁reason	-3162
▁streng	-3163
▁changes	-3164
▁worldwide	-3165
▁parliamentary	-3166
▁kh	-3167
quar	-3168
▁und	-3169
jects	-3170
▁soft	-3171
▁boost	-3172
▁regul	-3173
▁create	-3174
▁affairs	-3175
▁anything	-3176
▁maintain	-3177
▁probably	-3178
▁convicted	-3179
▁defe	-3180
▁abbas	-3181
▁venez	-3182
▁overse	-3183
▁suspects	-3184
▁venezuel	-3185
▁visitors	-3186
▁investors	-3187
bed	-3188
olf	-3189
▁bi	-3190
amin	-3191
gery	-3192
▁dig	-3193
▁haw	-3194
▁ron	-3195
▁jack	-3196
▁animals	-3197
▁custody	-3198
▁offered	-3199
▁politic	-3200
▁session	-3201
▁suspect	-3202
▁institute	-3203
▁understand	-3204
▁responsibility	-3205
omm	-3206
ylv	-3207
ases	-3208
gypt	-3209
▁jer	-3210
▁mac	-3211
aught	-3212
hered	-3213
isted	-3214
nsylv	-3215
▁bird	-3216
▁guil	-3217
▁stra	-3218
▁costs	-3219
▁mayor	-3220
▁happened	-3221
▁pennsylv	-3222
▁separate	-3223
▁apparently	-3224
nes	-3225
▁ii	-3226
▁fre	-3227
▁batt	-3228
▁egypt	-3229
▁sides	-3230
▁cancer	-3231
▁perfor	-3232
▁century	-3233
▁potential	-3234
▁criticized	-3235
ado	-3236
kes	-3237
iger	-3238
ties	-3239
ional	-3240
ufact	-3241
▁shin	-3242
▁motor	-3243
▁penal	-3244
▁attacked	-3245
▁critical	-3246
▁manufact	-3247
▁training	-3248
▁explosion	-3249
hi	-3250
ken	-3251
ran	-3252
agon	-3253
▁ans	-3254
▁phys	-3255
▁remarks	-3256
▁student	-3257
▁admitted	-3258
▁occurred	-3259
▁planning	-3260
▁earthquake	-3261
▁previously	-3262
▁independence	-3263
arm	-3264
omp	-3265
rid	-3266
▁ow	-3267
ware	-3268
apers	-3269
▁raid	-3270
▁whom	-3271
▁olympics	-3272
▁remained	-3273
▁pennsylvania	-3274
▁environmental	-3275
rs	-3276
body	-3277
ises	-3278
ston	-3279
▁acce	-3280
▁jose	-3281
▁moon	-3282
▁weak	-3283
▁crime	-3284
▁evacu	-3285
▁sexual	-3286
▁college	-3287
▁pacific	-3288
▁opportun	-3289
▁rejected	-3290
▁las	-3291
▁mort	-3292
▁size	-3293
▁song	-3294
ailand	-3295
▁domin	-3296
▁harry	-3297
▁flights	-3298
▁vehicles	-3299
▁beginning	-3300
▁conservative	-3301
ba	-3302
lex	-3303
▁fer	-3304
▁mel	-3305
▁sky	-3306
alled	-3307
ively	-3308
orter	-3309
▁lang	-3310
▁ohio	-3311
▁shop	-3312
▁zone	-3313
▁heard	-3314
▁seats	-3315
▁corpor	-3316
▁propos	-3317
▁electric	-3318
▁thailand	-3319
▁insurgents	-3320
bre	-3321
▁ep	-3322
ibly	-3323
▁abs	-3324
erson	-3325
estic	-3326
▁rail	-3327
▁ties	-3328
▁extra	-3329
▁subst	-3330
▁shares	-3331
▁holiday	-3332
▁shortly	-3333
▁performan	-3334
abe	-3335
ica	-3336
▁bol	-3337
▁rod	-3338
▁firm	-3339
▁join	-3340
▁avoid	-3341
▁range	-3342
▁rules	-3343
▁sharp	-3344
▁tests	-3345
▁defend	-3346
▁forest	-3347
▁marine	-3348
▁account	-3349
▁contact	-3350
▁starting	-3351
▁authority	-3352
▁significant	-3353
wor	-3354
ream	-3355
tered	-3356
▁purs	-3357
▁ruled	-3358
▁combat	-3359
▁georgia	-3360
▁prisoners	-3361
▁satellite	-3362
▁prosecution	-3363
▁mc	-3364
ears	-3365
know	-3366
pper	-3367
▁shr	-3368
▁unf	-3369
uters	-3370
▁arms	-3371
▁doub	-3372
▁rock	-3373
▁artic	-3374
▁medic	-3375
▁pract	-3376
▁votes	-3377
▁winds	-3378
▁bombing	-3379
▁figures	-3380
▁society	-3381
▁includes	-3382
▁repeated	-3383
hy	-3384
▁id	-3385
▁ps	-3386
mert	-3387
▁deg	-3388
▁hall	-3389
▁scand	-3390
▁signs	-3391
▁spoke	-3392
▁blamed	-3393
▁linked	-3394
▁moving	-3395
▁nominee	-3396
▁reactor	-3397
▁surgery	-3398
▁consumer	-3399
soft	-3400
asion	-3401
▁baby	-3402
▁teac	-3403
encies	-3404
▁benef	-3405
▁bombs	-3406
▁built	-3407
▁faces	-3408
▁giant	-3409
▁serve	-3410
▁impact	-3411
▁rather	-3412
▁conflic	-3413
▁damaged	-3414
▁civilian	-3415
▁conducted	-3416
▁criticism	-3417
▁everything	-3418
▁leadership	-3419
wer	-3420
ping	-3421
▁bak	-3422
▁attr	-3423
▁bail	-3424
▁phil	-3425
lywood	-3426
▁relig	-3427
▁wrong	-3428
knowled	-3429
▁apolog	-3430
▁commerc	-3431
▁documents	-3432
no	-3433
ault	-3434
resh	-3435
ently	-3436
ullah	-3437
▁adop	-3438
▁remo	-3439
▁slow	-3440
lement	-3441
▁respect	-3442
▁electron	-3443
▁microsoft	-3444
▁professor	-3445
ao	-3446
itch	-3447
▁bay	-3448
▁lad	-3449
▁mas	-3450
oting	-3451
▁muse	-3452
▁opin	-3453
▁sale	-3454
▁fifth	-3455
▁rates	-3456
▁recon	-3457
▁player	-3458
▁severe	-3459
▁elected	-3460
▁determin	-3461
▁lebanese	-3462
▁proposed	-3463
▁tourists	-3464
▁acknowled	-3465
▁corruption	-3466
do	-3467
ogn	-3468
▁lib	-3469
field	-3470
force	-3471
▁trig	-3472
▁ahmad	-3473
▁prize	-3474
▁figure	-3475
▁restaur	-3476
▁addition	-3477
▁sentence	-3478
▁committed	-3479
▁management	-3480
ota	-3481
ych	-3482
▁hu	-3483
▁pi	-3484
abwe	-3485
ider	-3486
lies	-3487
rote	-3488
▁zimb	-3489
▁fears	-3490
▁shown	-3491
▁allies	-3492
▁career	-3493
▁charac	-3494
▁guilty	-3495
▁museum	-3496
▁recogn	-3497
▁confirm	-3498
▁someone	-3499
▁alliance	-3500
▁zimbabwe	-3501
eth	-3502
reg	-3503
▁lu	-3504
▁dut	-3505
▁jew	-3506
▁fish	-3507
▁girls	-3508
▁minor	-3509
▁works	-3510
▁citing	-3511
▁olmert	-3512
▁corresp	-3513
▁improve	-3514
▁neighborhood	-3515
▁au	-3516
▁gall	-3517
▁jung	-3518
▁wood	-3519
▁word	-3520
▁langu	-3521
▁assass	-3522
▁climate	-3523
▁created	-3524
▁showing	-3525
▁spanish	-3526
▁patients	-3527
▁powerful	-3528
▁operating	-3529
▁commercial	-3530
anda	-3531
ivid	-3532
keep	-3533
▁ali	-3534
▁fbi	-3535
▁gat	-3536
orial	-3537
▁kurd	-3538
rators	-3539
▁james	-3540
▁lines	-3541
▁sought	-3542
▁inspect	-3543
▁shuttle	-3544
▁written	-3545
▁actually	-3546
▁affected	-3547
▁marriage	-3548
ode	-3549
uan	-3550
▁et	-3551
▁ha	-3552
▁bbc	-3553
▁sty	-3554
where	-3555
▁fair	-3556
▁fest	-3557
▁sant	-3558
▁brain	-3559
▁filed	-3560
▁fresh	-3561
▁treas	-3562
▁wrote	-3563
▁animal	-3564
▁hurric	-3565
▁screen	-3566
▁compared	-3567
▁policies	-3568
▁astronaut	-3569
▁remaining	-3570
▁suspended	-3571
▁palestinians	-3572
ga	-3573
hs	-3574
unt	-3575
akers	-3576
icket	-3577
▁hurt	-3578
friend	-3579
▁actor	-3580
▁mosque	-3581
▁mostly	-3582
▁teleph	-3583
▁stopped	-3584
▁colombia	-3585
▁domestic	-3586
▁football	-3587
▁regional	-3588
ovo	-3589
ray	-3590
vez	-3591
vin	-3592
mark	-3593
▁oce	-3594
▁rap	-3595
▁uri	-3596
▁yong	-3597
▁names	-3598
▁refer	-3599
▁mobile	-3600
▁placed	-3601
▁collaps	-3602
▁francis	-3603
▁criminal	-3604
▁militant	-3605
▁dangerous	-3606
▁correspond	-3607
▁mah	-3608
▁sym	-3609
using	-3610
▁alex	-3611
▁seed	-3612
▁drugs	-3613
▁intro	-3614
▁myung	-3615
▁regime	-3616
▁stocks	-3617
▁supply	-3618
▁replace	-3619
▁ministers	-3620
▁necessary	-3621
▁km	-3622
▁ze	-3623
rupt	-3624
usal	-3625
ature	-3626
▁acad	-3627
▁heav	-3628
▁sher	-3629
▁gates	-3630
▁paper	-3631
▁restr	-3632
▁truck	-3633
▁itself	-3634
▁voting	-3635
▁complex	-3636
▁measure	-3637
▁science	-3638
▁activists	-3639
▁throughout	-3640
uff	-3641
▁gh	-3642
sein	-3643
▁box	-3644
▁flu	-3645
▁han	-3646
▁ram	-3647
agers	-3648
omber	-3649
▁stem	-3650
▁yang	-3651
ulated	-3652
▁crude	-3653
▁envoy	-3654
▁insur	-3655
▁quake	-3656
▁takes	-3657
▁words	-3658
▁normal	-3659
▁contrib	-3660
▁perform	-3661
▁forecast	-3662
▁hurricane	-3663
▁suggested	-3664
▁protection	-3665
▁journalists	-3666
ob	-3667
dog	-3668
ips	-3669
mon	-3670
ales	-3671
▁nar	-3672
▁ven	-3673
▁beach	-3674
▁queen	-3675
▁bridge	-3676
▁encour	-3677
▁events	-3678
▁images	-3679
▁seized	-3680
▁article	-3681
▁individ	-3682
▁wearing	-3683
▁disaster	-3684
▁headquar	-3685
▁peaceful	-3686
▁provided	-3687
▁concerned	-3688
▁yah	-3689
▁gang	-3690
▁magn	-3691
▁navy	-3692
▁serb	-3693
▁shel	-3694
▁apple	-3695
▁clean	-3696
▁twice	-3697
▁caught	-3698
▁malays	-3699
▁dispute	-3700
▁failure	-3701
▁reportedly	-3702
▁investigating	-3703
het	-3704
hib	-3705
ror	-3706
▁ul	-3707
like	-3708
▁cru	-3709
▁exc	-3710
▁cash	-3711
▁fast	-3712
▁flag	-3713
▁self	-3714
▁moham	-3715
▁panel	-3716
ression	-3717
▁anyone	-3718
▁appeal	-3719
▁suspic	-3720
▁gathered	-3721
▁positive	-3722
▁promised	-3723
▁territory	-3724
▁terrorists	-3725
aki	-3726
iki	-3727
rog	-3728
burg	-3729
▁ask	-3730
▁mug	-3731
▁felt	-3732
▁seek	-3733
coming	-3734
▁sleep	-3735
▁designed	-3736
▁hollywood	-3737
▁sentenced	-3738
▁headquarters	-3739
erc	-3740
ends	-3741
▁anc	-3742
▁gul	-3743
ander	-3744
ounts	-3745
▁jong	-3746
▁mach	-3747
▁surf	-3748
▁below	-3749
▁raise	-3750
▁abduct	-3751
▁madrid	-3752
▁meters	-3753
▁dismiss	-3754
▁lebanon	-3755
▁soldier	-3756
▁declined	-3757
▁customers	-3758
▁surrounding	-3759
ew	-3760
po	-3761
ams	-3762
ett	-3763
sen	-3764
▁da	-3765
ancy	-3766
ites	-3767
olic	-3768
vert	-3769
▁van	-3770
apore	-3771
iment	-3772
▁prec	-3773
▁laden	-3774
▁magaz	-3775
▁owner	-3776
▁terms	-3777
▁veter	-3778
▁joined	-3779
▁pulled	-3780
▁finance	-3781
▁helping	-3782
▁village	-3783
▁annivers	-3784
▁everyone	-3785
▁fighters	-3786
▁williams	-3787
▁witnesses	-3788
gn	-3789
bel	-3790
but	-3791
abul	-3792
road	-3793
▁ens	-3794
▁pir	-3795
▁goes	-3796
▁behav	-3797
▁drive	-3798
▁enter	-3799
▁ending	-3800
▁looked	-3801
▁recomm	-3802
▁reduce	-3803
▁largely	-3804
▁selling	-3805
▁violent	-3806
▁complain	-3807
▁anniversary	-3808
▁fo	-3809
abil	-3810
oded	-3811
olas	-3812
omic	-3813
onym	-3814
▁abe	-3815
▁lay	-3816
▁ton	-3817
▁else	-3818
▁hear	-3819
▁push	-3820
▁ways	-3821
▁wing	-3822
▁blair	-3823
▁dozen	-3824
▁patro	-3825
▁yahoo	-3826
▁barrel	-3827
▁mugabe	-3828
▁meetings	-3829
▁produced	-3830
▁singapore	-3831
mas	-3832
▁inn	-3833
▁kos	-3834
▁sho	-3835
▁fled	-3836
▁item	-3837
▁mary	-3838
▁page	-3839
iction	-3840
▁lands	-3841
▁ocean	-3842
▁psych	-3843
▁immigr	-3844
▁victim	-3845
▁critics	-3846
▁records	-3847
▁reuters	-3848
▁software	-3849
▁straight	-3850
▁establish	-3851
▁telephone	-3852
▁performance	-3853
dam	-3854
▁ly	-3855
aren	-3856
▁bear	-3857
▁kids	-3858
▁prin	-3859
utions	-3860
▁princ	-3861
▁prior	-3862
▁reduc	-3863
▁voted	-3864
▁canada	-3865
▁casual	-3866
▁winter	-3867
▁initial	-3868
▁opinion	-3869
▁pledged	-3870
▁regular	-3871
▁bombings	-3872
ps	-3873
sp	-3874
uded	-3875
▁ach	-3876
▁hav	-3877
arily	-3878
▁spir	-3879
▁aband	-3880
▁sunni	-3881
▁airline	-3882
▁demonst	-3883
▁involve	-3884
▁document	-3885
▁demanding	-3886
▁developing	-3887
▁considering	-3888
▁opportunity	-3889
ko	-3890
ery	-3891
igan	-3892
▁cro	-3893
▁eye	-3894
▁uns	-3895
inary	-3896
ordon	-3897
▁fine	-3898
▁pick	-3899
▁achie	-3900
▁coach	-3901
▁color	-3902
▁downt	-3903
▁peter	-3904
▁sudan	-3905
▁trail	-3906
▁waters	-3907
▁ongoing	-3908
▁determine	-3909
▁kidnapped	-3910
▁possibility	-3911
eing	-3912
fect	-3913
ille	-3914
rill	-3915
▁isn	-3916
▁jet	-3917
▁alco	-3918
▁bott	-3919
▁pent	-3920
▁tech	-3921
▁wasn	-3922
▁block	-3923
▁chann	-3924
▁somal	-3925
ictions	-3926
▁houses	-3927
▁winner	-3928
▁agencies	-3929
▁missiles	-3930
▁involving	-3931
▁controversial	-3932
gun	-3933
rer	-3934
▁ic	-3935
▁din	-3936
▁gal	-3937
▁tem	-3938
▁hair	-3939
▁model	-3940
▁doctor	-3941
▁double	-3942
heastern	-3943
▁premier	-3944
▁systems	-3945
▁airlines	-3946
▁deadline	-3947
▁overseas	-3948
▁christian	-3949
▁confidence	-3950
▁helicopter	-3951
uj	-3952
zza	-3953
▁ki	-3954
abad	-3955
▁lic	-3956
erate	-3957
iling	-3958
▁grad	-3959
▁rang	-3960
▁vess	-3961
▁score	-3962
▁steve	-3963
▁entire	-3964
▁surviv	-3965
▁distrib	-3966
▁sending	-3967
▁waiting	-3968
▁activity	-3969
▁targeted	-3970
▁christmas	-3971
,""	-3972
can	-3973
yes	-3974
▁ba	-3975
aked	-3976
▁eld	-3977
▁var	-3978
▁male	-3979
▁homel	-3980
▁tight	-3981
▁voice	-3982
▁choice	-3983
▁headed	-3984
▁maliki	-3985
▁pervez	-3986
▁hussein	-3987
▁developed	-3988
▁traveling	-3989
▁cooperation	-3990
new	-3991
▁ok	-3992
apse	-3993
wang	-3994
▁fra	-3995
▁gon	-3996
▁osc	-3997
ilipp	-3998
▁cold	-3999
▁lived	-4000
▁owned	-4001
▁deadly	-4002
▁famous	-4003
▁resume	-4004
▁ronald	-4005
▁sharif	-4006
▁spring	-4007
▁alcohol	-4008
▁content	-4009
▁overall	-4010
▁package	-4011
▁philipp	-4012
▁usually	-4013
▁directly	-4014
▁supplies	-4015
▁experience	-4016
▁resignation	-4017
▁constitutional	-4018
ube	-4019
une	-4020
▁sov	-4021
ashes	-4022
ender	-4023
▁gone	-4024
▁tank	-4025
▁alone	-4026
▁burma	-4027
▁cells	-4028
▁purch	-4029
▁defeat	-4030
▁kosovo	-4031
▁losing	-4032
▁temper	-4033
▁weight	-4034
▁appears	-4035
▁freedom	-4036
▁married	-4037
▁serving	-4038
▁challenge	-4039
▁computers	-4040
▁francisco	-4041
▁facilities	-4042
iro	-4043
pir	-4044
▁ko	-4045
reme	-4046
▁bed	-4047
▁nep	-4048
▁rub	-4049
▁mist	-4050
▁plot	-4051
▁speak	-4052
▁tells	-4053
▁trust	-4054
itarian	-4055
itation	-4056
▁argent	-4057
▁expand	-4058
▁herald	-4059
▁imposed	-4060
▁princip	-4061
▁scandal	-4062
▁magazine	-4063
▁pentagon	-4064
▁pictures	-4065
▁crackdown	-4066
▁northeast	-4067
▁prosecutor	-4068
▁republicans	-4069
▁particularly	-4070
▁demonstrators	-4071
gas	-4072
aska	-4073
▁abu	-4074
▁ari	-4075
▁god	-4076
▁hil	-4077
▁teh	-4078
▁band	-4079
▁clot	-4080
▁lone	-4081
▁mine	-4082
▁spar	-4083
▁oppon	-4084
▁amount	-4085
▁decade	-4086
▁gordon	-4087
▁howard	-4088
▁losses	-4089
▁palace	-4090
▁portug	-4091
▁relief	-4092
▁select	-4093
▁settle	-4094
▁soviet	-4095
▁ticket	-4096
▁quality	-4097
▁species	-4098
▁controlled	-4099
▁traditional	-4100
bon	-4101
▁gm	-4102
▁ib	-4103
azir	-4104
ezza	-4105
ique	-4106
▁ign	-4107
▁cong	-4108
▁knew	-4109
▁true	-4110
▁honor	-4111
▁rebel	-4112
▁route	-4113
▁users	-4114
oleezza	-4115
ologist	-4116
▁depart	-4117
▁gather	-4118
▁resort	-4119
▁sports	-4120
▁actions	-4121
▁setting	-4122
▁approach	-4123
▁language	-4124
▁presence	-4125
▁required	-4126
▁continues	-4127
▁convention	-4128
▁condoleezza	-4129
eric	-4130
▁gay	-4131
▁mir	-4132
aming	-4133
gered	-4134
▁auto	-4135
▁corn	-4136
▁door	-4137
▁meant	-4138
▁crimes	-4139
▁pounds	-4140
▁receive	-4141
▁removed	-4142
▁christop	-4143
▁conflict	-4144
▁politics	-4145
▁estimates	-4146
▁recession	-4147
▁determined	-4148
▁competition	-4149
▁governments	-4150
apt	-4151
hel	-4152
win	-4153
fort	-4154
tern	-4155
▁alb	-4156
▁bey	-4157
▁kyi	-4158
▁scr	-4159
▁spl	-4160
▁beck	-4161
▁exist	-4162
▁frank	-4163
▁fraud	-4164
▁kabul	-4165
▁teams	-4166
▁camera	-4167
▁curren	-4168
▁singer	-4169
▁tehran	-4170
▁deliver	-4171
▁hostage	-4172
▁located	-4173
▁reflect	-4174
▁behavior	-4175
▁collapse	-4176
▁apartment	-4177
▁influence	-4178
iced	-4179
unch	-4180
▁lou	-4181
▁ult	-4182
asons	-4183
▁boyc	-4184
▁cuts	-4185
▁dark	-4186
▁hang	-4187
▁inqu	-4188
▁purp	-4189
▁pregn	-4190
▁torch	-4191
▁finish	-4192
▁object	-4193
▁widely	-4194
▁assault	-4195
▁demands	-4196
▁lawyers	-4197
▁penalty	-4198
▁tibetan	-4199
▁visited	-4200
▁willing	-4201
▁accepted	-4202
▁approval	-4203
▁festival	-4204
▁original	-4205
▁tensions	-4206
▁collapsed	-4207
▁religious	-4208
▁christopher	-4209
▁neighboring	-4210
▁demonstrations	-4211
fur	-4212
ova	-4213
ums	-4214
enger	-4215
wards	-4216
▁dial	-4217
▁mind	-4218
ifying	-4219
▁liver	-4220
▁stars	-4221
▁syria	-4222
▁atomic	-4223
▁facing	-4224
▁places	-4225
▁planet	-4226
▁secure	-4227
▁kurdish	-4228
▁consumers	-4229
▁businesses	-4230
▁revolution	-4231
▁championship	-4232
nic	-4233
▁ku	-4234
iter	-4235
▁bil	-4236
▁mix	-4237
▁nad	-4238
▁typ	-4239
isher	-4240
▁pope	-4241
▁alive	-4242
▁firef	-4243
▁fully	-4244
▁obser	-4245
▁rapid	-4246
▁smoke	-4247
▁virus	-4248
mission	-4249
▁anonym	-4250
▁belong	-4251
▁bomber	-4252
▁picked	-4253
▁punish	-4254
▁actress	-4255
▁changed	-4256
▁housing	-4257
▁various	-4258
▁becoming	-4259
▁exploded	-4260
▁proposal	-4261
▁initially	-4262
▁suffering	-4263
▁explosives	-4264
▁politicians	-4265
▁increasingly	-4266
ami	-4267
oses	-4268
ront	-4269
▁sac	-4270
aksin	-4271
▁diss	-4272
▁pull	-4273
▁trib	-4274
▁unit	-4275
ateral	-4276
▁happy	-4277
▁holds	-4278
▁style	-4279
▁surge	-4280
▁beyond	-4281
▁served	-4282
▁spears	-4283
▁offices	-4284
▁attempted	-4285
▁islamabad	-4286
▁questioned	-4287
▁withdrawal	-4288
▁transportation	-4289
you	-4290
acts	-4291
berg	-4292
oral	-4293
▁pra	-4294
▁suu	-4295
ented	-4296
vered	-4297
▁mahm	-4298
▁roll	-4299
▁virt	-4300
▁walk	-4301
ension	-4302
▁dream	-4303
▁floor	-4304
▁items	-4305
▁junta	-4306
▁troop	-4307
▁vowed	-4308
western	-4309
▁ukrain	-4310
ferences	-4311
▁talking	-4312
▁warming	-4313
▁treasury	-4314
hens	-4315
ogue	-4316
▁der	-4317
▁fix	-4318
▁gra	-4319
▁luc	-4320
▁nev	-4321
ately	-4322
▁cath	-4323
▁sadr	-4324
▁stad	-4325
ounced	-4326
▁carri	-4327
▁climb	-4328
▁image	-4329
▁occup	-4330
▁troub	-4331
▁whole	-4332
▁affect	-4333
▁retail	-4334
▁slight	-4335
▁unless	-4336
▁attract	-4337
▁causing	-4338
▁extreme	-4339
▁nicolas	-4340
▁attempts	-4341
▁historic	-4342
▁assistant	-4343
▁evacuated	-4344
▁sometimes	-4345
zai	-4346
cher	-4347
ford	-4348
imum	-4349
part	-4350
rawn	-4351
▁cha	-4352
▁dna	-4353
▁hor	-4354
▁rac	-4355
▁sev	-4356
astic	-4357
▁gain	-4358
▁ilbo	-4359
▁ones	-4360
▁save	-4361
▁thai	-4362
▁unve	-4363
▁abuse	-4364
▁diana	-4365
▁taxes	-4366
▁value	-4367
chester	-4368
▁banned	-4369
▁highly	-4370
▁photos	-4371
▁unlike	-4372
▁wealth	-4373
▁clashes	-4374
▁contain	-4375
▁express	-4376
▁heavily	-4377
▁produce	-4378
▁demanded	-4379
▁division	-4380
▁southeast	-4381
cel	-4382
owa	-4383
time	-4384
▁enj	-4385
▁fro	-4386
▁orb	-4387
etnam	-4388
itzer	-4389
light	-4390
▁acqu	-4391
▁chem	-4392
▁rall	-4393
▁tony	-4394
▁exerc	-4395
▁fatah	-4396
▁heads	-4397
▁stood	-4398
▁arabia	-4399
▁beckham	-4400
▁charles	-4401
▁finally	-4402
▁thaksin	-4403
▁believes	-4404
▁possibly	-4405
▁property	-4406
▁foreigners	-4407
aro	-4408
iri	-4409
gage	-4410
adian	-4411
usion	-4412
▁cauc	-4413
▁heat	-4414
▁mile	-4415
▁onto	-4416
▁thin	-4417
▁examp	-4418
▁stone	-4419
▁happen	-4420
▁modern	-4421
▁scored	-4422
▁academy	-4423
▁footage	-4424
▁ranking	-4425
▁reserve	-4426
▁resolve	-4427
▁vietnam	-4428
▁allowing	-4429
▁finished	-4430
▁michigan	-4431
▁solution	-4432
▁implement	-4433
▁providing	-4434
▁assistance	-4435
▁nationwide	-4436
▁organizations	-4437
gen	-4438
ope	-4439
well	-4440
▁arr	-4441
▁gri	-4442
▁sar	-4443
▁zoo	-4444
▁blow	-4445
▁text	-4446
arding	-4447
nament	-4448
▁kenya	-4449
▁nepal	-4450
issions	-4451
ructure	-4452
▁broken	-4453
▁declar	-4454
▁kenned	-4455
▁koreas	-4456
▁channel	-4457
▁keeping	-4458
▁partner	-4459
▁treated	-4460
▁dialogue	-4461
▁prepared	-4462
▁character	-4463
▁tournament	-4464
mo	-4465
here	-4466
▁fal	-4467
anged	-4468
anium	-4469
▁bern	-4470
▁boat	-4471
▁symb	-4472
▁tons	-4473
▁trop	-4474
▁touch	-4475
▁accomp	-4476
▁adviser	-4477
▁enforce	-4478
▁entered	-4479
▁highway	-4480
▁require	-4481
▁stadium	-4482
▁telling	-4483
▁captured	-4484
▁refugees	-4485
▁entertain	-4486
▁correspondent	-4487
tr	-4488
ici	-4489
▁ut	-4490
icip	-4491
illa	-4492
▁hab	-4493
rison	-4494
▁ally	-4495
▁ariz	-4496
▁cart	-4497
▁cruc	-4498
▁exam	-4499
▁meth	-4500
ground	-4501
▁equal	-4502
▁hoped	-4503
▁probe	-4504
▁ships	-4505
▁vegas	-4506
▁buying	-4507
▁driver	-4508
▁injury	-4509
▁remote	-4510
▁tribal	-4511
▁kennedy	-4512
▁uranium	-4513
▁downtown	-4514
▁condemned	-4515
▁appearance	-4516
▁connection	-4517
▁profession	-4518
▁struggling	-4519
wa	-4520
ena	-4521
pro	-4522
ests	-4523
lets	-4524
rian	-4525
tery	-4526
ucks	-4527
▁tun	-4528
anced	-4529
inger	-4530
lands	-4531
oning	-4532
ushed	-4533
▁chec	-4534
▁cuba	-4535
▁rape	-4536
enders	-4537
ighter	-4538
▁dutch	-4539
▁equip	-4540
▁faced	-4541
▁films	-4542
▁goods	-4543
▁reven	-4544
▁roads	-4545
▁seems	-4546
▁saddam	-4547
▁ancient	-4548
▁arizona	-4549
▁culture	-4550
▁currency	-4551
▁facility	-4552
▁intended	-4553
▁killings	-4554
▁indicated	-4555
▁foundation	-4556
▁journalist	-4557
▁manchester	-4558
▁threatening	-4559
ho	-4560
ste	-4561
olit	-4562
oney	-4563
▁dogs	-4564
▁warr	-4565
usalem	-4566
▁books	-4567
▁delay	-4568
▁exact	-4569
▁rough	-4570
▁device	-4571
▁flying	-4572
▁handed	-4573
▁owners	-4574
▁phones	-4575
▁recall	-4576
▁conspir	-4577
▁delayed	-4578
▁greater	-4579
▁mahmoud	-4580
▁walking	-4581
▁windows	-4582
▁projects	-4583
▁standing	-4584
▁trillion	-4585
▁completed	-4586
▁jerusalem	-4587
▁strengthe	-4588
cle	-4589
iny	-4590
etts	-4591
idel	-4592
pool	-4593
▁gov	-4594
▁wen	-4595
achus	-4596
elled	-4597
usted	-4598
▁ford	-4599
▁goog	-4600
▁mand	-4601
▁rein	-4602
▁ring	-4603
▁sams	-4604
▁wire	-4605
▁wolf	-4606
▁colon	-4607
▁milan	-4608
▁spons	-4609
▁tough	-4610
▁fellow	-4611
▁karzai	-4612
▁obtain	-4613
▁walked	-4614
▁smaller	-4615
▁tourism	-4616
achusetts	-4617
▁champion	-4618
▁visiting	-4619
▁magnitude	-4620
▁relatives	-4621
▁seriously	-4622
▁declaration	-4623
▁massachusetts	-4624
za	-4625
dom	-4626
ipp	-4627
▁od	-4628
onom	-4629
rees	-4630
▁cbs	-4631
usive	-4632
▁bure	-4633
▁iowa	-4634
▁zeal	-4635
▁cents	-4636
▁frequ	-4637
▁sense	-4638
▁budget	-4639
▁ethnic	-4640
▁martin	-4641
▁crashed	-4642
▁picture	-4643
▁simpson	-4644
▁watched	-4645
▁canceled	-4646
▁personnel	-4647
▁involvement	-4648
ki	-4649
uth	-4650
wal	-4651
enty	-4652
rect	-4653
sequ	-4654
▁pit	-4655
orrow	-4656
pread	-4657
verse	-4658
▁gets	-4659
▁path	-4660
▁sand	-4661
▁torn	-4662
incial	-4663
▁angry	-4664
▁goals	-4665
▁louis	-4666
▁scale	-4667
▁cruise	-4668
▁extrem	-4669
▁gunmen	-4670
▁iraqis	-4671
▁narrow	-4672
▁nevada	-4673
▁outbre	-4674
▁bringing	-4675
▁relative	-4676
▁equipment	-4677
▁travelers	-4678
▁kidnapping	-4679
▁organizers	-4680
▁provincial	-4681
▁supporting	-4682
▁humanitarian	-4683
ols	-4684
▁ji	-4685
fire	-4686
▁jim	-4687
▁pel	-4688
ivity	-4689
ulate	-4690
isions	-4691
▁categ	-4692
▁draft	-4693
▁looks	-4694
▁table	-4695
▁advant	-4696
▁carbon	-4697
▁google	-4698
▁income	-4699
▁movies	-4700
▁profit	-4701
▁weapon	-4702
▁unclear	-4703
▁resident	-4704
▁discovery	-4705
▁survivors	-4706
▁venezuela	-4707
▁commissioner	-4708
she	-4709
inal	-4710
▁bow	-4711
▁log	-4712
arant	-4713
▁hung	-4714
▁jury	-4715
▁pret	-4716
idency	-4717
▁dubai	-4718
▁asking	-4719
▁hilton	-4720
▁tempor	-4721
▁weekly	-4722
▁crucial	-4723
▁exports	-4724
▁limited	-4725
▁samsung	-4726
▁sheriff	-4727
▁threats	-4728
idespread	-4729
▁administ	-4730
▁extended	-4731
▁reaction	-4732
▁dismissed	-4733
rah	-4734
▁cia	-4735
▁ric	-4736
ersey	-4737
▁bond	-4738
▁fash	-4739
▁gamb	-4740
▁isol	-4741
▁mike	-4742
▁toys	-4743
▁agric	-4744
▁cited	-4745
▁coord	-4746
▁defin	-4747
▁nobel	-4748
▁pilot	-4749
▁pound	-4750
▁rooms	-4751
▁subur	-4752
loyment	-4753
▁closer	-4754
▁guards	-4755
▁resour	-4756
▁unable	-4757
▁example	-4758
▁farmers	-4759
▁version	-4760
▁audience	-4761
▁lawmaker	-4762
▁memorial	-4763
▁partners	-4764
▁stations	-4765
▁surprise	-4766
▁casualties	-4767
▁speculation	-4768
▁representatives	-4769
va	-4770
lad	-4771
oph	-4772
sea	-4773
ura	-4774
esty	-4775
▁ash	-4776
▁ceo	-4777
osing	-4778
▁chel	-4779
▁kang	-4780
▁slam	-4781
ulting	-4782
▁fatal	-4783
▁niger	-4784
▁noted	-4785
▁oscar	-4786
duction	-4787
▁answer	-4788
▁berlin	-4789
▁formal	-4790
▁jumped	-4791
▁status	-4792
▁thanks	-4793
▁auction	-4794
▁disappo	-4795
▁fashion	-4796
▁jackson	-4797
▁johnson	-4798
▁proceed	-4799
▁princess	-4800
▁detention	-4801
▁electoral	-4802
▁delegation	-4803
▁eventually	-4804
▁discussions	-4805
ny	-4806
aze	-4807
bar	-4808
rend	-4809
▁bea	-4810
▁kat	-4811
▁rat	-4812
▁toy	-4813
aches	-4814
▁tape	-4815
▁wake	-4816
▁wave	-4817
▁wine	-4818
atures	-4819
▁innoc	-4820
▁nadal	-4821
▁spend	-4822
▁burned	-4823
▁columb	-4824
▁estate	-4825
▁regard	-4826
▁apology	-4827
▁bailout	-4828
▁cutting	-4829
▁opposed	-4830
▁perfect	-4831
▁speaker	-4832
▁trouble	-4833
▁agricult	-4834
▁invasion	-4835
▁reporter	-4836
▁diplomats	-4837
▁governing	-4838
▁liverpool	-4839
▁offensive	-4840
▁standards	-4841
▁electronic	-4842
▁negotiator	-4843
▁widespread	-4844
▁acknowledged	-4845
▁assassination	-4846
iano	-4847
what	-4848
▁lob	-4849
▁spr	-4850
ental	-4851
ulted	-4852
▁aide	-4853
▁dram	-4854
▁lady	-4855
▁lose	-4856
▁prel	-4857
▁suit	-4858
▁swim	-4859
▁wars	-4860
icient	-4861
inated	-4862
▁agent	-4863
▁deton	-4864
▁gains	-4865
▁relay	-4866
▁sound	-4867
▁sport	-4868
▁assess	-4869
▁babies	-4870
▁bought	-4871
▁cheney	-4872
▁decide	-4873
▁prompt	-4874
▁seeing	-4875
▁chelsea	-4876
▁landing	-4877
▁tonight	-4878
▁challeng	-4879
▁insisted	-4880
▁revealed	-4881
▁specific	-4882
▁watching	-4883
▁insurance	-4884
▁officially	-4885
▁presidency	-4886
▁counterpart	-4887
amm	-4888
gar	-4889
mun	-4890
oke	-4891
udd	-4892
oard	-4893
uers	-4894
▁atm	-4895
▁max	-4896
▁mph	-4897
inces	-4898
oding	-4899
ropri	-4900
▁carl	-4901
▁dani	-4902
▁mont	-4903
▁runs	-4904
▁diego	-4905
▁exile	-4906
▁maker	-4907
▁split	-4908
▁throw	-4909
▁unemp	-4910
▁abroad	-4911
▁applic	-4912
▁awards	-4913
▁buried	-4914
▁experi	-4915
▁powers	-4916
▁spirit	-4917
▁stores	-4918
▁stress	-4919
▁comfort	-4920
▁concert	-4921
▁covered	-4922
▁heading	-4923
▁learned	-4924
▁reasons	-4925
▁seconds	-4926
▁turning	-4927
▁internal	-4928
▁recovery	-4929
▁wounding	-4930
▁provinces	-4931
▁executives	-4932
ita	-4933
set	-4934
▁mu	-4935
aret	-4936
icks	-4937
ills	-4938
look	-4939
▁riv	-4940
ategy	-4941
▁chos	-4942
▁guns	-4943
▁alert	-4944
▁brand	-4945
▁comed	-4946
▁monks	-4947
▁piece	-4948
▁rural	-4949
▁stake	-4950
▁towns	-4951
▁worse	-4952
▁aboard	-4953
▁active	-4954
▁alaska	-4955
▁choose	-4956
▁humans	-4957
▁judges	-4958
▁marked	-4959
▁patrol	-4960
▁tested	-4961
▁founder	-4962
▁guarant	-4963
▁putting	-4964
▁smoking	-4965
▁claiming	-4966
▁malaysia	-4967
▁roadside	-4968
▁strategy	-4969
▁appointed	-4970
▁colombian	-4971
▁hospitals	-4972
▁tradition	-4973
▁newspapers	-4974
▁communications	-4975
enn	-4976
ipe	-4977
▁ec	-4978
book	-4979
erer	-4980
otic	-4981
unte	-4982
▁dod	-4983
▁lie	-4984
▁raf	-4985
▁rid	-4986
▁sam	-4987
▁sem	-4988
▁syd	-4989
▁easy	-4990
▁hamp	-4991
▁none	-4992
▁outr	-4993
▁rome	-4994
▁samp	-4995
▁thom	-4996
▁unus	-4997
▁catch	-4998
▁renew	-4999
▁youth	-5000
▁advert	-5001
▁export	-5002
▁jersey	-5003
▁sudden	-5004
▁treaty	-5005
▁display	-5006
▁falling	-5007
▁muslims	-5008
▁sparked	-5009
▁studies	-5010
▁volunte	-5011
▁attended	-5012
▁drinking	-5013
▁rescuers	-5014
▁triggered	-5015
▁completely	-5016
▁percentage	-5017
▁electricity	-5018
▁regulations	-5019
▁restrictions	-5020
isc	-5021
rys	-5022
zen	-5023
▁lt	-5024
byon	-5025
pect	-5026
rich	-5027
uals	-5028
▁cow	-5029
▁hug	-5030
▁nbc	-5031
▁tab	-5032
ollah	-5033
osure	-5034
ously	-5035
▁coff	-5036
▁tear	-5037
▁yell	-5038
action	-5039
▁leads	-5040
▁stret	-5041
▁allows	-5042
▁altern	-5043
▁assets	-5044
▁driven	-5045
▁ensure	-5046
▁filled	-5047
▁gained	-5048
▁soccer	-5049
▁sydney	-5050
▁decline	-5051
▁federer	-5052
▁install	-5053
▁liberal	-5054
▁trapped	-5055
▁ukraine	-5056
▁creating	-5057
▁tomorrow	-5058
▁yongbyon	-5059
▁passenger	-5060
ea	-5061
ris	-5062
rit	-5063
uri	-5064
▁iv	-5065
haps	-5066
that	-5067
iring	-5068
▁diam	-5069
▁dong	-5070
▁dump	-5071
▁feed	-5072
▁flow	-5073
▁ghaz	-5074
▁khan	-5075
▁pray	-5076
▁shan	-5077
▁skin	-5078
▁swed	-5079
▁type	-5080
▁upon	-5081
▁delta	-5082
▁divor	-5083
▁fewer	-5084
▁haven	-5085
▁initi	-5086
▁overn	-5087
▁prost	-5088
imately	-5089
▁planes	-5090
▁presum	-5091
▁resist	-5092
▁welcom	-5093
▁atlanta	-5094
▁follows	-5095
▁herself	-5096
▁raising	-5097
▁zealand	-5098
▁abdullah	-5099
▁benefits	-5100
▁deployed	-5101
▁prelimin	-5102
▁standard	-5103
▁advantage	-5104
▁corporate	-5105
▁inflation	-5106
▁overnight	-5107
▁destruction	-5108
bac	-5109
kin	-5110
rig	-5111
▁ru	-5112
abor	-5113
fare	-5114
feld	-5115
▁bon	-5116
▁dal	-5117
▁eve	-5118
▁hat	-5119
▁ker	-5120
ailed	-5121
works	-5122
▁budd	-5123
▁eyes	-5124
▁harm	-5125
▁manh	-5126
▁quit	-5127
▁stal	-5128
▁tall	-5129
▁bench	-5130
▁birds	-5131
▁enjoy	-5132
▁fires	-5133
▁forum	-5134
▁recru	-5135
▁landed	-5136
▁lowest	-5137
▁proced	-5138
▁simply	-5139
▁sister	-5140
▁targets	-5141
▁catholic	-5142
▁flooding	-5143
▁introduc	-5144
▁mohammed	-5145
▁practice	-5146
▁strongly	-5147
▁organized	-5148
▁returning	-5149
▁questioning	-5150
▁entertainment	-5151
awa	-5152
ded	-5153
kel	-5154
lor	-5155
▁pc	-5156
fall	-5157
oked	-5158
▁ble	-5159
▁suc	-5160
▁yon	-5161
oline	-5162
uster	-5163
▁fier	-5164
▁mour	-5165
▁plus	-5166
▁tort	-5167
▁wins	-5168
▁aides	-5169
▁begun	-5170
▁faith	-5171
▁maybe	-5172
▁santa	-5173
▁atmosp	-5174
▁devast	-5175
▁inches	-5176
▁trains	-5177
▁arrival	-5178
▁diamond	-5179
▁effects	-5180
▁rockets	-5181
▁canadian	-5182
▁physical	-5183
▁confident	-5184
▁northwest	-5185
▁conspiracy	-5186
▁statements	-5187
▁differences	-5188
▁preliminary	-5189
▁firefighters	-5190
fl	-5191
zb	-5192
hab	-5193
ram	-5194
uce	-5195
ugg	-5196
war	-5197
agan	-5198
stri	-5199
▁bob	-5200
ipped	-5201
▁boys	-5202
▁calm	-5203
▁edge	-5204
▁edit	-5205
▁flew	-5206
▁grab	-5207
▁outp	-5208
▁pair	-5209
▁shir	-5210
▁task	-5211
ivered	-5212
▁apart	-5213
▁corps	-5214
▁hwang	-5215
▁joong	-5216
▁optim	-5217
▁threw	-5218
▁campus	-5219
▁lifted	-5220
▁rivals	-5221
▁benazir	-5222
▁couples	-5223
▁healthy	-5224
▁islands	-5225
▁promote	-5226
▁reduced	-5227
▁strateg	-5228
▁strikes	-5229
▁delivery	-5230
▁medicine	-5231
▁slightly	-5232
▁unveiled	-5233
▁discussed	-5234
▁reporting	-5235
▁investigate	-5236
▁hospitalized	-5237
awi	-5238
bur	-5239
rey	-5240
▁eh	-5241
arta	-5242
ctic	-5243
iest	-5244
life	-5245
zing	-5246
▁bah	-5247
▁cry	-5248
▁fab	-5249
▁wil	-5250
stein	-5251
ville	-5252
▁aids	-5253
▁ease	-5254
▁gonz	-5255
▁hezb	-5256
▁stim	-5257
▁yout	-5258
rysler	-5259
▁agend	-5260
▁boats	-5261
▁dress	-5262
▁fayed	-5263
▁older	-5264
▁daniel	-5265
▁gunman	-5266
▁larger	-5267
▁plants	-5268
▁ranked	-5269
▁simple	-5270
▁vessel	-5271
▁advance	-5272
▁beating	-5273
▁closing	-5274
▁journey	-5275
▁lawsuit	-5276
▁perhaps	-5277
▁promise	-5278
▁radical	-5279
▁wedding	-5280
▁chemical	-5281
▁offering	-5282
▁upcoming	-5283
▁anonymity	-5284
▁delivered	-5285
▁hezbollah	-5286
▁opponents	-5287
▁preparing	-5288
▁requested	-5289
▁searching	-5290
▁supported	-5291
▁commitment	-5292
▁continuing	-5293
▁transition	-5294
▁legislation	-5295
▁unemployment	-5296
da	-5297
era	-5298
unk	-5299
bery	-5300
hist	-5301
▁ath	-5302
▁fan	-5303
▁jes	-5304
▁tan	-5305
▁via	-5306
▁wis	-5307
ading	-5308
▁cycl	-5309
▁dict	-5310
▁pump	-5311
iously	-5312
▁doubt	-5313
▁frozen	-5314
▁hoping	-5315
▁margin	-5316
▁valley	-5317
▁connect	-5318
▁consult	-5319
▁invited	-5320
▁mention	-5321
▁succeed	-5322
▁testing	-5323
▁youtube	-5324
▁breaking	-5325
▁cultural	-5326
▁prompted	-5327
▁household	-5328
▁materials	-5329
▁recovered	-5330
▁resources	-5331
▁restaurant	-5332
▁successful	-5333
▁helicopters	-5334
▁temperatures	-5335
hap	-5336
kok	-5337
see	-5338
sid	-5339
ume	-5340
etic	-5341
iami	-5342
iang	-5343
▁ped	-5344
▁wid	-5345
▁appl	-5346
▁lake	-5347
▁neck	-5348
▁sail	-5349
▁scot	-5350
▁tsun	-5351
akarta	-5352
▁blame	-5353
▁knows	-5354
▁miami	-5355
▁solar	-5356
▁agenda	-5357
▁formed	-5358
▁method	-5359
▁perman	-5360
▁pushed	-5361
▁sector	-5362
▁seemed	-5363
▁urging	-5364
▁volcan	-5365
▁wonder	-5366
▁aggress	-5367
▁airstri	-5368
▁bangkok	-5369
▁centers	-5370
▁chances	-5371
▁complic	-5372
▁digital	-5373
▁focused	-5374
▁kingdom	-5375
▁refugee	-5376
▁gasoline	-5377
▁suggests	-5378
▁southwest	-5379
ikh	-5380
nis	-5381
▁az	-5382
▁ip	-5383
ouri	-5384
whel	-5385
▁adj	-5386
▁guy	-5387
abeth	-5388
▁amaz	-5389
▁boss	-5390
▁conc	-5391
▁ehud	-5392
▁sean	-5393
▁sick	-5394
▁tied	-5395
▁visa	-5396
▁vlad	-5397
▁breat	-5398
▁drove	-5399
▁petro	-5400
▁quite	-5401
▁spect	-5402
▁strip	-5403
▁acting	-5404
▁barcel	-5405
▁convoy	-5406
▁degree	-5407
▁expert	-5408
▁fought	-5409
▁potter	-5410
▁remove	-5411
entially	-5412
▁edwards	-5413
▁matches	-5414
▁neither	-5415
▁pushing	-5416
▁recover	-5417
▁retired	-5418
▁subject	-5419
▁tourist	-5420
▁tsunami	-5421
▁entering	-5422
▁favorite	-5423
▁findings	-5424
▁friendly	-5425
▁location	-5426
▁maryland	-5427
▁messages	-5428
▁negative	-5429
▁outbreak	-5430
▁resigned	-5431
▁argentina	-5432
▁emissions	-5433
▁producing	-5434
▁manufacture	-5435
▁congressional	-5436
vi	-5437
aug	-5438
▁ak	-5439
▁ta	-5440
▁hub	-5441
▁lah	-5442
▁spy	-5443
agues	-5444
▁cool	-5445
▁ends	-5446
▁erup	-5447
▁excl	-5448
▁gard	-5449
▁hero	-5450
▁hole	-5451
▁leng	-5452
▁prol	-5453
▁rebu	-5454
▁sony	-5455
▁gives	-5456
▁loans	-5457
▁macau	-5458
istered	-5459
▁adults	-5460
▁bureau	-5461
▁detain	-5462
▁jailed	-5463
▁landsl	-5464
▁nature	-5465
▁offers	-5466
▁banking	-5467
▁boycott	-5468
▁captain	-5469
▁drivers	-5470
▁staying	-5471
▁estimate	-5472
▁exercise	-5473
▁overwhel	-5474
▁reaching	-5475
▁teachers	-5476
▁warnings	-5477
▁barcelona	-5478
▁predicted	-5479
▁stability	-5480
▁generation	-5481
▁administrat	-5482
kk	-5483
ato	-5484
isf	-5485
lig	-5486
pan	-5487
▁ia	-5488
▁abc	-5489
▁mun	-5490
ansas	-5491
olute	-5492
water	-5493
▁airb	-5494
▁bell	-5495
▁debt	-5496
▁jeff	-5497
▁liqu	-5498
▁scen	-5499
▁sets	-5500
olitan	-5501
▁adopt	-5502
▁album	-5503
▁cease	-5504
▁lying	-5505
▁steel	-5506
▁crowds	-5507
▁darfur	-5508
▁disarm	-5509
▁earned	-5510
▁thomas	-5511
▁achieve	-5512
▁coastal	-5513
▁convers	-5514
▁dismant	-5515
▁edition	-5516
▁escaped	-5517
▁funding	-5518
▁reality	-5519
▁statist	-5520
▁towards	-5521
▁producer	-5522
▁shopping	-5523
▁certainly	-5524
▁concluded	-5525
▁disappear	-5526
▁referring	-5527
▁responded	-5528
▁targeting	-5529
▁repeatedly	-5530
▁enforcement	-5531
ek	-5532
had	-5533
inn	-5534
odo	-5535
oma	-5536
▁du	-5537
▁pu	-5538
rick	-5539
▁eat	-5540
▁fit	-5541
▁gib	-5542
▁lar	-5543
▁tay	-5544
▁unp	-5545
osite	-5546
▁drag	-5547
▁drew	-5548
▁exit	-5549
▁extr	-5550
▁fate	-5551
▁gulf	-5552
▁lama	-5553
▁note	-5554
▁pace	-5555
▁sust	-5556
▁vast	-5557
orders	-5558
▁chart	-5559
▁dalai	-5560
▁debut	-5561
▁enemy	-5562
▁glass	-5563
▁globe	-5564
▁plung	-5565
▁prove	-5566
▁upper	-5567
▁couldn	-5568
▁detect	-5569
▁fisher	-5570
▁serbia	-5571
▁yellow	-5572
▁erupted	-5573
▁failing	-5574
▁patient	-5575
▁profile	-5576
▁reading	-5577
▁regions	-5578
▁stepped	-5579
▁welcome	-5580
▁accompan	-5581
▁atlantic	-5582
▁birthday	-5583
▁chrysler	-5584
▁colorado	-5585
▁recorded	-5586
▁strength	-5587
▁substant	-5588
▁survived	-5589
▁colleagues	-5590
▁girlfriend	-5591
▁introduced	-5592
▁expectations	-5593
asc	-5594
chi	-5595
inct	-5596
onic	-5597
oria	-5598
▁bac	-5599
▁cos	-5600
▁nav	-5601
▁rig	-5602
attan	-5603
leine	-5604
▁argu	-5605
▁belg	-5606
▁bost	-5607
▁copy	-5608
▁sear	-5609
▁vari	-5610
minent	-5611
▁accus	-5612
▁basic	-5613
▁discl	-5614
▁ideas	-5615
▁osama	-5616
▁reloc	-5617
▁trees	-5618
▁cleric	-5619
▁fallen	-5620
▁floods	-5621
▁pretty	-5622
▁runner	-5623
▁shrine	-5624
▁appoint	-5625
▁clearly	-5626
▁options	-5627
▁surface	-5628
▁writing	-5629
▁confront	-5630
▁homeland	-5631
▁pregnant	-5632
▁scotland	-5633
▁troubled	-5634
▁vacation	-5635
▁bilateral	-5636
▁extremely	-5637
▁inspectors	-5638
▁controversy	-5639
▁unification	-5640
rae	-5641
rec	-5642
▁ox	-5643
emic	-5644
imir	-5645
omes	-5646
ques	-5647
▁aer	-5648
▁jam	-5649
▁kaz	-5650
▁sin	-5651
▁code	-5652
▁emph	-5653
▁grew	-5654
▁mars	-5655
▁merc	-5656
▁wait	-5657
▁warm	-5658
▁basis	-5659
▁grave	-5660
▁overt	-5661
▁sixth	-5662
▁squad	-5663
▁afford	-5664
▁beaten	-5665
▁bottom	-5666
▁corner	-5667
▁enrich	-5668
▁flames	-5669
▁lights	-5670
▁master	-5671
▁orders	-5672
▁termin	-5673
▁blocked	-5674
▁expects	-5675
▁illness	-5676
▁managed	-5677
▁teacher	-5678
▁infected	-5679
▁islamist	-5680
▁publicly	-5681
▁neighbors	-5682
▁immigration	-5683
▁professional	-5684
cri	-5685
daq	-5686
uct	-5687
▁cz	-5688
ghai	-5689
orse	-5690
▁gap	-5691
▁jul	-5692
▁kib	-5693
▁mut	-5694
▁syn	-5695
acity	-5696
deleg	-5697
inals	-5698
shire	-5699
undai	-5700
▁crop	-5701
▁eliz	-5702
▁jord	-5703
▁lift	-5704
▁tree	-5705
▁veto	-5706
▁abdul	-5707
▁anger	-5708
▁arsen	-5709
▁bound	-5710
▁exhib	-5711
▁inaug	-5712
▁label	-5713
▁limit	-5714
▁palin	-5715
▁roman	-5716
▁sarah	-5717
▁shock	-5718
▁views	-5719
▁boston	-5720
▁string	-5721
▁worker	-5722
▁yonhap	-5723
ologists	-5724
▁cleared	-5725
▁divided	-5726
▁hyundai	-5727
▁license	-5728
▁rallies	-5729
▁reforms	-5730
▁routine	-5731
▁caucuses	-5732
▁identify	-5733
▁shanghai	-5734
▁standoff	-5735
▁stronger	-5736
▁villages	-5737
▁vladimir	-5738
▁welcomed	-5739
▁interests	-5740
▁observers	-5741
▁registered	-5742
▁individuals	-5743
▁restaurants	-5744
▁conservation	-5745
▁southeastern	-5746
dc	-5747
iat	-5748
ini	-5749
more	-5750
▁era	-5751
▁gmt	-5752
▁gop	-5753
▁ire	-5754
erous	-5755
night	-5756
▁acts	-5757
▁aren	-5758
▁halt	-5759
▁lung	-5760
▁peru	-5761
▁tiny	-5762
▁vent	-5763
atican	-5764
inting	-5765
rating	-5766
▁basra	-5767
▁conce	-5768
▁escal	-5769
▁hawai	-5770
▁lohan	-5771
▁manip	-5772
▁newly	-5773
▁proud	-5774
▁shout	-5775
▁uncon	-5776
▁counts	-5777
▁disney	-5778
▁ghazni	-5779
▁intens	-5780
▁length	-5781
▁morgan	-5782
▁papers	-5783
▁adopted	-5784
▁anticip	-5785
▁bombers	-5786
▁closely	-5787
▁compens	-5788
▁cyclone	-5789
▁feeling	-5790
▁imports	-5791
▁stories	-5792
▁vatican	-5793
▁accounts	-5794
▁formally	-5795
▁struggle	-5796
▁detonated	-5797
▁madeleine	-5798
▁manhattan	-5799
▁peacekeep	-5800
▁positions	-5801
▁presented	-5802
▁astronauts	-5803
▁monitoring	-5804
don	-5805
ias	-5806
jad	-5807
roc	-5808
pass	-5809
▁rio	-5810
acing	-5811
▁ages	-5812
▁holy	-5813
▁plat	-5814
▁tack	-5815
▁anton	-5816
▁chile	-5817
▁drawn	-5818
▁hills	-5819
▁jesus	-5820
▁waste	-5821
▁athlet	-5822
▁escape	-5823
▁golden	-5824
▁jordan	-5825
▁kibaki	-5826
▁pledge	-5827
▁remark	-5828
▁videos	-5829
ropriate	-5830
▁ability	-5831
▁earning	-5832
▁meaning	-5833
▁pirates	-5834
▁younger	-5835
▁compound	-5836
▁tropical	-5837
▁alexander	-5838
▁elizabeth	-5839
▁engineers	-5840
▁permanent	-5841
▁atmosphere	-5842
▁deployment	-5843
▁indonesian	-5844
▁participate	-5845
▁philippines	-5846
ju	-5847
aid	-5848
eed	-5849
ola	-5850
chen	-5851
enth	-5852
▁sli	-5853
ledge	-5854
lling	-5855
ptive	-5856
raeus	-5857
▁chen	-5858
▁duty	-5859
▁emot	-5860
▁lind	-5861
▁ride	-5862
▁stro	-5863
▁camps	-5864
▁gradu	-5865
▁scott	-5866
▁truth	-5867
▁bigger	-5868
▁boeing	-5869
▁bright	-5870
▁firing	-5871
▁hotels	-5872
▁engaged	-5873
▁forcing	-5874
▁airports	-5875
▁changing	-5876
▁contests	-5877
▁petraeus	-5878
▁portugal	-5879
▁gathering	-5880
▁suspicion	-5881
▁apologized	-5882
▁demonstration	-5883
gl	-5884
zo	-5885
aka	-5886
ala	-5887
arr	-5888
ean	-5889
ero	-5890
esc	-5891
how	-5892
oen	-5893
oth	-5894
pet	-5895
aine	-5896
ovic	-5897
wart	-5898
when	-5899
▁jon	-5900
▁pkk	-5901
▁sor	-5902
▁bull	-5903
▁chap	-5904
▁epic	-5905
▁foss	-5906
▁gore	-5907
▁harv	-5908
▁migr	-5909
▁uses	-5910
▁vacc	-5911
▁verd	-5912
asters	-5913
inejad	-5914
▁firms	-5915
▁grown	-5916
▁habit	-5917
▁learn	-5918
▁marks	-5919
▁mount	-5920
▁swiss	-5921
▁arrive	-5922
▁causes	-5923
▁circum	-5924
▁coffee	-5925
▁faster	-5926
▁leaves	-5927
▁mainly	-5928
▁option	-5929
▁reagan	-5930
▁reject	-5931
▁stimul	-5932
▁burning	-5933
▁degrees	-5934
▁jakarta	-5935
▁ronaldo	-5936
▁roughly	-5937
▁telecom	-5938
▁abducted	-5939
▁mortgage	-5940
▁unlikely	-5941
▁watchdog	-5942
▁effective	-5943
▁hampshire	-5944
▁reduction	-5945
▁attempting	-5946
▁difference	-5947
▁superdeleg	-5948
▁surrounded	-5949
▁ahmadinejad	-5950
▁southwestern	-5951
▁manufacturing	-5952
▁representative	-5953
has	-5954
iop	-5955
uts	-5956
vey	-5957
▁gi	-5958
airo	-5959
outs	-5960
▁ess	-5961
▁pad	-5962
acked	-5963
adesh	-5964
eared	-5965
icial	-5966
itely	-5967
▁beef	-5968
▁chad	-5969
▁farc	-5970
▁hasn	-5971
▁hunt	-5972
▁iaea	-5973
▁mamm	-5974
▁nick	-5975
▁reun	-5976
▁stun	-5977
▁delhi	-5978
▁elder	-5979
▁greet	-5980
▁unity	-5981
▁eating	-5982
▁memory	-5983
▁metrop	-5984
▁nasdaq	-5985
▁packed	-5986
▁stance	-5987
▁stands	-5988
▁unions	-5989
▁arsenal	-5990
▁capable	-5991
▁charity	-5992
▁restore	-5993
▁secular	-5994
▁worried	-5995
▁capacity	-5996
▁identity	-5997
▁passport	-5998
▁traveled	-5999
▁wildlife	-6000
▁primaries	-6001
▁violation	-6002
▁originally	-6003
▁venezuelan	-6004
▁disarmament	-6005
▁engineering	-6006
▁broadcasting	-6007
dy	-6008
oli	-6009
zed	-6010
▁rh	-6011
adel	-6012
ella	-6013
icit	-6014
ilit	-6015
▁lux	-6016
oking	-6017
owitz	-6018
▁link	-6019
▁mate	-6020
▁sche	-6021
▁sort	-6022
ocking	-6023
▁bangl	-6024
▁barri	-6025
▁moves	-6026
▁phoen	-6027
▁urban	-6028
attered	-6029
▁begins	-6030
▁broadc	-6031
▁cooper	-6032
▁hawaii	-6033
▁mccann	-6034
▁shared	-6035
▁superv	-6036
▁emerged	-6037
▁endorse	-6038
▁founded	-6039
▁intense	-6040
▁rescued	-6041
▁section	-6042
▁stalled	-6043
▁absolute	-6044
▁circumst	-6045
▁columbia	-6046
▁diplomat	-6047
▁directed	-6048
▁features	-6049
▁normally	-6050
▁numerous	-6051
▁replaced	-6052
▁surveill	-6053
▁illegally	-6054
▁successor	-6055
▁challenges	-6056
▁individual	-6057
▁punishment	-6058
▁established	-6059
▁transferred	-6060
▁communication	-6061
,'	-6062
oms	-6063
▁ay	-6064
anch	-6065
arch	-6066
bing	-6067
bris	-6068
utal	-6069
▁ank	-6070
▁coc	-6071
▁nik	-6072
▁pin	-6073
▁rum	-6074
▁sha	-6075
iliar	-6076
known	-6077
verty	-6078
▁aged	-6079
▁barb	-6080
▁brig	-6081
▁tend	-6082
▁unif	-6083
▁yous	-6084
▁civic	-6085
▁liter	-6086
▁mouth	-6087
▁quiet	-6088
▁schol	-6089
▁shops	-6090
▁shore	-6091
▁wheel	-6092
▁bloody	-6093
▁chosen	-6094
▁debris	-6095
▁dinner	-6096
▁easily	-6097
▁greece	-6098
▁multip	-6099
▁scores	-6100
▁borders	-6101
▁consequ	-6102
▁indiana	-6103
▁phoenix	-6104
▁poverty	-6105
▁rapidly	-6106
▁striker	-6107
▁whaling	-6108
▁bankrupt	-6109
▁briefing	-6110
▁buddhist	-6111
▁innocent	-6112
▁midnight	-6113
▁supposed	-6114
▁direction	-6115
▁dominated	-6116
▁knowledge	-6117
▁televised	-6118
▁presidents	-6119
▁scientific	-6120
▁surveillance	-6121
gs	-6122
agn	-6123
alf	-6124
uls	-6125
▁eb	-6126
anes	-6127
irty	-6128
olis	-6129
rete	-6130
▁dur	-6131
▁fox	-6132
▁hiv	-6133
▁sri	-6134
▁vit	-6135
▁yem	-6136
every	-6137
▁chun	-6138
▁dick	-6139
▁guer	-6140
▁hide	-6141
▁lank	-6142
▁matt	-6143
▁ramp	-6144
▁sole	-6145
▁sons	-6146
▁typh	-6147
atever	-6148
encing	-6149
ichuan	-6150
▁amend	-6151
▁kevin	-6152
▁loyal	-6153
▁novel	-6154
▁photo	-6155
▁shots	-6156
▁airbus	-6157
▁castro	-6158
▁comedy	-6159
▁conver	-6160
▁guests	-6161
▁jewish	-6162
▁michel	-6163
▁paying	-6164
▁rating	-6165
▁steven	-6166
▁machine	-6167
▁maximum	-6168
▁mississ	-6169
▁patrick	-6170
▁plastic	-6171
▁referen	-6172
▁warrant	-6173
▁battling	-6174
▁mainland	-6175
▁schedule	-6176
▁expensive	-6177
▁prompting	-6178
▁recommend	-6179
▁communities	-6180
bl	-6181
tt	-6182
bor	-6183
imp	-6184
▁,"	-6185
▁na	-6186
▁ug	-6187
cons	-6188
ippi	-6189
mand	-6190
will	-6191
▁gor	-6192
▁hid	-6193
▁kit	-6194
▁seg	-6195
▁slo	-6196
ecess	-6197
under	-6198
▁summ	-6199
▁toug	-6200
▁chest	-6201
▁czech	-6202
▁henry	-6203
▁kerry	-6204
▁loved	-6205
▁metal	-6206
▁swept	-6207
▁yemen	-6208
through	-6209
▁archae	-6210
▁argued	-6211
▁depend	-6212
▁fierce	-6213
▁gallon	-6214
▁inquir	-6215
▁insist	-6216
▁interp	-6217
▁native	-6218
▁somali	-6219
▁storms	-6220
▁talked	-6221
▁austria	-6222
▁backing	-6223
▁briefly	-6224
▁fortune	-6225
▁letters	-6226
▁militia	-6227
▁musical	-6228
▁unusual	-6229
▁accusing	-6230
▁obtained	-6231
▁stressed	-6232
▁thinking	-6233
▁attending	-6234
▁brazilian	-6235
▁intention	-6236
▁nominated	-6237
▁scientist	-6238
▁sensitive	-6239
▁technical	-6240
▁enrichment	-6241
▁alternative	-6242
▁campaigning	-6243
▁mississippi	-6244
▁revolutionary	-6245
▁understanding	-6246
di	-6247
bod	-6248
bow	-6249
efa	-6250
met	-6251
rif	-6252
umi	-6253
uni	-6254
▁dv	-6255
eces	-6256
ustr	-6257
▁pap	-6258
▁pav	-6259
▁yes	-6260
antly	-6261
dinga	-6262
enses	-6263
ighth	-6264
point	-6265
rimin	-6266
▁bags	-6267
▁beer	-6268
▁cham	-6269
▁elev	-6270
▁fern	-6271
▁knee	-6272
▁uefa	-6273
▁wors	-6274
ashing	-6275
ortion	-6276
tering	-6277
▁antar	-6278
▁apply	-6279
▁bened	-6280
▁false	-6281
▁persu	-6282
▁spill	-6283
▁toxic	-6284
certain	-6285
▁accord	-6286
▁dubbed	-6287
▁elimin	-6288
▁emphas	-6289
▁except	-6290
▁odinga	-6291
▁staged	-6292
▁thirds	-6293
▁window	-6294
▁deliber	-6295
▁exactly	-6296
▁factory	-6297
▁funeral	-6298
▁hopeful	-6299
▁marines	-6300
▁virtual	-6301
▁advanced	-6302
▁category	-6303
▁concrete	-6304
▁controls	-6305
▁familiar	-6306
▁imprison	-6307
▁collection	-6308
▁complained	-6309
▁negotiators	-6310
▁participants	-6311
▁superdelegates	-6312
isa	-6313
ori	-6314
won	-6315
▁mr	-6316
▁si	-6317
▁uh	-6318
achi	-6319
anke	-6320
ourt	-6321
▁bes	-6322
▁tel	-6323
▁yen	-6324
dogan	-6325
echan	-6326
erved	-6327
essed	-6328
liest	-6329
▁lapt	-6330
▁mete	-6331
▁porn	-6332
▁ryan	-6333
▁alban	-6334
▁bills	-6335
▁drama	-6336
▁links	-6337
▁multi	-6338
▁shift	-6339
▁artist	-6340
▁courts	-6341
▁excess	-6342
▁feared	-6343
▁listed	-6344
▁prepar	-6345
▁prohib	-6346
▁romney	-6347
▁tennes	-6348
▁cameras	-6349
▁concent	-6350
▁erdogan	-6351
▁fishing	-6352
▁ireland	-6353
▁kidnapp	-6354
▁sharply	-6355
▁theater	-6356
▁uniform	-6357
▁unknown	-6358
▁worries	-6359
▁commerce	-6360
▁referend	-6361
▁alongside	-6362
▁boyfriend	-6363
▁celebrity	-6364
▁contained	-6365
▁incidents	-6366
▁bangladesh	-6367
▁disappointed	-6368
▁circumstances	-6369
▁investigations	-6370
oe	-6371
ua	-6372
dro	-6373
ios	-6374
ito	-6375
ius	-6376
jev	-6377
▁ka	-6378
▁ms	-6379
▁yi	-6380
ipel	-6381
irai	-6382
reek	-6383
wait	-6384
wise	-6385
▁moh	-6386
▁rif	-6387
▁thr	-6388
▁tsv	-6389
▁unn	-6390
aters	-6391
erted	-6392
imony	-6393
owing	-6394
▁kick	-6395
▁kiss	-6396
▁loan	-6397
▁palm	-6398
ighted	-6399
▁adult	-6400
▁cargo	-6401
▁deals	-6402
▁disag	-6403
▁error	-6404
▁laure	-6405
▁paulo	-6406
▁pilgr	-6407
▁plays	-6408
▁smugg	-6409
▁sweep	-6410
▁brutal	-6411
▁carter	-6412
▁height	-6413
▁joseph	-6414
▁mccorm	-6415
▁myster	-6416
▁runway	-6417
▁shield	-6418
▁strict	-6419
▁symbol	-6420
▁underw	-6421
▁citizen	-6422
▁counsel	-6423
▁dealing	-6424
▁divorce	-6425
▁fernand	-6426
▁ranging	-6427
▁sharing	-6428
▁trigger	-6429
▁veteran	-6430
▁writers	-6431
▁interrog	-6432
▁quarterf	-6433
▁performed	-6434
▁tennessee	-6435
▁villagers	-6436
▁wolfowitz	-6437
▁depression	-6438
▁suggesting	-6439
▁electronics	-6440
▁metropolitan	-6441
ca	-6442
jo	-6443
ti	-6444
oto	-6445
uma	-6446
▁kl	-6447
enna	-6448
kets	-6449
▁awa	-6450
▁lew	-6451
▁tam	-6452
▁woo	-6453
bacco	-6454
nesty	-6455
space	-6456
▁bath	-6457
▁boom	-6458
▁cave	-6459
▁dust	-6460
▁imag	-6461
▁pose	-6462
▁spac	-6463
▁stan	-6464
▁blago	-6465
▁doors	-6466
▁orche	-6467
▁raids	-6468
▁solid	-6469
angered	-6470
angirai	-6471
vereign	-6472
▁advent	-6473
▁advice	-6474
▁agents	-6475
▁athens	-6476
▁bullet	-6477
▁chiefs	-6478
▁mechan	-6479
▁meteor	-6480
▁observ	-6481
▁poland	-6482
▁subsid	-6483
▁awarded	-6484
▁balance	-6485
▁hitting	-6486
▁mexican	-6487
▁mohamed	-6488
▁praised	-6489
▁separat	-6490
▁somalia	-6491
▁suspend	-6492
▁tobacco	-6493
▁brothers	-6494
▁concentr	-6495
▁painting	-6496
▁priority	-6497
▁purchase	-6498
▁remember	-6499
▁violated	-6500
▁promoting	-6501
▁shootings	-6502
▁shortages	-6503
▁sovereign	-6504
▁containing	-6505
▁discussion	-6506
▁historical	-6507
▁initiative	-6508
▁relatively	-6509
▁tsvangirai	-6510
▁disappeared	-6511
▁overwhelming	-6512
ads	-6513
hem	-6514
ima	-6515
osi	-6516
alys	-6517
hips	-6518
iani	-6519
izes	-6520
mont	-6521
omen	-6522
rell	-6523
uter	-6524
with	-6525
▁cig	-6526
▁cra	-6527
▁fta	-6528
▁gro	-6529
▁jac	-6530
▁jol	-6531
▁ske	-6532
▁ski	-6533
board	-6534
erves	-6535
icked	-6536
ulner	-6537
umbai	-6538
uting	-6539
▁busy	-6540
▁huck	-6541
▁khal	-6542
▁mall	-6543
▁murd	-6544
▁roof	-6545
ancing	-6546
▁advoc	-6547
▁cloud	-6548
▁drink	-6549
▁flags	-6550
▁galax	-6551
▁mixed	-6552
▁sight	-6553
▁stern	-6554
▁vital	-6555
achment	-6556
▁bitter	-6557
▁darwin	-6558
▁donald	-6559
▁examin	-6560
▁infant	-6561
▁kuwait	-6562
▁mumbai	-6563
▁oldest	-6564
▁ousted	-6565
▁promot	-6566
▁temple	-6567
▁whales	-6568
ulations	-6569
▁amnesty	-6570
▁amounts	-6571
▁antonio	-6572
▁arrests	-6573
▁becomes	-6574
▁carrier	-6575
▁devices	-6576
▁outrage	-6577
▁pleaded	-6578
▁sitting	-6579
▁survive	-6580
▁typhoon	-6581
ciliation	-6582
▁appealed	-6583
▁benedict	-6584
▁dramatic	-6585
▁gonzales	-6586
▁isolated	-6587
▁networks	-6588
▁ordinary	-6589
▁whatever	-6590
▁attorneys	-6591
▁benchmark	-6592
▁economist	-6593
▁encourage	-6594
▁generally	-6595
▁recognize	-6596
▁testimony	-6597
▁conducting	-6598
▁endangered	-6599
▁federation	-6600
▁referendum	-6601
▁responding	-6602
▁settlement	-6603
▁underground	-6604
▁breakthrough	-6605
ka	-6606
akh	-6607
ids	-6608
san	-6609
▁rd	-6610
apes	-6611
ardo	-6612
atra	-6613
gers	-6614
▁dan	-6615
▁hij	-6616
▁joh	-6617
▁mit	-6618
▁mud	-6619
ining	-6620
mates	-6621
orted	-6622
▁dean	-6623
▁file	-6624
▁glac	-6625
▁inch	-6626
▁sees	-6627
▁shah	-6628
▁wear	-6629
ansion	-6630
jevich	-6631
rupted	-6632
▁aware	-6633
▁chris	-6634
▁harsh	-6635
▁oblig	-6636
▁polar	-6637
▁slump	-6638
▁toile	-6639
ography	-6640
▁desert	-6641
▁destin	-6642
▁endors	-6643
▁ethiop	-6644
▁fields	-6645
▁legend	-6646
▁makers	-6647
▁merkel	-6648
▁miners	-6649
▁rivers	-6650
▁runoff	-6651
▁specif	-6652
standing	-6653
▁barrels	-6654
▁benefit	-6655
▁capture	-6656
▁privacy	-6657
▁profits	-6658
▁returns	-6659
▁spotted	-6660
▁turnout	-6661
▁volcano	-6662
▁contrast	-6663
▁distance	-6664
▁egyptian	-6665
▁employee	-6666
▁instruct	-6667
▁multiple	-6668
▁payments	-6669
▁striking	-6670
▁thousand	-6671
▁decisions	-6672
▁explosive	-6673
▁increases	-6674
▁pollution	-6675
▁regarding	-6676
▁structure	-6677
▁temporary	-6678
▁transform	-6679
▁classified	-6680
▁volunteers	-6681
▁accusations	-6682
▁agriculture	-6683
▁blagojevich	-6684
▁corporation	-6685
▁northeastern	-6686
▁successfully	-6687
dd	-6688
ez	-6689
ema	-6690
exp	-6691
pts	-6692
▁dy	-6693
▁nd	-6694
ario	-6695
mond	-6696
ocol	-6697
oren	-6698
phia	-6699
reck	-6700
▁dry	-6701
▁sav	-6702
maker	-6703
onium	-6704
▁aung	-6705
▁emir	-6706
▁flat	-6707
▁hugo	-6708
▁impe	-6709
▁outs	-6710
▁soil	-6711
▁whit	-6712
dering	-6713
makers	-6714
people	-6715
▁aside	-6716
▁burst	-6717
▁chong	-6718
▁entry	-6719
▁explo	-6720
▁fleet	-6721
▁gross	-6722
▁heath	-6723
▁libya	-6724
▁lobby	-6725
▁meter	-6726
▁nancy	-6727
▁recor	-6728
▁saved	-6729
▁teens	-6730
ossible	-6731
▁attrib	-6732
▁cambod	-6733
▁copies	-6734
▁integr	-6735
▁nether	-6736
▁satisf	-6737
▁stable	-6738
▁trucks	-6739
▁unrest	-6740
adelphia	-6741
▁clothes	-6742
▁correct	-6743
▁dressed	-6744
▁explain	-6745
▁gambari	-6746
▁mistake	-6747
▁monitor	-6748
▁operate	-6749
▁prepare	-6750
▁shelter	-6751
▁switzer	-6752
▁winners	-6753
▁athletes	-6754
▁combined	-6755
▁disputed	-6756
▁greatest	-6757
▁handling	-6758
▁informed	-6759
▁recalled	-6760
▁throwing	-6761
▁complaint	-6762
▁everybody	-6763
▁locations	-6764
▁mccormack	-6765
▁sectarian	-6766
▁winehouse	-6767
▁defendants	-6768
▁richardson	-6769
▁netherlands	-6770
▁switzerland	-6771
▁institutions	-6772
▁philadelphia	-6773
pa	-6774
sa	-6775
sl	-6776
bec	-6777
ira	-6778
law	-6779
mor	-6780
rie	-6781
uez	-6782
aire	-6783
amas	-6784
gans	-6785
onia	-6786
oons	-6787
▁asp	-6788
▁dol	-6789
▁egg	-6790
▁ioc	-6791
▁joe	-6792
▁obv	-6793
▁que	-6794
anded	-6795
apova	-6796
ledon	-6797
▁anch	-6798
▁bars	-6799
▁blan	-6800
▁brad	-6801
▁kent	-6802
▁shif	-6803
▁wart	-6804
▁wimb	-6805
▁yuan	-6806
▁acres	-6807
▁admit	-6808
▁breed	-6809
▁cable	-6810
▁crews	-6811
▁embry	-6812
▁fever	-6813
▁legit	-6814
▁nowak	-6815
▁posed	-6816
▁semif	-6817
▁tiger	-6818
▁walls	-6819
▁whale	-6820
▁worry	-6821
▁write	-6822
▁beauty	-6823
▁deeply	-6824
▁hosted	-6825
▁mental	-6826
▁thinks	-6827
▁transp	-6828
▁wouldn	-6829
▁wounds	-6830
▁yangon	-6831
atically	-6832
▁arrange	-6833
▁inaugur	-6834
▁passing	-6835
▁purpose	-6836
▁revenue	-6837
▁sailors	-6838
▁arriving	-6839
▁defended	-6840
▁delegate	-6841
▁detected	-6842
▁executed	-6843
▁guerrill	-6844
▁improved	-6845
▁missouri	-6846
▁provides	-6847
▁purposes	-6848
▁senators	-6849
▁sexually	-6850
▁stimulus	-6851
▁abandoned	-6852
▁deadliest	-6853
▁negotiate	-6854
▁otherwise	-6855
▁producers	-6856
▁sharapova	-6857
▁wimbledon	-6858
▁economists	-6859
▁securities	-6860
▁compensation	-6861
▁administrative	-6862
iya	-6863
aman	-6864
uese	-6865
▁dad	-6866
▁ded	-6867
▁gad	-6868
▁hin	-6869
▁mog	-6870
▁tie	-6871
berto	-6872
▁calc	-6873
▁clar	-6874
▁empt	-6875
▁eric	-6876
▁gren	-6877
▁orle	-6878
▁pitt	-6879
▁wish	-6880
▁cards	-6881
▁chain	-6882
▁crist	-6883
▁grass	-6884
▁orbit	-6885
▁thank	-6886
ception	-6887
▁accoun	-6888
▁andrew	-6889
▁blasts	-6890
▁eighth	-6891
▁extend	-6892
▁factor	-6893
▁frustr	-6894
▁motion	-6895
▁orange	-6896
▁spoken	-6897
▁stalin	-6898
▁tackle	-6899
idelines	-6900
▁abandon	-6901
▁airways	-6902
▁crossed	-6903
▁declare	-6904
▁renewed	-6905
▁seventh	-6906
▁sichuan	-6907
▁stephen	-6908
▁astronom	-6909
▁deterior	-6910
▁mohammad	-6911
▁prospect	-6912
▁referred	-6913
▁swimming	-6914
▁improving	-6915
▁louisiana	-6916
▁receiving	-6917
▁authorized	-6918
▁interviews	-6919
▁portuguese	-6920
▁appointment	-6921
▁legislative	-6922
▁potentially	-6923
▁investigated	-6924
iel	-6925
▁fi	-6926
▁gy	-6927
abee	-6928
irac	-6929
olen	-6930
▁hou	-6931
▁jin	-6932
▁nam	-6933
▁sir	-6934
burgh	-6935
state	-6936
▁caps	-6937
▁chip	-6938
▁hybr	-6939
▁legs	-6940
▁omar	-6941
▁peak	-6942
▁rudd	-6943
▁sang	-6944
▁sung	-6945
▁todd	-6946
▁touc	-6947
▁zero	-6948
ecraft	-6949
person	-6950
▁capit	-6951
▁chaos	-6952
▁feels	-6953
▁hamid	-6954
▁lanka	-6955
▁moore	-6956
▁posts	-6957
▁risks	-6958
▁units	-6959
▁upset	-6960
▁weigh	-6961
essions	-6962
▁easier	-6963
▁encoun	-6964
▁kenyan	-6965
▁lahore	-6966
▁pelosi	-6967
▁rodrig	-6968
▁stabil	-6969
▁starts	-6970
▁strain	-6971
▁topped	-6972
▁unders	-6973
▁vulner	-6974
▁cloning	-6975
▁comprom	-6976
▁consist	-6977
▁constit	-6978
▁hunting	-6979
▁karachi	-6980
▁orleans	-6981
▁outcome	-6982
▁samples	-6983
▁stretch	-6984
▁tension	-6985
▁welfare	-6986
▁dictator	-6987
▁huckabee	-6988
▁moderate	-6989
▁momentum	-6990
▁selected	-6991
▁wireless	-6992
▁contracts	-6993
▁defending	-6994
▁departure	-6995
▁mountains	-6996
▁sentiment	-6997
▁violating	-6998
▁announcing	-6999
▁approached	-7000
▁assessment	-7001
▁bankruptcy	-7002
▁complaints	-7003
▁experiment	-7004
▁impossible	-7005
▁occupation	-7006
▁spacecraft	-7007
▁advertising	-7008
▁broadcaster	-7009
▁experienced	-7010
▁photographs	-7011
▁reconciliation	-7012
je	-7013
ila	-7014
lah	-7015
now	-7016
sey	-7017
tes	-7018
elly	-7019
onda	-7020
otti	-7021
rast	-7022
roit	-7023
▁alt	-7024
▁lyn	-7025
▁naz	-7026
▁nut	-7027
▁sao	-7028
▁yel	-7029
igned	-7030
rahim	-7031
▁brow	-7032
▁diet	-7033
▁entr	-7034
▁fulf	-7035
▁giul	-7036
▁golf	-7037
▁iron	-7038
▁kate	-7039
▁laid	-7040
▁leak	-7041
▁plut	-7042
▁riot	-7043
▁spur	-7044
▁tent	-7045
▁unac	-7046
▁yoon	-7047
keeper	-7048
▁blaze	-7049
▁clash	-7050
▁latin	-7051
▁postp	-7052
▁rocks	-7053
▁solve	-7054
▁stuff	-7055
▁timet	-7056
▁trick	-7057
▁turns	-7058
▁centre	-7059
▁client	-7060
▁defect	-7061
▁editor	-7062
▁kansas	-7063
▁missed	-7064
▁motors	-7065
▁sheikh	-7066
▁submit	-7067
▁syrian	-7068
▁visits	-7069
▁warner	-7070
▁aftersh	-7071
▁caution	-7072
▁detroit	-7073
▁exposed	-7074
▁joining	-7075
▁parking	-7076
▁plunged	-7077
▁pointed	-7078
▁resumed	-7079
▁tornado	-7080
▁verdict	-7081
▁earnings	-7082
▁giuliani	-7083
▁homeless	-7084
▁indicate	-7085
▁platform	-7086
▁accidents	-7087
▁plutonium	-7088
▁spreading	-7089
▁extremists	-7090
▁greenhouse	-7091
▁interested	-7092
▁popularity	-7093
▁protesting	-7094
▁represents	-7095
▁violations	-7096
▁representing	-7097
▁significantly	-7098
yc	-7099
bes	-7100
fit	-7101
hdi	-7102
▁ye	-7103
ache	-7104
bell	-7105
fast	-7106
kins	-7107
some	-7108
ucky	-7109
▁ark	-7110
▁cul	-7111
▁hee	-7112
▁jav	-7113
▁lag	-7114
▁len	-7115
▁nov	-7116
oster	-7117
▁chol	-7118
▁dawn	-7119
▁gray	-7120
▁hack	-7121
▁recl	-7122
▁rums	-7123
apolis	-7124
▁annan	-7125
▁chose	-7126
▁crops	-7127
▁davis	-7128
▁euros	-7129
▁mehdi	-7130
▁phill	-7131
▁rains	-7132
▁sweet	-7133
▁waves	-7134
holders	-7135
oration	-7136
▁bodygu	-7137
▁denies	-7138
▁finger	-7139
▁freeze	-7140
▁rushed	-7141
▁safely	-7142
▁stolen	-7143
▁switch	-7144
▁traged	-7145
▁tunnel	-7146
▁twenty	-7147
▁values	-7148
▁capitol	-7149
▁granted	-7150
▁houston	-7151
▁inquiry	-7152
▁monthly	-7153
▁seattle	-7154
▁slammed	-7155
▁trained	-7156
▁transpl	-7157
▁variety	-7158
▁viewers	-7159
▁wartime	-7160
▁consecut	-7161
▁exposure	-7162
▁function	-7163
▁injuring	-7164
▁petition	-7165
▁rumsfeld	-7166
▁studying	-7167
▁attacking	-7168
▁fundament	-7169
▁guarantee	-7170
▁nationals	-7171
▁projected	-7172
▁residence	-7173
▁spiritual	-7174
▁strengthen	-7175
▁negotiating	-7176
▁presumptive	-7177
uz	-7178
osa	-7179
quo	-7180
▁pm	-7181
dick	-7182
heim	-7183
tsin	-7184
uman	-7185
▁fol	-7186
▁jae	-7187
▁lev	-7188
▁rav	-7189
▁ray	-7190
▁sab	-7191
▁vig	-7192
otics	-7193
place	-7194
▁adds	-7195
▁blew	-7196
▁bowl	-7197
▁core	-7198
▁eval	-7199
▁nuri	-7200
▁opec	-7201
▁pron	-7202
▁scar	-7203
▁shed	-7204
alysis	-7205
atched	-7206
consin	-7207
▁buses	-7208
▁charl	-7209
▁cleve	-7210
▁grant	-7211
▁greek	-7212
▁larry	-7213
▁maria	-7214
▁motiv	-7215
▁naked	-7216
▁opens	-7217
▁repro	-7218
▁roger	-7219
▁theme	-7220
▁trend	-7221
▁woods	-7222
▁wreck	-7223
▁amazon	-7224
▁belief	-7225
▁divers	-7226
▁impose	-7227
▁liquid	-7228
▁notice	-7229
▁pieces	-7230
▁powell	-7231
▁prefer	-7232
▁pursue	-7233
▁regret	-7234
▁retire	-7235
▁rumors	-7236
▁sweden	-7237
▁telesc	-7238
▁therap	-7239
▁titles	-7240
▁vienna	-7241
▁ceremon	-7242
▁classes	-7243
▁compete	-7244
▁concess	-7245
▁congrat	-7246
▁dealers	-7247
▁disable	-7248
▁factors	-7249
▁feature	-7250
▁interim	-7251
▁legally	-7252
▁reconst	-7253
▁robbery	-7254
▁torture	-7255
▁baseball	-7256
▁centered	-7257
▁crossing	-7258
▁diseases	-7259
▁existing	-7260
▁indicted	-7261
▁interven	-7262
▁occasion	-7263
▁overcome	-7264
▁teenager	-7265
▁withdrew	-7266
identified	-7267
▁addressed	-7268
▁denounced	-7269
▁detainees	-7270
▁displaced	-7271
▁elsewhere	-7272
▁protected	-7273
▁recording	-7274
▁virtually	-7275
▁wisconsin	-7276
▁employment	-7277
▁insurgency	-7278
▁politician	-7279
▁consecutive	-7280
▁proceedings	-7281
▁recommended	-7282
▁investigator	-7283
gi	-7284
ela	-7285
▁pp	-7286
aste	-7287
moil	-7288
ouch	-7289
ribe	-7290
roll	-7291
▁dim	-7292
▁dop	-7293
▁ecu	-7294
▁soo	-7295
▁unh	-7296
eless	-7297
rence	-7298
these	-7299
▁anth	-7300
▁hits	-7301
▁rand	-7302
▁sequ	-7303
▁tiss	-7304
▁ward	-7305
aching	-7306
▁cheap	-7307
▁cuban	-7308
▁decre	-7309
▁empty	-7310
▁flown	-7311
▁frame	-7312
▁intel	-7313
▁laugh	-7314
▁mosul	-7315
▁risen	-7316
▁tablo	-7317
▁timor	-7318
▁usual	-7319
entions	-7320
▁abuses	-7321
▁ahmadi	-7322
▁arabic	-7323
▁carlos	-7324
▁chirac	-7325
▁listen	-7326
▁murray	-7327
▁peters	-7328
▁rafael	-7329
▁vision	-7330
▁barbara	-7331
▁cocaine	-7332
▁element	-7333
▁enterpr	-7334
▁masters	-7335
▁matters	-7336
▁polling	-7337
▁roddick	-7338
▁signals	-7339
▁slipped	-7340
▁tickets	-7341
▁tragedy	-7342
▁turmoil	-7343
▁yeltsin	-7344
▁billions	-7345
▁inspired	-7346
▁israelis	-7347
▁prisoner	-7348
▁requires	-7349
▁suddenly	-7350
▁campaigns	-7351
▁execution	-7352
▁followers	-7353
▁happening	-7354
▁malaysian	-7355
▁socialist	-7356
▁surprised	-7357
▁sustained	-7358
▁technolog	-7359
▁uncertain	-7360
▁absolutely	-7361
▁characters	-7362
▁ultimately	-7363
▁effectively	-7364
▁trafficking	-7365
▁conversation	-7366
▁disappearance	-7367
ui	-7368
zi	-7369
cat	-7370
cho	-7371
tan	-7372
urn	-7373
▁ni	-7374
▁sg	-7375
▁um	-7376
ahar	-7377
bour	-7378
cont	-7379
icts	-7380
lock	-7381
oric	-7382
rist	-7383
wers	-7384
▁fuj	-7385
▁gye	-7386
▁hud	-7387
▁les	-7388
▁lug	-7389
▁lun	-7390
▁reh	-7391
▁rot	-7392
▁sci	-7393
▁urg	-7394
child	-7395
illed	-7396
ocide	-7397
ooter	-7398
right	-7399
▁burn	-7400
▁cafe	-7401
▁cosm	-7402
▁dall	-7403
▁gate	-7404
▁gian	-7405
▁jews	-7406
▁jint	-7407
▁pand	-7408
▁unre	-7409
arrass	-7410
icting	-7411
intend	-7412
▁bases	-7413
▁bones	-7414
▁diagn	-7415
▁eleph	-7416
▁highl	-7417
▁oklah	-7418
▁preca	-7419
▁relax	-7420
▁swift	-7421
▁unpre	-7422
▁wales	-7423
▁apprec	-7424
▁arctic	-7425
▁delays	-7426
▁distur	-7427
▁interf	-7428
▁models	-7429
▁parent	-7430
▁pilots	-7431
▁proved	-7432
▁raided	-7433
▁rubble	-7434
▁salmon	-7435
▁shaped	-7436
▁thrill	-7437
▁transl	-7438
▁warren	-7439
ordinary	-7440
▁approve	-7441
▁autonom	-7442
▁beneath	-7443
▁carries	-7444
▁drawing	-7445
▁ecuador	-7446
▁inquest	-7447
▁marched	-7448
▁marking	-7449
▁moments	-7450
▁rowling	-7451
▁teenage	-7452
▁tougher	-7453
▁attitude	-7454
▁clothing	-7455
▁describe	-7456
▁dropping	-7457
▁endorsed	-7458
▁landmark	-7459
▁pilgrims	-7460
▁resolved	-7461
▁celebrate	-7462
▁centuries	-7463
▁construct	-7464
▁efficient	-7465
▁embarrass	-7466
▁expansion	-7467
▁rodriguez	-7468
▁submitted	-7469
▁testified	-7470
▁timetable	-7471
▁importance	-7472
▁personally	-7473
▁recognized	-7474
▁celebrities	-7475
▁devastating	-7476
▁documentary	-7477
▁inauguration	-7478
▁unidentified	-7479
▁universities	-7480
ji	-7481
bul	-7482
eav	-7483
iox	-7484
udh	-7485
uro	-7486
bezz	-7487
cape	-7488
efin	-7489
ette	-7490
hand	-7491
ores	-7492
▁ads	-7493
▁ast	-7494
▁ing	-7495
▁map	-7496
antic	-7497
teria	-7498
▁barr	-7499
▁chat	-7500
▁earn	-7501
▁embr	-7502
▁kath	-7503
▁katr	-7504
▁meat	-7505
▁mide	-7506
▁nice	-7507
▁sett	-7508
anches	-7509
elling	-7510
icated	-7511
illing	-7512
weight	-7513
▁consc	-7514
▁jihad	-7515
▁keeps	-7516
▁medal	-7517
▁monet	-7518
▁patri	-7519
▁shape	-7520
▁shoes	-7521
▁thick	-7522
▁trips	-7523
actions	-7524
▁behalf	-7525
▁conven	-7526
▁embezz	-7527
▁forget	-7528
▁handle	-7529
▁jintao	-7530
▁limits	-7531
▁shinzo	-7532
▁slated	-7533
▁slaves	-7534
▁stages	-7535
▁stayed	-7536
▁tracks	-7537
▁unfair	-7538
▁viewed	-7539
▁writer	-7540
cedented	-7541
▁bottles	-7542
▁classic	-7543
▁condemn	-7544
▁coordin	-7545
▁elderly	-7546
▁harvard	-7547
▁ibrahim	-7548
▁insists	-7549
▁longest	-7550
▁mideast	-7551
▁nigeria	-7552
▁pending	-7553
▁pulling	-7554
▁detailed	-7555
▁learning	-7556
▁missions	-7557
▁oklahoma	-7558
▁searched	-7559
▁stepping	-7560
▁supports	-7561
▁unfortun	-7562
▁apologize	-7563
▁automaker	-7564
▁ballistic	-7565
▁cleveland	-7566
▁denuclear	-7567
▁featuring	-7568
▁launching	-7569
▁releasing	-7570
▁sentences	-7571
▁teenagers	-7572
▁undermine	-7573
▁agreements	-7574
▁commanders	-7575
▁conclusion	-7576
▁geological	-7577
▁goalkeeper	-7578
▁indication	-7579
▁inspection	-7580
▁prevention	-7581
▁relocation	-7582
▁anticipated	-7583
▁appropriate	-7584
▁technologies	-7585
▁confrontation	-7586
▁conservatives	-7587
pi	-7588
net	-7589
phy	-7590
cker	-7591
gger	-7592
held	-7593
irut	-7594
iser	-7595
keys	-7596
▁dvd	-7597
▁jur	-7598
▁keb	-7599
▁nin	-7600
▁ppp	-7601
▁rah	-7602
▁raj	-7603
▁tat	-7604
▁tum	-7605
▁zaw	-7606
angel	-7607
peace	-7608
▁barg	-7609
▁cats	-7610
▁fred	-7611
▁nurs	-7612
▁plum	-7613
attled	-7614
▁ahmed	-7615
▁badly	-7616
▁bears	-7617
▁crown	-7618
▁disor	-7619
▁flash	-7620
▁imper	-7621
▁pipel	-7622
▁pitch	-7623
▁proof	-7624
▁raquo	-7625
▁retal	-7626
▁shell	-7627
▁shook	-7628
▁skull	-7629
▁spani	-7630
▁steep	-7631
▁stops	-7632
ulating	-7633
▁actors	-7634
▁beirut	-7635
▁charts	-7636
▁consol	-7637
▁endeav	-7638
▁extrad	-7639
▁galaxy	-7640
▁luxury	-7641
▁massac	-7642
▁revive	-7643
▁signal	-7644
▁studio	-7645
▁suburb	-7646
▁surren	-7647
▁wright	-7648
▁broader	-7649
▁clashed	-7650
▁crowded	-7651
▁explore	-7652
▁fighter	-7653
▁flooded	-7654
▁futures	-7655
▁infrast	-7656
▁katrina	-7657
▁pressed	-7658
▁quoting	-7659
▁soaring	-7660
▁vessels	-7661
▁vitamin	-7662
▁anderson	-7663
▁chancell	-7664
▁contains	-7665
▁midfield	-7666
▁mounting	-7667
▁register	-7668
▁expecting	-7669
▁indicates	-7670
▁marketing	-7671
▁conviction	-7672
▁designated	-7673
▁explosions	-7674
▁indicating	-7675
▁maintained	-7676
▁permission	-7677
▁protecting	-7678
▁accompanied	-7679
▁concessions	-7680
▁sovereignty	-7681
▁consequences	-7682
abs	-7683
mal	-7684
mir	-7685
oys	-7686
▁om	-7687
indi	-7688
raid	-7689
stra	-7690
uous	-7691
uten	-7692
▁anx	-7693
▁bae	-7694
▁dun	-7695
▁eru	-7696
▁lav	-7697
▁sgt	-7698
▁tar	-7699
▁upd	-7700
▁yas	-7701
eland	-7702
igers	-7703
itage	-7704
vedev	-7705
▁bare	-7706
▁dign	-7707
▁flee	-7708
▁jets	-7709
▁lean	-7710
▁obst	-7711
▁pool	-7712
▁stir	-7713
▁utah	-7714
▁wore	-7715
▁yard	-7716
▁acted	-7717
▁clock	-7718
▁daugh	-7719
▁disab	-7720
▁diver	-7721
▁flame	-7722
▁jerry	-7723
▁lewis	-7724
▁lists	-7725
▁parks	-7726
▁phase	-7727
▁prest	-7728
▁scrap	-7729
▁shark	-7730
▁accuse	-7731
▁affili	-7732
▁assert	-7733
▁conced	-7734
▁hybrid	-7735
▁lasted	-7736
▁panama	-7737
▁permit	-7738
▁physic	-7739
▁reiter	-7740
▁steady	-7741
▁taylor	-7742
▁theory	-7743
▁toyota	-7744
▁videot	-7745
▁volunt	-7746
▁customs	-7747
▁deficit	-7748
▁minimum	-7749
▁monarch	-7750
▁objects	-7751
▁outlook	-7752
▁pleased	-7753
▁spectac	-7754
▁touched	-7755
▁underst	-7756
▁covering	-7757
▁disputes	-7758
▁emirates	-7759
▁heritage	-7760
▁longtime	-7761
▁medvedev	-7762
▁resulted	-7763
▁attracted	-7764
▁cooperate	-7765
▁daughters	-7766
▁diplomacy	-7767
▁economies	-7768
▁evolution	-7769
▁penalties	-7770
▁predecess	-7771
▁stationed	-7772
▁uncovered	-7773
▁aggressive	-7774
▁attributed	-7775
▁discussing	-7776
▁frequently	-7777
▁kidnappers	-7778
▁laboratory	-7779
▁statistics	-7780
▁suspension	-7781
▁nominations	-7782
▁respondents	-7783
▁northwestern	-7784
▁specifically	-7785
▁manufacturers	-7786
ox	-7787
amo	-7788
few	-7789
hou	-7790
iti	-7791
pay	-7792
rav	-7793
run	-7794
▁ja	-7795
▁wy	-7796
agic	-7797
atri	-7798
inho	-7799
lers	-7800
math	-7801
shot	-7802
star	-7803
vili	-7804
wind	-7805
ylum	-7806
▁dak	-7807
▁dor	-7808
▁gig	-7809
▁kun	-7810
▁mbc	-7811
eller	-7812
icken	-7813
olved	-7814
rible	-7815
rical	-7816
▁alan	-7817
▁clay	-7818
▁eggs	-7819
▁gest	-7820
▁mans	-7821
▁puts	-7822
▁rush	-7823
▁soph	-7824
▁span	-7825
▁tact	-7826
▁topp	-7827
airobi	-7828
iliate	-7829
strong	-7830
▁ambul	-7831
▁chase	-7832
▁coinc	-7833
▁exped	-7834
▁fined	-7835
▁forec	-7836
▁henin	-7837
▁memor	-7838
▁shirt	-7839
▁zawah	-7840
iveness	-7841
▁asylum	-7842
▁downlo	-7843
▁elabor	-7844
▁engage	-7845
▁garden	-7846
▁gyeong	-7847
▁hailed	-7848
▁hearts	-7849
▁hudson	-7850
▁scheme	-7851
ceptable	-7852
▁battles	-7853
▁blasted	-7854
▁cigaret	-7855
▁colored	-7856
▁excited	-7857
▁genetic	-7858
▁habitat	-7859
▁happens	-7860
▁knocked	-7861
▁nairobi	-7862
▁restric	-7863
▁unnamed	-7864
▁vermont	-7865
▁wrapped	-7866
▁abortion	-7867
▁attached	-7868
▁aviation	-7869
▁campbell	-7870
▁collabor	-7871
▁colonial	-7872
▁discover	-7873
▁interpol	-7874
▁militias	-7875
▁operated	-7876
▁pursuing	-7877
▁reducing	-7878
▁shoulder	-7879
▁shutdown	-7880
▁aftermath	-7881
▁ambitions	-7882
▁declaring	-7883
▁highlight	-7884
▁offenders	-7885
▁prominent	-7886
▁regularly	-7887
▁resulting	-7888
▁struggled	-7889
▁chancellor	-7890
▁industries	-7891
▁procedures	-7892
▁suspicious	-7893
▁vulnerable	-7894
▁temporarily	-7895
▁shareholders	-7896
▁championships	-7897
▁unprecedented	-7898
▁infrastructure	-7899
",	-7900
▁zo	-7901
acks	-7902
anim	-7903
ials	-7904
ican	-7905
▁agg	-7906
▁jay	-7907
▁mrs	-7908
▁oxy	-7909
▁pig	-7910
▁tas	-7911
enter	-7912
ulous	-7913
▁arth	-7914
▁assa	-7915
▁curb	-7916
▁deny	-7917
▁dorm	-7918
▁exha	-7919
▁fant	-7920
▁flex	-7921
▁kand	-7922
▁kash	-7923
▁lies	-7924
▁pich	-7925
▁publ	-7926
▁puer	-7927
▁reop	-7928
▁tale	-7929
▁tomb	-7930
▁tool	-7931
▁urge	-7932
bourne	-7933
ushing	-7934
▁aired	-7935
▁antib	-7936
▁canal	-7937
▁congo	-7938
▁dolph	-7939
▁kyodo	-7940
▁kyoto	-7941
▁mobil	-7942
▁naval	-7943
▁ramos	-7944
▁raped	-7945
▁riots	-7946
▁skept	-7947
▁theft	-7948
▁types	-7949
▁volat	-7950
▁allied	-7951
▁cheong	-7952
▁compon	-7953
▁funded	-7954
▁gender	-7955
▁hiding	-7956
▁implic	-7957
▁judici	-7958
▁laptop	-7959
▁myself	-7960
▁noting	-7961
▁reluct	-7962
▁repair	-7963
▁saving	-7964
▁scenes	-7965
▁skills	-7966
▁thirty	-7967
▁wilson	-7968
▁absence	-7969
▁advised	-7970
▁battery	-7971
▁belgium	-7972
▁closest	-7973
▁everest	-7974
▁grounds	-7975
▁impover	-7976
▁indefin	-7977
▁jobless	-7978
▁leftist	-7979
▁methods	-7980
▁passion	-7981
▁thanked	-7982
▁traders	-7983
▁deciding	-7984
▁frontier	-7985
▁judicial	-7986
▁kandahar	-7987
▁managers	-7988
▁michelle	-7989
▁monetary	-7990
▁persuade	-7991
▁stranded	-7992
▁surveyed	-7993
▁composite	-7994
▁extensive	-7995
▁insurgent	-7996
▁mandatory	-7997
▁procedure	-7998
▁separated	-7999
▁typically	-8000
▁addressing	-8001
▁celebrated	-8002
▁philippine	-8003
▁resistance	-8004
▁surprising	-8005
▁distributed	-8006
▁interviewed	-8007
▁substantial	-8008
▁impoverished	-8009
▁peacekeeping	-8010
cr	-8011
ati	-8012
esh	-8013
fir	-8014
gue	-8015
tic	-8016
aken	-8017
offs	-8018
oner	-8019
rets	-8020
udes	-8021
zene	-8022
▁fda	-8023
▁rug	-8024
aimed	-8025
emies	-8026
etown	-8027
ingly	-8028
izumi	-8029
liner	-8030
oured	-8031
prime	-8032
▁abol	-8033
▁aims	-8034
▁alab	-8035
▁diox	-8036
▁forg	-8037
▁frag	-8038
▁gear	-8039
▁grav	-8040
▁horm	-8041
▁intr	-8042
▁jane	-8043
▁mats	-8044
▁mood	-8045
▁pard	-8046
▁plea	-8047
▁roma	-8048
▁seas	-8049
▁zard	-8050
closed	-8051
itious	-8052
rehens	-8053
umbled	-8054
▁alger	-8055
▁audio	-8056
▁bruni	-8057
▁carac	-8058
▁celeb	-8059
▁craig	-8060
▁dates	-8061
▁dying	-8062
▁kelly	-8063
▁lined	-8064
▁pages	-8065
▁pitts	-8066
▁robot	-8067
▁seeks	-8068
▁stead	-8069
▁terry	-8070
▁unexp	-8071
inction	-8072
▁boycot	-8073
▁clinic	-8074
▁commem	-8075
▁compar	-8076
▁curfew	-8077
▁dallas	-8078
▁denver	-8079
▁giants	-8080
▁hunger	-8081
▁infect	-8082
▁jungle	-8083
▁marath	-8084
▁nobody	-8085
▁oxygen	-8086
▁philip	-8087
▁serves	-8088
▁stroke	-8089
▁taxpay	-8090
▁uganda	-8091
▁acceler	-8092
▁checked	-8093
▁dioxide	-8094
▁disrupt	-8095
▁fleeing	-8096
▁intends	-8097
▁koizumi	-8098
▁myspace	-8099
▁noticed	-8100
▁portion	-8101
▁prestig	-8102
▁prostit	-8103
▁railway	-8104
▁scoring	-8105
▁studios	-8106
▁testify	-8107
▁visible	-8108
▁zardari	-8109
▁analysis	-8110
▁competit	-8111
▁disagree	-8112
▁frequent	-8113
▁genocide	-8114
▁incoming	-8115
▁kentucky	-8116
▁minority	-8117
▁mistakes	-8118
▁operator	-8119
▁opponent	-8120
▁slowdown	-8121
▁sponsors	-8122
▁wreckage	-8123
▁airstrike	-8124
▁appearing	-8125
▁infection	-8126
▁judiciary	-8127
▁landslide	-8128
▁paintings	-8129
▁postponed	-8130
▁principle	-8131
▁promising	-8132
▁promotion	-8133
▁strategic	-8134
▁surrender	-8135
▁telescope	-8136
▁christians	-8137
▁immigrants	-8138
▁landslides	-8139
▁membership	-8140
▁optimistic	-8141
▁possession	-8142
▁principles	-8143
▁recovering	-8144
▁separately	-8145
▁unexpected	-8146
▁fundamental	-8147
▁impeachment	-8148
▁mountainous	-8149
▁politically	-8150
▁confirmation	-8151
▁extraordinary	-8152
▁photographers	-8153
fk	-8154
la	-8155
asy	-8156
bro	-8157
equ	-8158
ico	-8159
rez	-8160
ser	-8161
umn	-8162
▁pf	-8163
▁zh	-8164
abet	-8165
aved	-8166
away	-8167
ello	-8168
hone	-8169
mail	-8170
ooth	-8171
ords	-8172
pers	-8173
tada	-8174
teen	-8175
uits	-8176
▁amy	-8177
▁bio	-8178
▁chi	-8179
▁gus	-8180
▁haz	-8181
▁hos	-8182
▁hye	-8183
▁ibm	-8184
▁kyu	-8185
▁ros	-8186
▁sul	-8187
after	-8188
aniya	-8189
ensus	-8190
gment	-8191
inced	-8192
ounce	-8193
regon	-8194
rooms	-8195
▁caut	-8196
▁chan	-8197
▁fame	-8198
▁grap	-8199
▁loud	-8200
▁rays	-8201
▁rely	-8202
▁wool	-8203
father	-8204
iments	-8205
opular	-8206
▁airpl	-8207
▁audit	-8208
▁brook	-8209
▁falls	-8210
▁guang	-8211
▁seung	-8212
▁tries	-8213
▁truce	-8214
▁vigil	-8215
▁wrest	-8216
areness	-8217
station	-8218
vention	-8219
▁actual	-8220
▁afraid	-8221
▁angela	-8222
▁archit	-8223
▁banner	-8224
▁danish	-8225
▁desper	-8226
▁exceed	-8227
▁graham	-8228
▁incred	-8229
▁indeed	-8230
▁kazakh	-8231
▁oregon	-8232
▁provoc	-8233
▁reveal	-8234
▁riding	-8235
▁rooney	-8236
▁rounds	-8237
▁toilet	-8238
▁alabama	-8239
▁bahamas	-8240
▁chamber	-8241
▁chapter	-8242
▁enemies	-8243
▁enjoyed	-8244
▁greeted	-8245
▁hanging	-8246
▁prosper	-8247
▁refusal	-8248
▁revised	-8249
▁sectors	-8250
▁shocked	-8251
▁signing	-8252
▁totally	-8253
▁arranged	-8254
▁featured	-8255
▁focusing	-8256
▁heathrow	-8257
▁reflects	-8258
▁shipping	-8259
▁superior	-8260
▁terminal	-8261
▁abduction	-8262
▁admission	-8263
▁affiliate	-8264
▁competing	-8265
▁contacted	-8266
▁convinced	-8267
▁generated	-8268
▁populated	-8269
▁publicist	-8270
▁retailers	-8271
▁selection	-8272
▁laundering	-8273
▁midfielder	-8274
▁photograph	-8275
▁pittsburgh	-8276
▁reiterated	-8277
▁specialist	-8278
▁consumption	-8279
▁institution	-8280
▁legislature	-8281
▁represented	-8282
▁residential	-8283
▁agricultural	-8284
ci	-8285
dp	-8286
ja	-8287
tv	-8288
ext	-8289
onn	-8290
uja	-8291
una	-8292
▁ry	-8293
▁wo	-8294
awaz	-8295
born	-8296
droe	-8297
elro	-8298
hart	-8299
iful	-8300
ishu	-8301
mans	-8302
onna	-8303
orta	-8304
rome	-8305
vant	-8306
▁gil	-8307
▁kir	-8308
▁ori	-8309
▁roy	-8310
▁suk	-8311
▁tae	-8312
▁tip	-8313
ables	-8314
allah	-8315
anamo	-8316
etime	-8317
orate	-8318
world	-8319
▁bone	-8320
▁dece	-8321
▁glas	-8322
▁jama	-8323
▁maur	-8324
▁poly	-8325
▁rans	-8326
▁user	-8327
active	-8328
essing	-8329
estone	-8330
stream	-8331
▁aster	-8332
▁brian	-8333
▁clubs	-8334
▁forms	-8335
▁guant	-8336
▁guide	-8337
▁helps	-8338
▁hindu	-8339
▁hosts	-8340
▁joins	-8341
▁pharm	-8342
▁relie	-8343
▁remin	-8344
▁reput	-8345
▁simon	-8346
▁stamp	-8347
▁sworn	-8348
▁teeth	-8349
▁veget	-8350
▁venue	-8351
▁wound	-8352
ressive	-8353
▁anchor	-8354
▁ankara	-8355
▁antibi	-8356
▁comply	-8357
▁doping	-8358
▁finals	-8359
▁harder	-8360
▁incent	-8361
▁incumb	-8362
▁kidney	-8363
▁killer	-8364
▁murphy	-8365
▁nicole	-8366
▁openly	-8367
▁oppose	-8368
▁output	-8369
▁partly	-8370
▁plenty	-8371
▁rarely	-8372
▁revers	-8373
▁rulers	-8374
▁schwar	-8375
▁scramb	-8376
▁sealed	-8377
▁tigers	-8378
▁unanim	-8379
▁unique	-8380
▁appeals	-8381
▁courage	-8382
▁damages	-8383
▁exchang	-8384
▁imagine	-8385
▁lending	-8386
▁motorcy	-8387
▁prolong	-8388
▁pursued	-8389
▁rallied	-8390
▁ratings	-8391
▁rehabil	-8392
▁serbian	-8393
▁vaccine	-8394
▁asteroid	-8395
▁atlantis	-8396
▁customer	-8397
▁entrance	-8398
▁interpre	-8399
▁pressing	-8400
▁properly	-8401
▁religion	-8402
▁subprime	-8403
▁sweeping	-8404
▁victoria	-8405
▁amendment	-8406
▁awareness	-8407
▁criminals	-8408
▁extension	-8409
▁factories	-8410
▁reclusive	-8411
▁reference	-8412
▁reviewing	-8413
▁strongest	-8414
▁unpopular	-8415
▁automakers	-8416
▁background	-8417
▁checkpoint	-8418
▁contribute	-8419
▁evacuation	-8420
▁guantanamo	-8421
▁guerrillas	-8422
▁pronounced	-8423
▁separatist	-8424
▁personality	-8425
▁replacement	-8426
▁prostitution	-8427
▁unacceptable	-8428
bil	-8429
eva	-8430
hus	-8431
iev	-8432
ils	-8433
ampa	-8434
beat	-8435
care	-8436
cles	-8437
icut	-8438
iffe	-8439
inos	-8440
lete	-8441
onto	-8442
prom	-8443
yala	-8444
▁afp	-8445
▁alf	-8446
▁avo	-8447
▁cdc	-8448
▁fee	-8449
▁hut	-8450
▁hyd	-8451
▁nur	-8452
▁pod	-8453
▁sed	-8454
▁uni	-8455
▁usa	-8456
▁yoo	-8457
▁zap	-8458
armed	-8459
esong	-8460
front	-8461
munic	-8462
sters	-8463
vinen	-8464
▁aven	-8465
▁buzz	-8466
▁drow	-8467
▁fake	-8468
▁fees	-8469
▁krem	-8470
▁ling	-8471
▁marc	-8472
▁neut	-8473
▁nich	-8474
▁owns	-8475
▁pear	-8476
▁pole	-8477
▁slim	-8478
▁thor	-8479
▁twin	-8480
adishu	-8481
awatra	-8482
nesota	-8483
rising	-8484
terror	-8485
uccess	-8486
ussels	-8487
▁argue	-8488
▁casey	-8489
▁elite	-8490
▁forth	-8491
▁gases	-8492
▁hired	-8493
▁holes	-8494
▁jolie	-8495
▁meets	-8496
▁moroc	-8497
▁nawaz	-8498
▁outdo	-8499
▁paint	-8500
▁radar	-8501
▁rawal	-8502
▁rings	-8503
▁samar	-8504
▁songs	-8505
▁sorry	-8506
▁tears	-8507
▁tower	-8508
▁wider	-8509
regular	-8510
▁approx	-8511
▁ballot	-8512
▁blocks	-8513
▁borrow	-8514
▁burial	-8515
▁button	-8516
▁hidden	-8517
▁hitler	-8518
▁locked	-8519
▁miller	-8520
▁mining	-8521
▁poison	-8522
▁silver	-8523
▁strang	-8524
▁tissue	-8525
▁traded	-8526
▁voiced	-8527
children	-8528
ographic	-8529
zenegger	-8530
▁alberto	-8531
▁artists	-8532
▁concept	-8533
▁crocker	-8534
▁denmark	-8535
▁fastest	-8536
▁honored	-8537
▁hosting	-8538
▁kaesong	-8539
▁kremlin	-8540
▁lieuten	-8541
▁lifting	-8542
▁passage	-8543
▁picking	-8544
▁posting	-8545
▁realize	-8546
▁secured	-8547
▁sevilla	-8548
▁silence	-8549
▁smashed	-8550
▁tabloid	-8551
▁tribute	-8552
▁tripoli	-8553
ibilities	-8554
▁achieved	-8555
▁barriers	-8556
▁brussels	-8557
▁constant	-8558
▁coverage	-8559
▁creation	-8560
▁disorder	-8561
▁engineer	-8562
▁expelled	-8563
▁generals	-8564
▁graduate	-8565
▁johnston	-8566
▁massacre	-8567
▁monitors	-8568
▁opposite	-8569
▁removing	-8570
▁sudanese	-8571
▁veterans	-8572
▁adventure	-8573
▁argentine	-8574
▁connected	-8575
▁continent	-8576
▁counterfe	-8577
▁emotional	-8578
▁epicenter	-8579
▁incumbent	-8580
▁minnesota	-8581
▁mogadishu	-8582
▁policeman	-8583
▁pregnancy	-8584
▁probation	-8585
▁underwent	-8586
▁universal	-8587
▁compromise	-8588
▁dispatched	-8589
▁everywhere	-8590
▁executions	-8591
▁legitimate	-8592
▁remarkable	-8593
▁shinawatra	-8594
▁undergoing	-8595
▁appearances	-8596
▁astronomers	-8597
▁competitive	-8598
▁complicated	-8599
▁connecticut	-8600
▁dismantling	-8601
▁investments	-8602
▁distribution	-8603
▁manipulation	-8604
▁reconstruction	-8605
▁schwarzenegger	-8606
agu	-8607
ahn	-8608
des	-8609
uda	-8610
yah	-8611
zer	-8612
appy	-8613
bean	-8614
bons	-8615
elve	-8616
fish	-8617
icef	-8618
iner	-8619
mese	-8620
▁bra	-8621
▁enh	-8622
▁mdc	-8623
▁meg	-8624
▁nah	-8625
▁nap	-8626
▁sid	-8627
▁tra	-8628
▁wol	-8629
akash	-8630
aware	-8631
isive	-8632
pindi	-8633
qtada	-8634
▁audi	-8635
▁cert	-8636
▁croc	-8637
▁elig	-8638
▁gram	-8639
▁guys	-8640
▁ivan	-8641
▁leon	-8642
▁marg	-8643
▁mice	-8644
▁milk	-8645
▁orth	-8646
▁phen	-8647
▁rove	-8648
▁salv	-8649
▁scan	-8650
▁seal	-8651
▁sued	-8652
▁symp	-8653
▁synd	-8654
americ	-8655
giving	-8656
iatric	-8657
icking	-8658
mother	-8659
ompson	-8660
ouring	-8661
teries	-8662
ushkin	-8663
▁beaut	-8664
▁bonds	-8665
▁boxes	-8666
▁foods	-8667
▁marit	-8668
▁marry	-8669
▁minds	-8670
▁roles	-8671
▁stall	-8672
▁tanks	-8673
▁yards	-8674
▁yield	-8675
ancourt	-8676
umbling	-8677
▁barred	-8678
▁branch	-8679
▁checks	-8680
▁dating	-8681
▁destro	-8682
▁duties	-8683
▁geneva	-8684
▁incurs	-8685
▁locals	-8686
▁manila	-8687
▁piracy	-8688
▁prolif	-8689
▁sounds	-8690
▁stones	-8691
▁tanker	-8692
▁thrown	-8693
▁unicef	-8694
▁waited	-8695
cription	-8696
▁arguing	-8697
▁burmese	-8698
▁caracas	-8699
▁climbed	-8700
▁exhibit	-8701
▁filming	-8702
▁fossett	-8703
▁helmand	-8704
▁lengthy	-8705
▁madonna	-8706
▁mercury	-8707
▁planets	-8708
▁singing	-8709
rehensive	-8710
▁activist	-8711
▁bacteria	-8712
▁branches	-8713
▁consolid	-8714
▁defeated	-8715
▁elements	-8716
▁employed	-8717
▁formerly	-8718
▁freezing	-8719
▁instance	-8720
▁machines	-8721
▁marathon	-8722
▁mourning	-8723
▁occupied	-8724
▁scandals	-8725
▁suburban	-8726
▁theaters	-8727
▁volatile	-8728
▁zawahiri	-8729
▁collected	-8730
▁considers	-8731
▁discrimin	-8732
▁financing	-8733
▁installed	-8734
▁movements	-8735
▁proposals	-8736
▁sponsored	-8737
▁threatens	-8738
▁unsuccess	-8739
▁withdrawn	-8740
▁airstrikes	-8741
▁betancourt	-8742
▁critically	-8743
▁definitely	-8744
▁greenpeace	-8745
▁pichushkin	-8746
▁rawalpindi	-8747
▁satellites	-8748
▁billionaire	-8749
▁comfortable	-8750
▁forecasters	-8751
▁outstanding	-8752
▁applications	-8753
▁photographer	-8754
▁respectively	-8755
▁opportunities	-8756
▁participating	-8757
▁participation	-8758
adi	-8759
aud	-8760
dem	-8761
kei	-8762
kir	-8763
orp	-8764
vis	-8765
weg	-8766
▁ww	-8767
adic	-8768
aint	-8769
asts	-8770
frey	-8771
iffs	-8772
imid	-8773
itar	-8774
just	-8775
long	-8776
mate	-8777
odes	-8778
oles	-8779
onte	-8780
osex	-8781
▁aig	-8782
▁duc	-8783
▁kum	-8784
▁lod	-8785
▁mol	-8786
▁nel	-8787
▁pye	-8788
▁ted	-8789
▁tru	-8790
▁vin	-8791
atoes	-8792
erald	-8793
harry	-8794
isons	-8795
stone	-8796
urned	-8797
▁bans	-8798
▁blaz	-8799
▁buff	-8800
▁caff	-8801
▁cann	-8802
▁cape	-8803
▁clim	-8804
▁ebay	-8805
▁epid	-8806
▁evil	-8807
▁fifa	-8808
▁holl	-8809
▁lots	-8810
▁luis	-8811
▁mere	-8812
▁noon	-8813
▁ours	-8814
▁pill	-8815
▁rash	-8816
▁reid	-8817
▁taxi	-8818
▁thro	-8819
▁ware	-8820
arotti	-8821
hedral	-8822
heimer	-8823
tanbul	-8824
▁carib	-8825
▁corre	-8826
▁cyber	-8827
▁drunk	-8828
▁fixed	-8829
▁guild	-8830
▁horta	-8831
▁jewel	-8832
▁kyung	-8833
▁lunch	-8834
▁mcdon	-8835
▁notes	-8836
▁overs	-8837
▁param	-8838
▁prote	-8839
▁reass	-8840
▁recyc	-8841
▁serge	-8842
▁spray	-8843
▁sympt	-8844
▁toler	-8845
▁uribe	-8846
▁villa	-8847
iciency	-8848
respons	-8849
unction	-8850
▁autops	-8851
▁basket	-8852
▁blacks	-8853
▁bolton	-8854
▁carpet	-8855
▁clinch	-8856
▁crocod	-8857
▁dakota	-8858
▁diyala	-8859
▁equity	-8860
▁fabric	-8861
▁franco	-8862
▁halted	-8863
▁hijack	-8864
▁instru	-8865
▁iphone	-8866
▁kimchi	-8867
▁propag	-8868
▁rebuil	-8869
▁routes	-8870
▁suppli	-8871
▁tennis	-8872
▁tribun	-8873
▁twelve	-8874
▁urgent	-8875
▁useful	-8876
▁abusing	-8877
▁closure	-8878
▁dispers	-8879
▁doubled	-8880
▁dragged	-8881
▁engines	-8882
▁equival	-8883
▁indians	-8884
▁publish	-8885
▁purport	-8886
▁shouted	-8887
▁surpass	-8888
▁surveys	-8889
▁toronto	-8890
▁typical	-8891
▁winfrey	-8892
▁argument	-8893
▁belonged	-8894
▁contamin	-8895
▁damaging	-8896
▁emerging	-8897
▁entirely	-8898
▁facebook	-8899
▁hometown	-8900
▁istanbul	-8901
▁maritime	-8902
▁promises	-8903
▁quarters	-8904
▁realized	-8905
▁regarded	-8906
▁requests	-8907
▁restored	-8908
▁sciences	-8909
▁sessions	-8910
▁severely	-8911
▁survival	-8912
▁thompson	-8913
▁universe	-8914
▁warrants	-8915
▁yourself	-8916
▁antarctic	-8917
▁candidacy	-8918
▁cathedral	-8919
▁confessed	-8920
▁directors	-8921
▁excessive	-8922
▁introduce	-8923
▁landscape	-8924
▁prevented	-8925
▁principal	-8926
▁taiwanese	-8927
▁technique	-8928
▁ceremonies	-8929
▁guidelines	-8930
▁stronghold	-8931
▁businessman	-8932
▁contributed	-8933
▁encouraging	-8934
▁publication	-8935
▁spectacular	-8936
▁preparations	-8937
▁registration	-8938
▁comprehensive	-8939
▁interrogation	-8940
▁correspondents	-8941
oh	-8942
su	-8943
wr	-8944
abi	-8945
bit	-8946
erb	-8947
ien	-8948
ttp	-8949
yad	-8950
▁bm	-8951
▁dj	-8952
▁kc	-8953
▁mi	-8954
adei	-8955
ader	-8956
isen	-8957
lein	-8958
stan	-8959
▁bos	-8960
▁bry	-8961
▁cel	-8962
▁ell	-8963
▁fah	-8964
▁gut	-8965
▁joy	-8966
▁kas	-8967
▁kuz	-8968
▁mum	-8969
▁suv	-8970
▁yan	-8971
▁zar	-8972
fires	-8973
inson	-8974
lando	-8975
ribes	-8976
today	-8977
udhry	-8978
▁acid	-8979
▁amin	-8980
▁auth	-8981
▁bart	-8982
▁bish	-8983
▁blog	-8984
▁brid	-8985
▁cher	-8986
▁craw	-8987
▁dodi	-8988
▁epis	-8989
▁fert	-8990
▁flaw	-8991
▁geun	-8992
▁http	-8993
▁idol	-8994
▁lion	-8995
▁medi	-8996
▁mitt	-8997
▁qass	-8998
▁scul	-8999
▁ster	-9000
▁tang	-9001
▁tayy	-9002
▁thus	-9003
▁tips	-9004
▁warn	-9005
▁aging	-9006
▁ammun	-9007
▁aquar	-9008
▁assum	-9009
▁bruce	-9010
▁burns	-9011
▁clark	-9012
▁depth	-9013
▁enorm	-9014
▁finds	-9015
▁fujim	-9016
▁haiti	-9017
▁lynch	-9018
▁maine	-9019
▁marty	-9020
▁mines	-9021
▁oprah	-9022
▁pants	-9023
▁pleas	-9024
▁poore	-9025
▁ports	-9026
▁spots	-9027
▁squee	-9028
▁swine	-9029
▁tours	-9030
▁wazir	-9031
▁adjust	-9032
▁bottle	-9033
▁burden	-9034
▁buyers	-9035
▁crater	-9036
▁desire	-9037
▁discip	-9038
▁dumped	-9039
▁enthus	-9040
▁greens	-9041
▁guided	-9042
▁nikkei	-9043
▁norway	-9044
▁norweg	-9045
▁overha	-9046
▁overth	-9047
▁paraly	-9048
▁parker	-9049
▁pepper	-9050
▁resemb	-9051
▁subway	-9052
▁suffer	-9053
▁volume	-9054
ilateral	-9055
▁applied	-9056
▁captors	-9057
▁forests	-9058
▁gaining	-9059
▁gazprom	-9060
▁gesture	-9061
▁gunfire	-9062
▁handful	-9063
▁inmates	-9064
▁murders	-9065
▁orlando	-9066
▁prophet	-9067
▁restart	-9068
▁saakash	-9069
▁subsequ	-9070
▁wealthy	-9071
▁aquarium	-9072
▁bernanke	-9073
▁broadway	-9074
▁cambodia	-9075
▁chaudhry	-9076
▁convince	-9077
▁counties	-9078
▁expanded	-9079
▁generate	-9080
▁imminent	-9081
▁managing	-9082
▁margaret	-9083
▁outgoing	-9084
▁predomin	-9085
▁revision	-9086
▁scholars	-9087
▁shortage	-9088
▁somebody	-9089
▁stopping	-9090
▁afterward	-9091
▁attackers	-9092
▁breakfast	-9093
▁caribbean	-9094
▁cautioned	-9095
▁consensus	-9096
▁declining	-9097
▁disrupted	-9098
▁elaborate	-9099
▁ethiopian	-9100
▁orchestra	-9101
▁pavarotti	-9102
▁primarily	-9103
▁privately	-9104
▁ammunition	-9105
▁challenged	-9106
▁challenger	-9107
▁contenders	-9108
▁elementary	-9109
▁households	-9110
▁liberation	-9111
▁performing	-9112
▁preventing	-9113
▁qualifying	-9114
▁reputation	-9115
▁restricted	-9116
▁transplant	-9117
▁citizenship	-9118
▁combination	-9119
▁prestigious	-9120
▁saakashvili	-9121
▁temperature	-9122
▁demonstrated	-9123
▁intervention	-9124
▁transactions	-9125
▁proliferation	-9126
▁traditionally	-9127
eta	-9128
lan	-9129
neg	-9130
▁oz	-9131
abao	-9132
acle	-9133
athy	-9134
izer	-9135
name	-9136
nold	-9137
phan	-9138
quba	-9139
shad	-9140
zhou	-9141
▁dir	-9142
▁liv	-9143
▁mao	-9144
▁nba	-9145
▁rud	-9146
▁sod	-9147
▁ups	-9148
agger	-9149
cedes	-9150
grade	-9151
itted	-9152
jamin	-9153
kirts	-9154
lined	-9155
otive	-9156
print	-9157
wered	-9158
▁chim	-9159
▁cler	-9160
▁dies	-9161
▁estr	-9162
▁ferg	-9163
▁juan	-9164
▁mong	-9165
▁nazi	-9166
▁nebr	-9167
▁odds	-9168
▁pist	-9169
▁pure	-9170
▁rent	-9171
▁rhet	-9172
▁slip	-9173
▁stab	-9174
▁ther	-9175
▁webs	-9176
antile	-9177
ichiro	-9178
igroup	-9179
ishing	-9180
▁andre	-9181
▁asset	-9182
▁bever	-9183
▁blind	-9184
▁bulls	-9185
▁clues	-9186
▁craft	-9187
▁farms	-9188
▁fault	-9189
▁files	-9190
▁guess	-9191
▁ivory	-9192
▁lucky	-9193
▁plate	-9194
▁pyram	-9195
▁ranch	-9196
▁remov	-9197
▁rifle	-9198
▁seren	-9199
▁spraw	-9200
▁stick	-9201
▁swing	-9202
▁tampa	-9203
uations	-9204
▁baquba	-9205
▁cannes	-9206
▁castle	-9207
▁diabet	-9208
▁edward	-9209
▁empire	-9210
▁exiled	-9211
▁explan	-9212
▁jiabao	-9213
▁kicked	-9214
▁mortar	-9215
▁muscle	-9216
▁passes	-9217
▁random	-9218
▁reward	-9219
▁sensit	-9220
▁soared	-9221
▁surged	-9222
▁wooden	-9223
▁youths	-9224
▁assured	-9225
▁ballots	-9226
▁blanket	-9227
▁brigade	-9228
▁britney	-9229
▁counted	-9230
▁extinct	-9231
▁hostile	-9232
▁ignored	-9233
▁instant	-9234
▁intimid	-9235
▁neutral	-9236
▁offense	-9237
▁paulson	-9238
▁petrole	-9239
▁recruit	-9240
▁runners	-9241
▁shooter	-9242
▁shouldn	-9243
▁stewart	-9244
▁substit	-9245
▁wrongdo	-9246
▁adoption	-9247
▁attacker	-9248
▁bathroom	-9249
▁benjamin	-9250
▁evacuate	-9251
▁glaciers	-9252
▁involves	-9253
▁johndroe	-9254
▁lighting	-9255
▁nebraska	-9256
▁phenomen	-9257
▁restrain	-9258
▁romantic	-9259
▁shelters	-9260
▁stunning	-9261
▁symptoms	-9262
▁takeover	-9263
▁thorough	-9264
▁tribunal	-9265
▁ambitious	-9266
▁arguments	-9267
▁breathing	-9268
▁carefully	-9269
▁citigroup	-9270
▁colleague	-9271
▁donations	-9272
▁endeavour	-9273
▁existence	-9274
▁fortified	-9275
▁kilometer	-9276
▁kurdistan	-9277
▁maintains	-9278
▁outskirts	-9279
▁protested	-9280
▁purported	-9281
▁therefore	-9282
▁emphasized	-9283
▁equivalent	-9284
▁extinction	-9285
▁fatalities	-9286
▁friendship	-9287
▁mercantile	-9288
▁peacefully	-9289
▁professors	-9290
▁regardless	-9291
▁waziristan	-9292
▁celebrating	-9293
▁contractors	-9294
▁criticizing	-9295
▁educational	-9296
▁endorsement	-9297
▁inspections	-9298
▁legislators	-9299
▁maintaining	-9300
▁operational	-9301
▁assassinated	-9302
▁difficulties	-9303
▁peacekeepers	-9304
▁performances	-9305
dr	-9306
kt	-9307
uy	-9308
chs	-9309
eer	-9310
iko	-9311
mes	-9312
oca	-9313
oty	-9314
pot	-9315
put	-9316
say	-9317
try	-9318
tse	-9319
▁ax	-9320
▁cm	-9321
argo	-9322
arre	-9323
case	-9324
illy	-9325
inks	-9326
opez	-9327
pher	-9328
uson	-9329
▁abn	-9330
▁alz	-9331
▁clo	-9332
▁esp	-9333
▁hip	-9334
▁imf	-9335
▁kam	-9336
▁unw	-9337
▁uss	-9338
▁wip	-9339
annes	-9340
charg	-9341
opard	-9342
ouses	-9343
▁blat	-9344
▁bold	-9345
▁chur	-9346
▁cole	-9347
▁fare	-9348
▁ftse	-9349
▁hell	-9350
▁icon	-9351
▁indo	-9352
▁lect	-9353
▁pier	-9354
▁shim	-9355
▁shoe	-9356
▁stap	-9357
▁tren	-9358
▁unch	-9359
▁wrap	-9360
icipal	-9361
lessly	-9362
▁adapt	-9363
▁allen	-9364
▁croat	-9365
▁cryst	-9366
▁dated	-9367
▁depos	-9368
▁eager	-9369
▁feder	-9370
▁gonna	-9371
▁inner	-9372
▁lopez	-9373
▁merch	-9374
▁moral	-9375
▁ninth	-9376
▁pride	-9377
▁races	-9378
▁ranks	-9379
▁revel	-9380
▁singh	-9381
▁sized	-9382
▁tools	-9383
▁weren	-9384
▁aiming	-9385
▁ambush	-9386
▁breach	-9387
▁caucus	-9388
▁covers	-9389
▁honest	-9390
▁invent	-9391
▁libyan	-9392
▁manner	-9393
▁medics	-9394
▁merger	-9395
▁mirror	-9396
▁monkey	-9397
▁organs	-9398
▁oscars	-9399
▁ransom	-9400
▁reserv	-9401
▁retrie	-9402
▁slowed	-9403
▁titled	-9404
▁tragic	-9405
▁waving	-9406
▁autopsy	-9407
▁battled	-9408
▁bedroom	-9409
▁belgian	-9410
▁consent	-9411
▁evangel	-9412
▁gibbons	-9413
▁gunshot	-9414
▁handing	-9415
▁montana	-9416
▁mothers	-9417
▁powered	-9418
▁predict	-9419
▁rebuild	-9420
▁removal	-9421
▁samarra	-9422
▁swedish	-9423
▁undergo	-9424
▁animated	-9425
▁anywhere	-9426
▁diabetes	-9427
▁elevator	-9428
▁ferguson	-9429
▁fujimori	-9430
▁hearings	-9431
▁holidays	-9432
▁johannes	-9433
▁lifetime	-9434
▁mercedes	-9435
▁nominees	-9436
▁pointing	-9437
▁rhetoric	-9438
▁summoned	-9439
▁youngest	-9440
▁alzheimer	-9441
▁crocodile	-9442
▁depending	-9443
▁essential	-9444
▁fernandez	-9445
▁finishing	-9446
▁incursion	-9447
▁irregular	-9448
▁mentioned	-9449
▁municipal	-9450
▁policemen	-9451
▁purchased	-9452
▁shattered	-9453
▁smuggling	-9454
▁sophistic	-9455
▁substance	-9456
▁supporter	-9457
▁wildfires	-9458
▁wonderful	-9459
▁automotive	-9460
▁capability	-9461
▁salmonella	-9462
▁antibiotics	-9463
▁examination	-9464
▁influential	-9465
▁pornography	-9466
▁predecessor	-9467
▁recognition	-9468
▁territories	-9469
▁telecommunic	-9470
▁approximately	-9471
▁neighborhoods	-9472
▁quarterfinals	-9473
▁rehabilitation	-9474
ii	-9475
sm	-9476
aby	-9477
anu	-9478
aul	-9479
car	-9480
din	-9481
dis	-9482
iac	-9483
mat	-9484
ofi	-9485
zes	-9486
▁wu	-9487
ails	-9488
araz	-9489
hasa	-9490
heit	-9491
ilia	-9492
isan	-9493
umph	-9494
unes	-9495
▁adm	-9496
▁dug	-9497
▁err	-9498
▁hay	-9499
▁hog	-9500
▁mes	-9501
▁nan	-9502
▁oak	-9503
▁poc	-9504
▁raw	-9505
▁raz	-9506
▁tag	-9507
▁tut	-9508
▁wan	-9509
▁yog	-9510
anson	-9511
aping	-9512
cript	-9513
eanor	-9514
earns	-9515
elves	-9516
iders	-9517
mouth	-9518
ommod	-9519
▁aziz	-9520
▁cook	-9521
▁dana	-9522
▁duck	-9523
▁ghan	-9524
▁gwan	-9525
▁kerv	-9526
▁lima	-9527
▁limb	-9528
▁lisa	-9529
▁oath	-9530
▁okin	-9531
▁poul	-9532
▁raul	-9533
▁sank	-9534
▁snap	-9535
▁tire	-9536
▁toss	-9537
▁trav	-9538
▁vest	-9539
mental	-9540
omberg	-9541
ortium	-9542
▁brick	-9543
▁ferry	-9544
▁gangs	-9545
▁genet	-9546
▁grace	-9547
▁guest	-9548
▁kinds	-9549
▁marie	-9550
▁rosen	-9551
▁scrut	-9552
▁starb	-9553
▁susan	-9554
▁tired	-9555
▁undis	-9556
▁voter	-9557
▁wayne	-9558
▁widow	-9559
▁wings	-9560
▁commod	-9561
▁crunch	-9562
▁donors	-9563
▁drough	-9564
▁foster	-9565
▁fueled	-9566
▁garage	-9567
▁harbor	-9568
▁hariri	-9569
▁hassan	-9570
▁hubble	-9571
▁hunter	-9572
▁indict	-9573
▁kidnap	-9574
▁madoff	-9575
▁modest	-9576
▁monica	-9577
▁mutual	-9578
▁nelson	-9579
▁polish	-9580
▁preced	-9581
▁premie	-9582
▁puerto	-9583
▁racing	-9584
▁sharks	-9585
▁shirts	-9586
▁slowly	-9587
▁spaces	-9588
▁tayyip	-9589
▁barrier	-9590
▁bernard	-9591
▁charism	-9592
▁clients	-9593
▁credits	-9594
▁forming	-9595
▁kerviel	-9596
▁mandate	-9597
▁outpost	-9598
▁portray	-9599
▁revenge	-9600
▁reverse	-9601
▁rolling	-9602
▁settled	-9603
▁triumph	-9604
▁accommod	-9605
▁advisers	-9606
▁cautious	-9607
▁checking	-9608
▁clinical	-9609
▁consumed	-9610
▁enormous	-9611
▁equipped	-9612
▁justices	-9613
▁optimism	-9614
▁orbiting	-9615
▁protocol	-9616
▁releases	-9617
▁russians	-9618
▁threaten	-9619
▁weakness	-9620
▁bloomberg	-9621
▁collision	-9622
▁conscious	-9623
▁describes	-9624
▁economics	-9625
▁expanding	-9626
▁fishermen	-9627
▁languages	-9628
▁mastermin	-9629
▁norwegian	-9630
▁ownership	-9631
▁petroleum	-9632
▁practices	-9633
▁slaughter	-9634
▁sprawling	-9635
▁witnessed	-9636
▁accounting	-9637
▁consortium	-9638
▁destroying	-9639
▁dissidents	-9640
▁electrical	-9641
▁encouraged	-9642
▁engagement	-9643
▁lieutenant	-9644
▁overturned	-9645
▁propaganda	-9646
▁retirement	-9647
▁sentencing	-9648
▁grandfather	-9649
▁obligations	-9650
▁retaliation	-9651
▁willingness	-9652
▁quarterfinal	-9653
▁thanksgiving	-9654
▁predominantly	-9655
mi	-9656
oi	-9657
bie	-9658
icy	-9659
mao	-9660
oir	-9661
osh	-9662
▁cd	-9663
▁hs	-9664
▁mw	-9665
▁nh	-9666
agen	-9667
asty	-9668
bach	-9669
bala	-9670
enos	-9671
furt	-9672
hill	-9673
ifer	-9674
mann	-9675
otte	-9676
play	-9677
ules	-9678
▁ana	-9679
▁bog	-9680
▁cin	-9681
▁dat	-9682
▁fet	-9683
▁hui	-9684
▁jir	-9685
▁nag	-9686
▁nfl	-9687
▁por	-9688
▁sib	-9689
▁tea	-9690
affir	-9691
aired	-9692
arity	-9693
chell	-9694
ctica	-9695
ighed	-9696
lings	-9697
ricts	-9698
rific	-9699
storm	-9700
▁abor	-9701
▁adam	-9702
▁andy	-9703
▁bees	-9704
▁bosn	-9705
▁flic	-9706
▁hate	-9707
▁hike	-9708
▁hind	-9709
▁hors	-9710
▁jank	-9711
▁kofi	-9712
▁lock	-9713
▁luck	-9714
▁panc	-9715
▁peer	-9716
▁qari	-9717
▁rank	-9718
▁root	-9719
▁ross	-9720
▁seok	-9721
▁shia	-9722
▁sier	-9723
▁stor	-9724
▁sway	-9725
▁wage	-9726
▁wang	-9727
▁whis	-9728
icious	-9729
istics	-9730
orated	-9731
▁anthe	-9732
▁arson	-9733
▁disgr	-9734
▁dynam	-9735
▁famed	-9736
▁jeong	-9737
▁kilog	-9738
▁lance	-9739
▁lungs	-9740
▁magic	-9741
▁midst	-9742
▁minus	-9743
▁rider	-9744
▁roots	-9745
▁stuck	-9746
▁suits	-9747
▁truly	-9748
▁uncom	-9749
▁yanke	-9750
ificial	-9751
osexual	-9752
renheit	-9753
working	-9754
▁ancest	-9755
▁behead	-9756
▁breaks	-9757
▁brothe	-9758
▁condol	-9759
▁deport	-9760
▁drinks	-9761
▁ethics	-9762
▁gotten	-9763
▁gusmao	-9764
▁hinted	-9765
▁intent	-9766
▁manage	-9767
▁perino	-9768
▁respir	-9769
▁ripped	-9770
▁seeded	-9771
▁statue	-9772
▁stream	-9773
▁struct	-9774
▁trails	-9775
▁verify	-9776
▁versus	-9777
american	-9778
▁afghans	-9779
▁angered	-9780
▁automob	-9781
▁beatles	-9782
▁cancell	-9783
▁cheaper	-9784
▁clooney	-9785
▁contemp	-9786
▁conting	-9787
▁dolphin	-9788
▁goldman	-9789
▁grabbed	-9790
▁handled	-9791
▁hardest	-9792
▁hawking	-9793
▁jacques	-9794
▁knowing	-9795
▁obvious	-9796
▁okinawa	-9797
▁paparaz	-9798
▁payment	-9799
▁plummet	-9800
▁prayers	-9801
▁prefect	-9802
▁prisons	-9803
▁proport	-9804
▁pyramid	-9805
▁rampage	-9806
▁reacted	-9807
▁russell	-9808
▁setback	-9809
▁shepher	-9810
▁stearns	-9811
▁stormed	-9812
▁studied	-9813
▁utility	-9814
▁venture	-9815
▁actively	-9816
▁airplane	-9817
▁answered	-9818
▁assigned	-9819
▁austrian	-9820
▁captives	-9821
▁concerts	-9822
▁deadlock	-9823
▁defender	-9824
▁dispatch	-9825
▁distress	-9826
▁imperial	-9827
▁investor	-9828
▁judgment	-9829
▁measured	-9830
▁mitchell	-9831
▁overhaul	-9832
▁patience	-9833
▁pipeline	-9834
▁produces	-9835
▁refusing	-9836
▁shouting	-9837
▁shutting	-9838
▁sleeping	-9839
▁sporting	-9840
▁supervis	-9841
▁survivor	-9842
▁textbook	-9843
▁thoughts	-9844
▁anonymous	-9845
▁associate	-9846
▁batteries	-9847
▁beautiful	-9848
▁cristiano	-9849
▁dedicated	-9850
▁districts	-9851
▁exchanges	-9852
▁extending	-9853
▁framework	-9854
▁greenland	-9855
▁intensive	-9856
▁melbourne	-9857
▁musicians	-9858
▁operators	-9859
▁ourselves	-9860
▁propelled	-9861
▁provision	-9862
▁publisher	-9863
▁reinforce	-9864
▁resolving	-9865
▁secretive	-9866
▁semifinal	-9867
▁solutions	-9868
▁somewhere	-9869
▁starbucks	-9870
▁antarctica	-9871
▁biological	-9872
▁committees	-9873
▁devastated	-9874
▁imprisoned	-9875
▁incentives	-9876
▁kazakhstan	-9877
▁psychology	-9878
▁researcher	-9879
▁strategist	-9880
▁application	-9881
▁destination	-9882
▁earthquakes	-9883
▁grandmother	-9884
▁prostitutes	-9885
▁sensitivity	-9886
▁statistical	-9887
▁transparent	-9888
▁celebrations	-9889
▁governmental	-9890
▁imprisonment	-9891
▁johannesburg	-9892
▁manufacturer	-9893
▁sophisticated	-9894
▁strengthening	-9895
▁archaeologists	-9896
▁recommendations	-9897
uo	-9898
gir	-9899
jan	-9900
kat	-9901
oni	-9902
ros	-9903
tar	-9904
▁jr	-9905
▁kg	-9906
▁lg	-9907
alay	-9908
alle	-9909
anny	-9910
aval	-9911
club	-9912
eman	-9913
from	-9914
heng	-9915
iary	-9916
iley	-9917
ixon	-9918
olla	-9919
ospi	-9920
stop	-9921
ught	-9922
walk	-9923
yans	-9924
▁bmw	-9925
▁gym	-9926
▁inh	-9927
▁kph	-9928
▁rab	-9929
▁ras	-9930
▁zah	-9931
abani	-9932
ascus	-9933
ensed	-9934
iscal	-9935
jiang	-9936
mandu	-9937
netso	-9938
piece	-9939
▁apec	-9940
▁bash	-9941
▁bout	-9942
▁bris	-9943
▁choi	-9944
▁crem	-9945
▁echo	-9946
▁furn	-9947
▁gill	-9948
▁grim	-9949
▁hart	-9950
▁hend	-9951
▁hwan	-9952
▁ingr	-9953
▁java	-9954
▁keen	-9955
▁leve	-9956
▁lobb	-9957
▁lord	-9958
▁melt	-9959
▁mild	-9960
▁nerv	-9961
▁nose	-9962
▁pact	-9963
▁	-9964
e	-9965
a	-9966
t	-9967
i	-9968
n	-9969
o	-9970
s	-9971
r	-9972
h	-9973
d	-9974
l	-9975
c	-9976
u	-9977
m	-9978
p	-9979
f	-9980
g	-9981
w	-9982
y	-9983
b	-9984
,	-9985
v	-9986
k	-9987
"	-9988
'	-9989
j	-9990
x	-9991
z	-9992
q	-9993
